#version: 0.2 - Trained by `huggingface/tokenizers`
Ċ Ġ
ĊĠ Ġ
ĊĠĠ Ġ
i n
Ġ t
e r
o n
a t
ĊĠĠĠ Ġ
ĊĠĠĠĠ Ġ
ĊĠĠĠĠĠ Ġ
ĊĠĠĠĠĠĠ Ġ
r e
Ġ a
s e
h e
o r
e n
s t
a l
Ġ c
Ġt he
- -
i t
l e
d e
i on
ĊĠĠĠĠĠĠĠ Ġ
a r
ĊĠĠĠĠĠĠĠĠ Ġ
ĊĠĠĠĠĠĠĠĠĠ Ġ
a n
ĊĠĠĠĠĠĠĠĠĠĠ Ġ
Ġ p
Ġ o
Ġ f
Ġ =
r o
Ġ s
Ġ in
i s
m e
i c
Ġ w
e d
in g
c t
Ġ b
e s
Ġ re
Ġo f
Ġa n
se l
sel f
en t
Ġ n
u t
Ġ m
Ġ d
u r
a s
Ġ e
-- --
l o
ĊĠĠĠĠĠĠĠĠĠĠĠ Ġ
m p
ĊĠĠĠĠĠĠĠĠĠĠĠĠ Ġ
Ġt o
e t
ĊĠĠĠĠĠĠĠĠĠĠĠĠĠ Ġ
ĊĠĠĠĠĠĠĠĠĠĠĠĠĠĠ Ġ
Ġan d
Ġ i
Ġ (
u n
Ġ "
r a
i g
c e
o t
Ġ de
Ġ '
u l
Ġ self
Ġt h
i d
i l
p e
at ion
o l
v e
Ġ is
Ġ h
c h
at e
Ġ T
Ġ 1
Ġf or
u e
a me
Ġ l
a d
g e
) :
Ġ g
# #
u s
u m
a b
= =
Ġ st
e l
c o
Ġ v
t er
r i
s s
ĊĠĠĠĠĠĠĠĠĠĠĠĠĠĠĠ Ġ
t h
0 0
Ġc o
ĊĠĠĠĠĠĠĠĠĠĠĠĠĠĠĠĠ Ġ
i st
or t
l y
Ġc on
Ġ S
ĊĠĠĠĠĠĠĠĠĠĠĠĠĠĠĠĠĠ Ġ
Ġ C
it h
u p
' ,
t e
c k
ĊĠĠĠĠĠĠĠĠĠĠĠĠĠĠĠĠĠĠ Ġ
Ġ A
i f
---- ----
Ġ #
v er
( )
m a
Ġi f
p t
Ġ I
Ċ ĊĠĠĠ
Ġ -
on e
Ġb e
ro m
a m
q u
Ġ 2
Ġ $
i r
i m
Ġ se
ct ion
Ġ [
Ġw ith
Ġe x
ur n
Ġde f
" "
Ġ \
) ,
Ġ N
at a
as s
Ġp ro
t y
at h
o de
Ġth at
Ġ 0
i le
a y
o d
" ,
m ent
i z
Ġ P
ul t
Ġ +
o w
Ġa s
c on
a p
in t
t urn
_ _
a se
r an
c l
Ġ F
n ame
Ġn ot
u re
Ġ or
ĊĠĠĠĠĠĠĠĠĠĠĠĠĠĠĠĠĠĠĠ Ġ
er s
en d
Ġa l
* *
u b
k e
er e
er t
ĊĠĠĠĠĠĠĠĠĠĠĠĠĠĠĠĠĠĠĠĠ Ġ
Ġre turn
Ġ M
g et
Ġ on
e ct
Ġ {
ĊĠĠĠĠĠĠĠĠĠĠĠĠĠĠĠĠĠĠĠĠĠ Ġ
mp ort
Ċ ĊĠĠĠĠĠĠĠ
h t
t a
ab le
ĊĠĠĠĠĠĠĠĠĠĠĠĠĠĠĠĠĠĠĠĠĠĠ Ġ
Ġ me
e x
o s
it y
) )
Ġ D
i ve
i me
t o
e st
an d
u se
Ġre s
( '
## ##
== ==
Ġ L
or m
in e
p l
Ġ R
i al
' :
ĠT he
ar t
i v
n t
) .
Ġb y
Ġw h
] ,
re s
an t
c es
a ge
Ġ it
o m
d er
v al
at ed
p er
se t
Ġ r
a g
Ġ lo
ty pe
p ro
( "
Ġ at
Ġ B
Ġ" ""
p ut
e m
Ġ 3
st r
ig ht
Ċ Ċ
p h
e w
o ut
f f
Ġ E
{ \
Ġa re
al l
i es
o re
Ġf rom
Ġ *
pt ion
' )
g s
ĊĠĠĠĠĠĠĠĠĠĠĠĠĠĠĠĠĠĠĠĠĠĠĠ Ġ
i b
-------- --------
p ar
Ġ H
Ġ y
ic t
o ur
a c
ode l
p o
0 1
Ġw as
r ue
Ġ W
a ck
ĊĠĠĠĠĠĠĠĠĠĠĠĠĠĠĠĠĠĠĠĠĠĠĠĠ Ġ
â Ģ
re d
. _
Ġ un
Ġi mport
i p
Ġs h
[ '
Ġ O
Ġ :
mp le
Ġth is
Ġ G
ĊĠĠĠĠĠĠĠĠĠĠĠĠĠĠĠĠĠĠĠĠĠĠĠĠĠ Ġ
' ]
Ġc h
" )
f orm
f ig
f rom
j ect
r or
ĠN one
t r
s c
ĊĠĠĠĠĠĠĠĠĠĠĠĠĠĠĠĠĠĠĠĠĠĠĠĠĠĠ Ġ
a ct
o p
d s
iz e
" :
o c
an ce
Ġ= =
en s
= "
it ion
Ġe l
q ue
ic al
ic e
de f
ig n
u d
Ġv al
a ve
i ent
i de
Ġc l
u g
Ġ he
d ata
s er
d u
o un
or y
Ġw e
x t
Ġ 4
lo w
_ {
Ġa r
il l
ke y
Ġ le
Ġp re
Ġst r
ar y
p ath
Ġa ss
f er
Ġ k
Ġa d
o b
p re
m m
Â ł
y pe
en ce
Ġ U
ic h
a re
Ġa p
i se
ĠI n
Ġt est
} }
Ġd ata
Ġm a
ation s
u st
Ġ use
i el
f ile
in d
a ce
i o
a st
ĊĠĠĠĠĠĠĠĠĠĠĠĠĠĠĠĠĠĠĠĠĠĠĠĠĠĠĠ Ġ
Ġ _
ĉ ĉ
Ġco mp
Ġ j
Ġ 5
. .
al se
I n
p ort
m b
p on
or d
ĊĠĠĠĠĠĠĠĠĠĠĠĠĠĠĠĠĠĠĠĠĠĠĠĠĠĠĠĠ Ġ
ri b
Ġc an
ces s
or k
an g
el l
Ġ us
s h
ran s
lo g
c re
] )
Ġ x
r y
ar d
Ġ en
c al
o st
Ġo b
ĊĠĠĠĠĠĠĠĠĠĠĠĠĠĠĠĠĠĠĠĠĠĠĠĠĠĠĠĠĠ Ġ
l l
th er
ro up
it e
ap p
#### ####
y s
ad d
i re
o me
m in
Ġo ut
t ra
te xt
que st
Ġp ar
Ġw ere
te st
==== ====
ĊĠĠĠĠĠĠĠĠĠĠĠĠĠĠĠĠĠĠĠĠĠĠĠĠĠĠĠĠĠĠ Ġ
ul d
= '
ar gs
1 0
Ġ %
Ġwh ich
e p
Ġn ame
Ġ )
Ġp l
f t
cl ass
u le
un t
] .
Ġh ave
ĠT h
Ġd o
Ġn e
b o
de d
p y
at ch
v ent
m ath
c he
r int
Ġel se
a v
pe c
Ġ$ \
Ġ V
s ion
Ġd is
en er
Ġa c
ex t
un ction
[ @
at or
Ġres ult
m s
E R
pe ct
at es
Ġ ra
Ġp er
Ġse t
a ult
T rue
w e
s o
a mple
Ġ ro
1 2
ass ert
Ġcon t
um b
i mport
' s
Ġt ime
if ic
Ġf ile
he n
m o
iel d
Ġ <
g ra
qu al
f o
a in
i x
ĊĠĠĠĠĠĠĠĠĠĠĠĠĠĠĠĠĠĠĠĠĠĠĠĠĠĠĠĠĠĠĠ Ġ
Ġg et
i a
re f
le ct
r ror
} ,
Ġs ub
our ce
ow n
Ġ @
[ "
} $
re e
ut e
Ġ J
par am
de x
ab el
Ġh as
Ġ 6
o u
E rror
u al
Ġass ert
l ist
on g
um ent
Ġm odel
n e
u es
ĊĠĠĠĠĠĠĠĠĠĠĠĠĠĠĠĠĠĠĠĠĠĠĠĠĠĠĠĠĠĠĠĠ Ġ
pon se
o uld
se d
1 9
Ġin ter
I N
i ed
ra y
O N
v ice
Ġs u
t ime
Ġal l
p s
c ol
th od
^ {
f ra
Ġ `
as k
n s
a ch
ĊĠĠĠĠĠĠĠĠĠĠĠĠĠĠĠĠĠĠĠĠĠĠĠĠĠĠĠĠĠĠĠĠĠ Ġ
Ġs y
e c
se nt
1 1
/ /
ing s
ar i
Ġval ue
or s
Ġc ol
d ate
il d
N one
umb er
i ew
g er
ta in
oun d
Ġn o
at ive
mp l
se s
er ror
ion s
ĊĠĠĠĠĠĠĠĠĠĠĠĠĠĠĠĠĠĠĠĠĠĠĠĠĠĠĠĠĠĠĠĠĠĠ Ġ
a pe
2 0
val ue
C on
Ġ K
a k
re ss
A T
Ġs up
Ġ up
m odel
Ġp art
ce pt
o k
Ġn p
ot h
c ur
at ure
s ize
ma ge
T he
Ġt ype
l ine
"" "
R e
Ġa b
Ġ &
E S
Ġ1 9
Ġp o
ur l
o g
" ]
an n
ic k
in it
} \
ame ter
Ġw ill
Ġ __
le d
Ġ ran
l en
Ġin t
Ġd if
er y
---------------- ----------------
st ance
Ġp rint
f or
Ġ >
Ġt rans
Ġ 7
Ġl ist
re ad
a il
at er
Ġs o
Ġt e
ve l
Ġs er
Ġ one
s on
n d
ro w
Ġl en
Ġb ut
Ġf unction
ĊĠĠĠĠĠĠĠĠĠĠĠĠĠĠĠĠĠĠĠĠĠĠĠĠĠĠĠĠĠĠĠĠĠĠĠ Ġ
ir st
ig h
d ict
Ġ }
ĠT rue
Ġ 8
Ġn ew
ate g
r ight
st em
form at
Ġad d
Ġ1 0
y n
con fig
s p
lo ck
w ork
Ġa ct
ar k
č Ċ
] (
d ir
Ġlo g
i e
. ,
od ule
Ġ **
č ĊĠĠĠĠĠĠĠ
ĠTh is
Ġo ther
co unt
3 2
app end
Ġco mm
Ġt ra
u ct
ut ion
v ed
lo ad
Ġre g
at us
Ġs pec
Ġb et
t t
ĊĠĠĠĠĠĠĠĠĠĠĠĠĠĠĠĠĠĠĠĠĠĠĠĠĠĠĠĠĠĠĠĠĠĠĠĠ Ġ
ul ar
Ġ\ [
me d
Ġc ell
us er
Ġre l
ar g
ma in
A R
co de
Ġ qu
ment s
un d
Ġd ist
sc ri
Ġfor m
w o
ĠF alse
in k
1 6
l ic
Ġuse d
it s
Ġm o
Ġi d
en c
F alse
Ġy ou
00 0
Ġal so
Ġa g
1 5
Ġo s
re nt
O R
p os
Ġ .
ar ch
ĊĠĠĠĠĠĠĠĠĠĠĠĠĠĠĠĠĠĠĠĠĠĠĠĠĠĠĠĠĠĠĠĠĠĠĠĠĠ Ġ
Ġs ign
Ġth ere
Ġw hen
ut h
ar get
E N
Ġ 9
) {
Ġp at
2 5
in al
ff ect
e f
Ġun der
he ck
at ing
en se
ug h
Ġm ay
s ub
S T
Ġc ur
Ġdif fer
ss ion
f ter
d a
ase d
Ġst ud
{ }
Ċ ĉĉ
1 3
l abel
ire ct
Ġan y
g th
f l
il ity
Ġo p
ĊĠĠĠĠĠĠĠĠĠĠĠĠĠĠĠĠĠĠĠĠĠĠĠĠĠĠĠĠĠĠĠĠĠĠĠĠĠĠ Ġ
n et
a x
in fo
a use
Ġ key
Ġ z
pl ic
I T
__ (
am b
1 4
cl u
( [
w args
Ġon ly
c ed
ic s
Ġc ase
( ):
Ġra ise
Ġus ing
ĠS t
m l
r it
" }
E qual
co mp
ul l
we en
( \
ic es
h at
Ġ[ @
i an
Ġf ol
č ĊĠĠĠ
Ċ ĊĠĠĠĠĠĠĠĠĠĠĠ
Ċ ĉ
: //
Ġg roup
######## ########
Ġp h
Ġc or
Ġ /
Ġs p
in es
iz ed
Ġpro v
a ction
le s
in s
ma x
Ġcl ass
il ter
Ġg ener
f e
Ġo ver
ut il
ss age
Ġbet ween
Ġme thod
Ġp ath
lo t
1 8
y p
ce ption
lo at
qu i
Ġin d
S t
in put
j o
: :
Ġbe en
) $
ĠC on
c ent
Ġn umber
m is
Ġth an
Ġl ine
ib le
Ġt wo
g roup
Ġsu ch
Ġm an
r ite
ac he
Ġm ore
ĊĠĠĠĠĠĠĠĠĠĠĠĠĠĠĠĠĠĠĠĠĠĠĠĠĠĠĠĠĠĠĠĠĠĠĠĠĠĠĠ Ġ
ar ray
6 4
n ot
b e
E x
ar s
d ing
l i
in dex
n ing
Ġdef ault
du ct
b ack
p end
S E
Ġ |
Ġf irst
Ġin put
con t
] \
Ġw ork
Ġb o
if y
n ode
1 7
Ġus er
it em
ent s
P ro
]( #
if ied
ĠR e
ĠS e
Ġ u
st ate
ter n
assert Equal
t ed
L E
t he
re n
co m
ro l
o us
ens or
Ġout put
ma p
A N
co mm
Ġh igh
Ġc re
ateg ory
po int
fra c
Ġe ach
p r
n o
2 01
Ġwh ere
ay er
b y
an ge
2 4
Ġst ate
h o
c ord
9 9
Ġob ject
ĊĠĠĠĠĠĠĠĠĠĠĠĠĠĠĠĠĠĠĠĠĠĠĠĠĠĠĠĠĠĠĠĠĠĠĠĠĠĠĠĠ Ġ
Ġres ponse
Ġsh ould
Ġt ry
ameter s
Ġcon s
I D
v iew
A L
le ment
_ {\
Ġf act
ĠU n
Ġp ri
es s
Ġe v
Ġs ome
Ġ{ }
Ġl i
Ġre quest
Ġp os
R E
l d
ob ject
le ft
Ġfol low
re g
ient s
Ġit s
m an
ol d
Ġ ent
5 0
amb da
w ith
Ġsh ow
ĠW e
a w
3 0
o se
o ver
Ġcon fig
Ġp ol
iz ation
Ġel if
is h
st art
con d
' '
Ġin to
d b
r on
Ġ[ ]
Ġm in
Ġsy stem
f ore
io us
or ch
======== ========
Ġf l
in stance
in ed
ption s
Ġ- >
âĢ ī
00 00
Ġ end
Ġ+ =
n um
ad er
al s
N A
ĊĠĠĠĠĠĠĠĠĠĠĠĠĠĠĠĠĠĠĠĠĠĠĠĠĠĠĠĠĠĠĠĠĠĠĠĠĠĠĠĠĠ Ġ
id er
' ),
T ype
Ġar g
t s
a it
lo c
$ \
rib ut
) ;
l p
b u
out put
sh ape
Ġran ge
2 2
per ty
N ame
Ġan al
g es
Ġthe se
pect ed
ers ion
Ġ error
} {
r un
Ġ Q
Ġp y
Ġ Y
Ġs c
u mp
Ġf e
ari able
( -
res ult
d d
Ġpro b
m at
ĠI f
Ġex cept
Ġ2 01
ver sion
ay s
ic ense
Ġb u
c le
Ġthe ir
d om
C T
Ġ\[ [@
val id
Ġa fter
Ġ( '
Ġc heck
. __
p i
et a
ĊĠĠĠĠĠĠĠĠĠĠĠĠĠĠĠĠĠĠĠĠĠĠĠĠĠĠĠĠĠĠĠĠĠĠĠĠĠĠĠĠĠĠ Ġ
im it
Ġthe n
Ġor der
jo in
p ack
ann el
t al
' t
ph a
Ġdiffer ent
8 0
scri ption
() )
g r
t on
Ġe ffect
ht t
Ġma x
ction s
as h
Ġco ur
R es
clu de
t rans
pl it
al ue
r m
3 3
Ċ ĊĠ
co re
iel ds
is ion
D E
Ġc al
Ġs ur
k wargs
ant s
are nt
am s
lo b
s um
k en
e ver
C R
Ġval ues
r t
re l
Ġg en
o f
p art
qui red
Ġa m
ption al
-- -
Ġ{ '
s y
it ies
() ,
Ġ âĢ
id s
Ġn ode
4 0
Ġ2 00
Ġprov ide
i er
Ġn on
Ġg ra
.. .
th on
D ata
} )
d is
d o
I C
Ġr un
od y
id th
an s
math b
t ing
2 3
ical ly
Ġp ass
d f
en v
M E
Ġd i
ot e
n p
ĠE x
Ġresult s
** **
ub lic
n er
Ġh ad
l er
$ .
c or
Ġcon tain
orm al
Ġt er
Ġin st
che ck
re quest
Ġw ould
Ġm at
t able
$ ,
m on
Ġle vel
A S
Ġh is
Ġst art
w ord
pl ace
ĠA n
l a
iv en
oc ument
ent ial
he d
m er
ĊĠĠĠĠĠĠĠĠĠĠĠĠĠĠĠĠĠĠĠĠĠĠĠĠĠĠĠĠĠĠĠĠĠĠĠĠĠĠĠĠĠĠĠ Ġ
I ON
def ault
it le
param s
m d
Ġi mp
cl ient
g ing
c lo
U T
ĠL et
Ġ X
me thod
yn c
re turn
p p
at t
Ġd ict
mis sion
Ġ !
g n
Ġo per
f ace
ul ation
Ġcell s
oc i
Ġcur rent
er n
ag es
6 0
Ġs ame
Ġin cre
T est
en ces
in ter
T h
' ],
C ategory
str ing
Ġf ound
ur ing
g en
at ic
2 00
Ġpo int
() .
a ir
Ġpre sent
C l
ap i
Ġar gs
ĠC h
Ġpart ic
um n
en ame
ign ed
form ation
ro und
" .
m odule
Ġt ri
R O
at tr
p ri
m it
I d
n ew
tr y
\ ]
2 7
et urn
Ġlo w
Ġdo es
Ġm ult
\ [
a red
2 8
d i
n ect
Ġt re
a ke
st atus
al e
ĊĠĠĠĠĠĠĠĠĠĠĠĠĠĠĠĠĠĠĠĠĠĠĠĠĠĠĠĠĠĠĠĠĠĠĠĠĠĠĠĠĠĠĠĠ Ġ
ition s
j son
] {}
Ġs ol
Ġd irect
w w
Ġcon st
S e
enc y
âĢ Ļ
Ġstud y
ver s
Ġt arget
Ġat t
v ar
Ġe vent
C h
Ġpat ients
l ib
a mp
un c
cre ate
w rite
, \
Ġn um
Ġa x
ĠF or
Ġ2 0
str uct
Ġa w
p rint
ff ic
u me
` `
g in
al ly
3 4
up date
oth er
č ĊĠĠĠĠĠĠĠĠĠĠĠ
v ol
ow ever
pre sent
e y
is s
ĠL icense
ĠP ro
pl ay
iz er
al pha
oun t
Ġpro cess
Ġap pro
Ġne ed
5 5
o x
po se
L ist
de l
Ġthe y
F ield
Ġco de
ir c
Ġco mple
len gth
Ġi mage
b ase
iv ity
ys is
or g
ar ge
Ġc all
( (
Ġs ize
Ġf ra
t ings
Ġsup port
Ġpro te
Ġex p
Ġe st
Ġk n
as on
gra ph
F ig
il ename
ist s
ur ation
Ġe t
Ġb oth
Ġin it
ens ion
2 1
Ġop en
ra w
ab ility
Ġ Â
o le
Ġs ample
y l
ĊĠĠĠĠĠĠĠĠĠĠĠĠĠĠĠĠĠĠĠĠĠĠĠĠĠĠĠĠĠĠĠĠĠĠĠĠĠĠĠĠĠĠĠĠĠ Ġ
Ġm ust
0 5
le ction
fer ence
pre ssion
d im
Ġm y
Ġhe lp
Ġg o
ĠI t
2 9
util s
m ary
as ure
ind ow
Ġa v
Ġof f
Ġin dex
model s
bo x
Ġit em
Ġf ield
Ġbe c
ro ugh
Ġf ind
Ġm od
c ul
2 6
Ġcont rol
Ġ! =
A C
ĠC o
A P
rib ute
Ġex t
it ive
Ġ[ '
ve lo
3 5
res ponse
Ġt ext
] [
Ġv ersion
ty p
Ġt orch
Ġo pt
ri x
r c
Ġ q
me ssage
w are
i mage
c all
plic ation
or der
Ġs im
E D
ob j
math cal
u c
< /
l ambda
s plit
Ġsup er
g a
s q
f ul
3 7
tra ct
Ġd at
Ġb ack
} (
' .
Ġid ent
Ġcour t
0 4
Ġg iven
se arch
le t
Ġis instance
mb er
it ed
ĊĠĠĠĠĠĠĠĠĠĠĠĠĠĠĠĠĠĠĠĠĠĠĠĠĠĠĠĠĠĠĠĠĠĠĠĠĠĠĠĠĠĠĠĠĠĠ Ġ
Ġcon d
3 6
Ġwh ile
. """
tra in
Ġex pected
if f
in ce
le te
ver t
f loat
ang o
Ġre ad
Ġ ve
Ġsign ific
qu ence
mo ve
red ict
c y
ific ation
ing le
Ã ©
L et
act er
p ol
m ark
at s
pro cess
]\ ].
re am
Ġin s
o ol
) \
ma il
Ġex ample
[ :
ver y
j ango
Ġde ter
" ),
3 8
b ar
w ard
Ġm on
Ġo ur
it er
am ma
> >
val ues
d ot
ro p
Ġl abel
] :
du ced
et ime
Ġap pe
A G
I S
Ġan t
Ġap p
S et
Ġh tt
t il
Ġt yp
Ġmodel s
Ġse cond
et work
gra m
4 5
Ġ ed
Ġstr ing
e ar
Ġstr uct
c i
f ilter
an k
Ġbec ause
Ġwith out
ase s
Ã ¤
le m
Ġth rough
Ġob ser
par se
Ġde s
r ation
Ġval id
res h
ight s
ep s
Ġch ar
se c
c er
Ġse e
velo p
o ck
Ġco uld
Ġ` `
Ġ --
Ġ Ð
ure s
mpl ate
id ence
Ġ{ #
'] )
Ġw ell
Ġ1 5
Ġcont in
b lock
Ġre port
typ es
Ġl imit
ĠA l
Ġte mp
3 9
P ar
ut o
se n
C H
f ix
6 7
t es
Ġcre ate
1 00
ne ction
U R
ation al
sp ace
M P
a z
C O
Ġsignific ant
ust om
Ġa ction
ig ma
ater ial
8 8
Ġh and
uth or
Ġfollow ing
c s
Ġab out
ĊĠĠĠĠĠĠĠĠĠĠĠĠĠĠĠĠĠĠĠĠĠĠĠĠĠĠĠĠĠĠĠĠĠĠĠĠĠĠĠĠĠĠĠĠĠĠĠ Ġ
b ug
^ {\
) /
Ġre t
il y
ir on
l ay
Ġre quired
o per
sc rib
Ġv er
E T
n g
ature s
o pt
m all
r ic
p ert
A D
up le
Ġre present
s pec
ge st
4 4
d at
me s
er o
Ġ$ $\
ic ro
C o
Ġob tain
w ar
Ġme asure
Ġb ase
A B
r id
val u
o ugh
m u
Ġd uring
Ġcons ider
Ġma ke
S er
st ra
pack age
. "
b l
L O
im al
= [
7 5
an e
qu ery
f unction
u id
ers on
Ġass oci
S tr
ct or
c ri
v ious
Ġin formation
ist er
Ġc ar
ĠA r
h ost
Ġp e
ile d
du ction
e vent
Ġy our
iv ed
6 9
Ġal low
ith er
Ġe mp
Ġme ssage
Ġlo cal
Ġ ,
Ġlo c
Ġtra in
Ġc lo
A r
Ġs ource
ur ther
U n
Ġ1 2
Ġ Î
Ġ( "
con text
F ile
Ġ ]
ĠN o
Ġde vice
t arget
ag er
I G
Ġm s
g o
htt p
ĠR eturn
6 5
Ġ1 8
ump y
er g
' ):
pro perty
Ġcon text
Ġli ke
Ġh ere
ro ss
ad ata
m y
Ġt f
Ġe lect
f low
IN G
c c
re ct
O T
Ġv ar
ĊĠĠĠĠĠĠĠĠĠĠĠĠĠĠĠĠĠĠĠĠĠĠĠĠĠĠĠĠĠĠĠĠĠĠĠĠĠĠĠĠĠĠĠĠĠĠĠĠ Ġ
Ġind ic
0 2
I L
ow er
ck et
Ġm odule
Ġm ost
$ $
ic y
i od
ĠA s
Ġadd ition
le ss
Ġv ariable
pert ies
is hed
te mp
i k
â Ī
Ġde c
Ġto tal
s l
T o
w h
w idth
lo y
id d
per im
arg ument
Ġanal ysis
f ield
9 5
} _
Ġbe fore
U L
g ment
4 8
ĠD e
ail able
Ġre f
it u
Ġb lock
9 0
Ġp ost
p lot
b in
Ġs a
n ess
al th
ta il
Ġ },
l ing
he ther
Ġe qu
ip le
Ġd id
mb ol
il ar
7 0
Ġ{ \
Ġ url
D e
ĠSe e
le ase
Ġ1 6
on t
G et
Ġl ong
v ices
Ġde velop
: `
log y
C ol
W hat
Ġag ain
Ġarg ument
ran ge
h er
Ġwith in
Ġaw ait
re qu
Ġin clude
o id
x y
__ __
ro ll
Ġtre at
= \
Ġs cal
i que
Ġen v
ag s
Ġ> >>
ive ly
lect ed
in ation
Ġc le
ĊĠĠĠĠĠĠĠĠĠĠĠĠĠĠĠĠĠĠĠĠĠĠĠĠĠĠĠĠĠĠĠĠĠĠĠĠĠĠĠĠĠĠĠĠĠĠĠĠĠ Ġ
fra me
Ġar ray
be gin
Ġres pect
Ġ Z
Ġv ol
k s
i or
Ġs i
b it
d ist
ial ize
ang u
lob al
Ġd er
Ð ¾
P E
f act
M odel
} _{
Ġb ased
o ff
' ))
âĢ Ŀ
Ġpo ss
Ġin te
l ink
m ode
ma ges
] ]
Ġd type
an y
Ġco unt
h and
7 7
EN T
} ^{
id get
Ġh y
b atch
cont ent
Ġ1 00
he ad
s up
to ken
ver se
scri pt
vent ion
Ġco py
is m
Ġro w
Ġcl s
Ġma in
Ð °
ul um
r u
as ses
Ġth ree
Ġch ang
ur al
Ġs um
Ġm ode
Ġthe m
Ġde te
e mp
mathb b
6 8
s k
ĠH e
v en
Ġd im
V alue
################ ################
Ġcomm and
it or
u ch
Ġcl ient
item s
Ġqu ery
t en
Ġre ce
Ġc ent
] {
Ġ' ''
Ġ1 4
Ġb re
Ġme d
Ġwh at
v es
Ġin stance
ph i
9 8
Ġp ack
Ġt able
im um
id ent
Ġor ig
ff er
comm and
s ample
-------------------------------- --------------------------------
co py
p one
= {
Ġs ys
Ġex pression
Ġf loat
id x
Ġme t
del ta
and ard
ĠA p
Ġp ort
Ġwh o
Ġj ust
or ds
tr ic
u x
pre ss
to p
Ġcomm on
ust er
Ġspec ific
ise s
f n
mple ment
st er
r al
Ġj son
s ol
g ener
O b
m ask
t itle
y le
ĊĠĠĠĠĠĠĠĠĠĠĠĠĠĠĠĠĠĠĠĠĠĠĠĠĠĠĠĠĠĠĠĠĠĠĠĠĠĠĠĠĠĠĠĠĠĠĠĠĠĠ Ġ
rib ution
Ġ ),
Ġs ingle
Ġcon f
ĠH owever
ĠO ptional
ht ml
Ġm ark
name s
d oc
id ual
de pend
Ġs he
Ġex ist
in f
Ġr ight
ulum i
6 6
Ġc y
Ġ Ã
\ \
3 1
= (
Ġpar ameters
v ing
Ġi m
Ġran dom
ro ot
de vice
s ource
ĠP ar
Ġch ild
Ġs k
Ġe ither
an ces
Ġl ast
t ri
ch annel
al igned
Ġst atus
Ð µ
h ib
b eta
ft ware
" ],
* -
Ġme an
7 8
âĪ Ĵ
ud ing
i as
T ime
W e
file s
] ).
Ġis s
col or
er r
A l
ms g
f unc
Ġl ink
lo cal
Ġde pend
cord ing
( {
Ġn ormal
Ġde scrib
de s
Ġm ot
Ġin cl
Ġfile s
Ġlo ad
for med
cur rent
D O
he s
Ġ --------
}$ $
on s
tern al
angu age
Ġth ose
key s
Ġpar ams
Ġb l
e qual
Ġf ilter
Ġn etwork
Ġp r
ĠâĢ ľ
op en
t x
T T
)) )
P O
a ces
Ġg re
m od
p ass
Ġd iv
our ces
U S
Ġv iew
c a
- \
st ri
log ical
sq rt
Ġ1 1
Ġs mall
res pon
pro ject
ex p
w ay
Ġcont ent
Ġhe ad
che s
Ġp ur
K ey
ut ton
9 4
ath er
d own
le vel
Ġsh own
Ġl arge
Ġres ource
_ \
t ic
Ġpro ject
ĠS up
x f
0 8
che d
Ġv ari
bo ve
ator s
U N
Ġd en
Ġw hether
a im
9 7
ta g
ĠReturn s
ug gest
ĠV alue
Ġsh ape
t ask
ual ly
use package
Ġre ason
add ress
f ields
Ġinit ial
Ġm atch
Ġup date
Ġ es
Ġmo ck
i j
z e
g le
A n
Ġa bove
âĢ ĵ
ĠC om
0 3
Ġbe ing
ab ase
Ġ{ "
Ġd own
ĊĠĠĠĠĠĠĠĠĠĠĠĠĠĠĠĠĠĠĠĠĠĠĠĠĠĠĠĠĠĠĠĠĠĠĠĠĠĠĠĠĠĠĠĠĠĠĠĠĠĠĠ Ġ
ĠTh ere
ĠT est
ra in
o ptions
Ġtreat ment
Ġst at
I R
u it
c md
t ot
Ġp op
A dd
Ġh er
il on
Ġbo ol
Ġch ange
Ġpre vious
el y
ĠR es
Ġh ow
Ġ quest
Ġlen gth
ribut ed
at ter
st ore
g ed
f ilename
Ġdeter min
po st
l ast
Ġn ext
en ded
) ]
c cess
ar n
Ġt ask
clo se
Ġ2 5
Ġp ot
T ext
e ars
T R
iv es
Ġw rit
Ġpos ition
ule s
or age
s ing
Ġk wargs
Ġ ge
Ġev en
H E
ex ec
ĠA N
Ġassoci ated
Ġ[ "
P I
Ġchar acter
ver age
s w
s igma
x e
um ns
g an
Ġbu ild
se ssion
Ġp redict
M A
Ġ( [
Ġv is
x b
time s
} ^
op s
Ġc ause
9 6
ce ll
Ġn ow
7 4
Ġcomp on
Ġev idence
if ier
us ion
Ġc irc
ĠC l
Ġa ut
ent ion
r ict
ĠC our
Ġd ue
s ave
Ġ Ċ
b ot
Ġpar ser
clu ded
V iew
b ib
n n
is k
en e
Ġd f
I I
n umber
ser ver
r ate
" >
Ġs uggest
ĠO n
Ġob j
Ġf ields
Ġ$ {\
Ġ3 0
Ġm ap
g ress
I P
Ġp arent
Ġse ver
set s
Ġprovide d
c ache
Ġre main
ĊĠĠĠĠĠĠĠĠĠĠĠĠĠĠĠĠĠĠĠĠĠĠĠĠĠĠĠĠĠĠĠĠĠĠĠĠĠĠĠĠĠĠĠĠĠĠĠĠĠĠĠĠ Ġ
**** ****
S up
d type
i um
p atch
ĠG ener
Ġper form
Ġe le
Ġex perim
mathb f
ĠD ef
de bug
de lete
a iled
Ġact iv
able d
h ip
e ad
Con fig
p arent
Ġman y
c p
net work
ĠT o
s a
ter s
e q
Ġax is
Ġch annel
f ind
8 5
Ġr ate
Ñ Ĥ
Ġsim ilar
ate ly
Ġw ant
ra p
Ġh ost
Ġf inal
Ġform at
Ġcor respon
g amma
str u
et h
N ot
Ġlog ging
v o
ffic ient
Ġms g
Ġc ap
ĠL ist
Ġanal y
lo ss
ub l
Ġde scription
co pe
H O
) }
A M
Ġpro duct
Ġlo ss
Ġo c
Ġav ailable
Ġco mb
Ġde l
htt ps
me t
Ġp ublic
a pt
Ġ( [@
par ameters
Ġb atch
Ċ ĊĠĠĠĠĠĠĠĠĠĠĠĠĠĠĠ
Ġstud ies
čĊ č
Ġb ody
Ġl ayer
) *
x c
pos ition
Ġtri al
Ġcol or
ens ity
ran dom
Ġpartic ular
bu ild
l ines
ma ke
Ġun it
ir t
ve st
Ġkn ow
Ġl aw
t ion
Str ing
) ),
po p
em b
Th is
iv idual
ww w
cul ate
a int
m t
ĠValue Error
Ġs l
Ġd ocument
t ensor
Ġincl uding
c at
Con t
iron ment
gra d
av ing
F ra
ar ly
^{ -
Ġsign al
con nect
0 9
Ġto p
ch an
Ġt r
us h
ch o
sc he
ol der
Ġma de
Ġs ince
C om
p c
con st
du ce
I s
Ġe valu
ran d
object s
Ġ ...
ĊĠĠĠĠĠĠĠĠĠĠĠĠĠĠĠĠĠĠĠĠĠĠĠĠĠĠĠĠĠĠĠĠĠĠĠĠĠĠĠĠĠĠĠĠĠĠĠĠĠĠĠĠĠ Ġ
it al
res ource
Ġcase s
ut f
Ġmult iple
4 7
th ing
F or
Ġposs ible
Ġi mpl
read y
s or
w ise
00 1
Ġco un
0 7
Ġ1 7
re ate
Ġe lement
co me
Ġro ot
in c
"} ).
mo ck
0 6
set tings
Ġper iod
ern el
ĠCour t
T able
ĠP h
Ġw ay
end ant
ur y
l ayer
C L
con f
I M
m and
et s
in st
x a
E n
Ġser ver
Ġgroup s
u ro
ial ly
\ _
Ġd ise
Ð ¸
ĠD ata
a i
Ġ1 3
Ġf ail
Ġf in
st ep
Ġex ec
ar row
Ġco m
se nd
In put
i vers
ut ure
Ġlog ger
{ {\
F F
Ġo ptions
Ġstruct ure
Ġqu ant
', '
Ġd b
E X
y m
U p
op y
Ġcl aim
Ġlow er
d iv
f g
[ -
qu ire
o v
k ing
yn am
ĠI N
Ġb as
Ġp erson
t f
8 6
Ġlevel s
on d
ĠThe se
Ġle ft
C C
( _
um an
cl s
Ġm icro
n ow
C ON
ac y
Ġy ears
node s
Ġre al
~ ~
4 9
m ory
Ġagain st
ax is
Ġt ensor
Ġbe h
im g
Ġt ak
F A
Ġc ert
Ġen co
ch ange
v is
Ġse quence
m atch
Ġo w
al le
4 2
Ġl ines
Ġm ag
ĠO R
Ġdef ined
Ġfact or
+ \
loc ation
Ġprob lem
d ocument
po ch
) (
AT E
Ċĉĉ ĉ
ĊĠĠĠĠĠĠĠĠĠĠĠĠĠĠĠĠĠĠĠĠĠĠĠĠĠĠĠĠĠĠĠĠĠĠĠĠĠĠĠĠĠĠĠĠĠĠĠĠĠĠĠĠĠĠ Ġ
ser vice
Ġf urther
ribut es
Ob ject
Ġse ction
Ġl ib
Ġth er
i i
Ġpar ameter
ĠA ll
O P
Ġf o
Ġact ivity
h as
Ġpot ential
Ġd ri
] ),
Ġhigh er
a uth
Ġkn own
Ġ //
g round
Ġcomp ut
o int
Ġn umpy
S S
Ġcon nect
u i
the ta
ĠC ol
Ġm aterial
Ġd on
Ġf il
math rm
Ġgener al
Ġrel ative
Ġoc cur
ang le
ĠS o
Ġest im
st d
Ġle t
Ġin vol
q l
Ġre co
Ġse ns
Ġimp ro
Ġobser ved
M O
Ġac count
n on
he l
Ġter ms
" ))
d jango
Ġe very
ir d
Ġne g
Ġind ividual
Ġs che
ĠP y
me an
b s
le c
S h
ix ed
^ \
depend ent
Ex ception
Ġen erg
8 9
Ġgra ph
te m
Ġser vice
Ġd ate
T Y
r ho
Ġ ..
Ġprote in
c ap
ar ning
ist ory
Ġi mm
h y
Ġd a
Ġre cord
Ġac cess
Ġf ull
A s
act ive
Ġpl ay
ĠS er
č ĊĠĠĠĠĠĠĠĠĠĠĠĠĠĠĠ
ES T
Ġcontin ue
re place
Ġreg ion
Ġhtt p
tail s
st atic
p age
Ġwe ight
on ly
st amp
B ase
Ġsub ject
Ġl a
c us
Ġle ad
P ath
ĠS h
s im
Ġp ower
un it
l and
ub le
ure d
Ġst ep
Ġ2 4
v ate
it es
e e
res sed
Ġcomp ared
Ġte ch
[: ,
z er
Ġbre ak
po sed
Ġf requ
L o
Ġv ery
Ġn s
Ġcond itions
8 4
Âł Âł
ent al
Ġas ync
se lect
Ġdi ag
ta ct
Ġmethod s
8 7
m ult
Ġse nt
un ic
ES S
to col
d irect
action s
or ld
Ġin f
G roup
Ġdif f
Ġh o
we ight
til de
Ġpro gram
Fra me
b ody
os is
pl ied
Ġsp ace
F orm
ĠC al
Ġst andard
D ef
Res ponse
de scription
part ial
Ċĉĉ ĉĉ
en u
ide d
ĠF ig
at io
r ing
if t
ĠCo mp
% )
oun ds
Ġhe alth
Co mp
pre fix
sh ow
re q
Ġinter est
5 7
Re quest
S A
Ġper formed
M L
================ ================
t orch
ib ility
ri es
py thon
Ġpos itive
point s
ĊĠĠĠĠ ĊĠĠĠ
L og
Ġ que
---- ---
j e
Ġj ud
Ġse par
f s
um er
Ġsur face
ic le
n a
Ġfact ors
rit er
sc ale
iv al
s ign
it ch
end s
ĊĠĠĠĠĠĠĠĠĠĠĠĠĠĠĠĠĠĠĠĠĠĠĠĠĠĠĠĠĠĠĠĠĠĠĠĠĠĠĠĠĠĠĠĠĠĠĠĠĠĠĠĠĠĠĠ Ġ
st ream
w ays
op le
u ff
Ġfra me
Ġlo ok
ab ly
p at
fer ences
in ary
ide o
Ġs ort
j or
data set
r ary
m ine
p m
Ġ( -
s i
n u
N o
sen ce
E L
Ġle ss
p en
Ġdis play
Ã ¡
Ġquest ion
A A
k n
Ġg u
'] .
ac count
ut es
Ġpoint s
Ġde p
on es
Ġl ight
ta u
Ġse arch
Ġph ys
Ġre n
ol s
le v
er ature
or ies
li ke
U ser
Ġt rue
Ġcol umn
Ġs ide
x d
T I
Ġpro perty
$ -
Ġcomple x
b ig
or ph
N ode
Ġme chan
Ġcor rect
Ġp age
Ġin fl
], [@
at ory
Ġadd ress
M S
Fig ure
5 6
4 6
Ġro le
F I
ĠEx ception
Ġdat etime
Ġe mb
Ġdo main
* ,
sy stem
v an
idd en
n ext
'] ['
Ġobtain ed
he m
te mplate
Ġsu ccess
e k
Ġmat rix
} {\
Ġre view
Ġpri or
Ġhe ader
bo ard
pe line
Ġan other
b r
ĠW hat
Ġ[ ],
D el
Ġ ##
Ġ( *
Ġhtt ps
ol ds
P h
Ġin vest
Ġme mb
Ġle ast
Ġchang es
Ġdata set
se ss
Ġdete ct
Ġde cre
p k
ab l
ire ction
a f
ĠN ot
Ġ\ \
Ġ5 0
result s
low er
Ġs w
Ġs pect
qui res
Ġorig inal
Ġcl in
p or
if e
v ari
Ġdescrib ed
g or
Ġf our
t xt
Ġch o
is on
Î ±
use d
O n
čĊ čĊĠĠĠ
Ġex tra
gn ore
Ġenerg y
Ġto ken
Ġeffect s
Ġl ater
ĊĠĠĠĠĠĠĠĠĠĠĠĠĠĠĠĠĠĠĠĠĠĠĠĠĠĠĠĠĠĠĠĠĠĠĠĠĠĠĠĠĠĠĠĠĠĠĠĠĠĠĠĠĠĠĠĠ Ġ
Ġre quire
bo se
Ġrel ated
9 3
ar ing
Ġf ilename
" ):
Ð ½
` .
p ly
cri pt
ol ution
f irst
ĠA dd
th ough
y stem
mat rix
ul ated
Ġincre ased
j ob
c an
Ġfunction s
ĠSt ates
am ily
Ġal ready
Ġ ke
Ġimport ant
Ġsample s
ord in
Ġdist ributed
Ġap plication
og le
Ġpro perties
met adata
ri de
g ree
I V
d ro
Ġcal led
ome ga
9 2
st ack
4 3
ist ic
ĠUn ited
ab s
Ġc are
" ])
Ġp ay
ug in
Ġdist ribution
Ġcond ition
e mail
he ader
Res ult
ol ve
c dot
p ing
St ate
de v
Ġtyp es
V al
7 6
Ġreport ed
ĠL e
Ġspec ified
m ic
O r
( *
Ġrespect ively
et ch
C A
se qu
irt ual
ĠO F
ent ly
Ġi mplement
ra ct
as ync
Ġare a
' }
ess age
or n
ro s
T H
] ;
le q
al t
Ġm ask
Ġg l
Ġc ustom
l ate
par ser
at form
label s
Ġ ],
Ġ' /
s rc
z y
Ġf ree
b f
k er
h ash
n ormal
ĠSt ate
ĠY ou
bo ol
) [
] ))
ex ception
un e
Ġb ro
Ñ Ģ
Ġm ut
tot al
se ction
ĠN ew
Ġ< =
d ay
Ñ ģ
t rue
Ġp ick
5 8
Ġt itle
5 4
ĠI D
le g
Â ±
ens ure
}} \
l in
Ġcon cent
a u
gor ith
Ġap plic
. ")
Ġg row
stri p
Ġde st
Ġme ans
ĊĠĠĠĠĠĠĠĠĠĠĠĠĠĠĠĠĠĠĠĠĠĠĠĠĠĠĠĠĠĠĠĠĠĠĠĠĠĠĠĠĠĠĠĠĠĠĠĠĠĠĠĠĠĠĠĠĠ Ġ
med i
) ):
Ġs pe
7 2
c ast
P S
re move
Ġw idth
Ġse lect
Ġb ound
Ġst ore
Cl ass
ĠÂ §
s ide
Ġse ssion
! [
Ġit er
o h
Ġa ge
Ġemp loy
Ġso ftware
co der
stru ction
Ġw rite
O ut
D ict
Ġf low
L e
Ġscal e
I tem
Ġcan not
Ġ> =
ro id
ad min
ap er
Ġp ulumi
pro duct
Ġ- *-
g ine
itu de
Ġe p
log ger
v ariable
Ġcre ated
a h
Ġbeh av
5 9
In fo
Ġset tings
B y
et y
Ġpol y
Ġpl ace
Ġsol ution
Ġam ount
4 1
kn own
in a
u cle
dat etime
ĠS tr
ĠT ype
l s
ch ild
b b
Ġm ass
.. ..
O S
to m
Ġaddition al
Ġp lot
A p
5 3
Ġst ill
ar m
Ġin fo
' ).
ĠO r
Ã ¥
x i
Ġi gnore
Ġn ull
N U
Ġcon duct
Ġin hib
ĠW h
Ġtrain ing
Ġh aving
Ġe qual
x ml
Ġdirect ory
e ded
r s
Ġdise ase
se ns
O L
Ġpl t
Ġre mo
Ġele ments
as ing
Ġm ight
in ition
he ight
NA ME
fo o
Ġsh ort
7 9
Ġinvest ig
Ġvariable s
Ġj ob
p lement
x im
input s
ay out
Ġre ference
E vent
a ded
B u
Ġg lobal
Ġh uman
ind ing
' },
Ġcon nection
opy right
inf ty
mission s
ĠA t
do main
Ġname s
ot s
col umn
6 3
Ġo ld
r ations
Ġgen e
con v
Ġor gan
ion ary
Ġinte gr
c ing
} /
de p
th s
Ġsever al
ens ions
Q u
ra ph
Ġad min
ial izer
Ġcontain ing
Ġsub st
ĊĠĠĠĠĠĠĠĠĠĠĠĠĠĠĠĠĠĠĠĠĠĠĠĠĠĠĠĠĠĠĠĠĠĠĠĠĠĠĠĠĠĠĠĠĠĠĠĠĠĠĠĠĠĠĠĠĠĠ Ġ
C ase
C E
U P
Ġa uth
Ġpy thon
}$ ,
7 3
T rans
Ġsignificant ly
P ol
Ġne cess
. *
W idget
Ġa uthor
g l
Ġo ptional
Ġph ase
av a
ĠâĢ ĵ
ide s
Ġloc ation
T ER
s ys
Ġiss ue
fer red
Ġex pl
Ġp d
T ensor
8 3
C heck
Ġp i
Ġ ĊĠ
ĠÂ ±
Ġ qual
Ġb ot
Ġbo x
Ġin c
pass word
ĠC ON
mit ted
Ġp air
o o
Ð¾ Ð
E d
Ġincre ase
Del ta
Ġd jango
In dex
Ġent ry
Ġshow ed
9 1
ĠAn y
M an
Ġter m
ist ics
UL T
Ġoper ation
Ġtime s
an el
o ption
Ġcontin u
ex ample
5 2
Ġv i
Ġobject s
Ġdef endant
al y
c m
} .
P L
V ER
Ġ$ $
Ġpartic ip
il t
Ġfe atures
Ġex ception
co mple
ĠT O
Ġco st
co res
Ġin cluded
n ap
Ġl ambda
Ġp rom
Ġcorrespon ding
te ger
Ġcons ist
A d
Ġr isk
Ġl anguage
}$ .
c ert
st and
Ġder iv
âĢ Ĳ
m ost
bo ok
in o
| \
j ust
S ub
Ġal ong
l im
Ġb el
s ort
Ġv ia
add ing
cre t
se e
Ġt ag
con tain
mer ic
os ph
ĠS et
H and
Ġad ded
Ġrece ived
Ġmo ve
Ġb en
ir m
Ġcal cul
Ġi mages
un ity
oper ator
\ *
Ġy ield
R eturn
ta ge
Ġsystem s
er c
Ġest abl
ex pected
]\ ]
() ;
unt u
rel ated
con ds
lo od
Ġres pon
l ong
ex ists
ss ages
po ol
S D
q a
Ġg over
Ġs ave
red ential
T O
a ut
om en
Ġmult i
t mp
Ġgo od
emp ty
un g
v ation
---- -
B ox
re t
Ġvol ume
6 1
Ġtemp erature
Ġ$ (
Ġt um
Ġh owever
H e
Ġ' .
qu ad
on y
R NA
T E
Ġfe ature
er al
Ġbe st
Ġde mon
gr id
---------------- --------
Ġw indow
Â °
6 2
le x
Ġme ta
Ġr ule
Ġconsider ed
ĠW hen
Ġenv ironment
g re
ivers ity
Ġt uple
Ġow n
Ġopt im
a uthor
ĠT e
ĊĠĠĠĠĠĠĠĠĠĠĠĠĠĠĠĠĠĠĠĠĠĠĠĠĠĠĠĠĠĠĠĠĠĠĠĠĠĠĠĠĠĠĠĠĠĠĠĠĠĠĠĠĠĠĠĠĠĠĠ Ġ
Ġf ig
K E
un k
Ġle g
enc ies
ĠAr gs
C D
ĠGener al
resh old
]{ },
Ġcan cer
end ing
i xt
Ġdevelop ment
ug ht
roll er
)) .
Ġd r
Ġa ff
Ġclo se
f it
a us
Ġbe low
ä ¸
Ġd ay
v as
st yle
Ġre move
ent ry
Ġinst all
Ġo ption
ĊĠĠĠĠĠĠĠĠ ĊĠĠĠĠĠĠĠ
ch ar
Ġs at
ser ialize
a de
v m
out h
Ġn n
Ã ¶
Ġtest s
Ġdemon str
S ize
^ *
8 2
ran ch
cl asses
8 1
S I
ã ģ
ise d
Ġpri mary
Ġb ar
7 1
A c
aint iff
Ġc ache
Ġd ays
et ic
iv ing
5 1
" ).
Ġse nd
cs v
se mb
ĠC opyright
Ġgener ated
Ġ ĊĠĠĠĠĠĠĠĠĠĠĠĠĠĠĠ
es sion
R AN
Ġd ig
Ġre place
p u
Ġw ater
a ises
p ed
Ġpre ss
pre c
Ġinput s
f ull
Ġim g
stra int
le ep
Ġapp ly
me mber
unt ime
Ã Ń
x x
Ġp res
g t
al es
Ġtech n
Ġst ates
me ta
al ity
Ġsupport ed
ĠA d
a a
---- --
Ġs ite
b ra
Ġme mory
me tric
Ġro t
Ġmot ion
os ition
Ġcon struct
ome try
Ġ< /
Ġre search
Ġpat ient
I f
py test
C al
Cl ient
Ġma jor
Ġat ta
or ig
Ġargument s
L ine
Ġa ffect
ch ool
Ġb i
Ġmo lec
ĠB o
m ote
Ġam ong
Ġ ur
Ġj o
ĠG et
n orm
Ġex tract
Ġconfig uration
Ġh im
Ġc ross
a e
Ġvar ious
Ġpl aintiff
Ġdat abase
app ing
Ġrel ations
D S
. )
Ġ ):
Ġse lected
iz es
re st
Ġp as
Ġdes ign
fe atures
Ġren der
end er
ĊĠĠĠĠĠĠĠĠĠĠĠĠĠĠĠĠĠĠĠĠĠĠĠĠĠĠĠĠĠĠĠĠĠĠĠĠĠĠĠĠĠĠĠĠĠĠĠĠĠĠĠĠĠĠĠĠĠĠĠĠ Ġ
+ +
A ll
Ġcomp ar
Ġclin ical
m ar
Ġap i
" },
TT P
Ġ ĊĠĠĠĠĠĠĠĠĠĠĠĠĠĠĠĠĠĠ
Ġex am
trans form
d t
Ġph ot
Ġac cording
Ġinst ead
C P
Ġpar se
ain ed
reg ister
str ict
Ġsi mple
Ġdis cus
co s
In ter
ĠP ublic
] ['
Ġgen es
Ġno qa
og en
eth od
pro v
ac c
Ġac cept
ic on
Ġlabel s
i ation
assert True
ĠP at
R L
Ġp ubl
Ġt iss
Ġcontain s
Ġf ac
Ġtrans form
umb ers
Ġar t
t ree
ĠC oun
ĠTh us
by tes
Ġre cent
Ġsy n
w indow
Ġun ique
Ã ³
w ide
wh ere
C K
Ġat tr
st op
or th
ig ger
Ġg ran
M essage
X X
Ġhe ight
Ġm er
ĠC O
idd le
Ġex press
____ ____
Ġup on
ĠC D
Ġact ive
Ġcl uster
Ġth read
( __
ag ed
Ch ar
Ġ ~
Ġt ake
tr ics
' m
te x
l an
Ġex ists
L I
min al
er a
D es
age ment
Ġve ctor
ce ed
Ġreturn ed
Ġcompon ent
Ġchild ren
a ff
Ġf ailed
Ġde tails
D is
ĠI S
I nt
D B
a uto
zer os
b ased
ĠA c
Ġth us
] ^
emb ed
d ated
Ġst op
Ġap plied
ĠA ss
Ġ err
#### ##
t d
H T
Ġinter n
Ġdiffer ence
os p
ole an
Ġy ear
Ġra d
ix el
en ses
on al
ï ¼
ith ub
} (\
Ġth ird
Ġappro ach
Ġshow s
ar r
ĠA PI
off set
ar ds
user name
iss ing
gorith m
du mp
' \
ri pt
ĠB y
pro b
C S
l imit
ge x
ĊĠĠĠĠĠĠĠĠĠĠĠĠĠĠĠĠĠĠĠĠĠĠĠĠĠĠĠĠĠĠĠĠĠĠĠĠĠĠĠĠĠĠĠĠĠĠĠĠĠĠĠĠĠĠĠĠĠĠĠĠĠ Ġ
Ġpop ulation
Ġ| |
F T
ab il
Ġevent s
Ġen umer
Ġ ĠĊĠ
he nt
Ġra di
ex pr
s core
Ġact ual
Ġf it
Ġm uch
Ġconst ant
ition al
P R
me ga
AT ION
Ġ' -
ateg y
i red
p red
head ers
Ġs cre
Ġac id
ĠD ist
* .
ap y
Ġc md
se q
Ġc at
Ġd ensity
y ear
Ġatt ribute
", "
Ġh ome
man ager
Ġd one
Ġcon ver
E M
c ase
ran gle
Ġerror s
Ġpro ces
Ġ ĊĠĠĠ
Ġsc ript
Ġun til
dis play
Ġpe ople
Ġte mplate
ĠD ict
we b
ub e
Ġdeter mine
ps ilon
m i
p redict
lay ers
ĠC heck
ist ry
D ate
la int
al f
\ ])
ac ed
'' '
ry pt
Ġra w
Ġthere fore
Ġk ernel
T ra
g u
Ġac c
Ġ2 1
Ġ( \[
Ġde v
r up
Ġ4 0
Ġreturn s
ve c
w ait
e val
Ġpy test
Ġpat tern
Ġre cor
Ġpro ced
l ation
Ġex c
Ġco ding
i ence
Ġm ig
Q L
Ġdetermin ed
Ġ ĠĠĊĠ
Ġ6 0
Ġli k
Ġgener ate
hent ic
eps ilon
ign ment
ck er
Ġpack age
Ġdist rict
Ġ3 2
d ri
ĠSup pose
col umns
Ġ[ *
\ '
Ġ â
Ġin vention
ac cess
Ġcon tra
et ition
p ublic
ĠE n
ch i
D o
` ,
A tt
Ġa verage
Ġcle ar
Ã §
") ;
Ġse qu
ps i
Ġh yp
Ġst d
d en
group s
* ~
- >
B utton
f ail
Ġspec ies
ĠU ser
to k
m ore
s v
Ġitem s
Ġm ice
Ġfor ce
our s
p ay
s cope
it t
ĊĠĠĠĠĠĠĠĠĠĠĠĠĠĠĠĠĠĠĠĠĠĠĠĠĠĠĠĠĠĠĠĠĠĠĠĠĠĠĠĠĠĠĠĠĠĠĠĠĠĠĠĠĠĠĠĠĠĠĠĠĠĠ Ġ
pro file
Ġnode s
con nection
Ġ' '
Ġs rc
om ic
o ve
Ġd oc
Ġhead ers
ĠIn c
. ')
ĠA ct
b utton
âĢ ĥ
all en
ch ang
M M
ĠUn iversity
^ [@
ul ate
ĠI s
T e
ĠD o
ta gs
ĠIn ter
Ġm us
ĠW AR
Ġs ix
Ġneg ative
iz ing
oc y
Ġme di
exec ute
Ġ2 2
Ġke ep
e lement
Ġpar am
Ġelect ro
}} $
ann ot
Ġn ucle
Ġre quires
j s
p air
stra ct
ĠM ore
P er
uc cess
Ġstr ong
Ġ" /
Ġ' %
ser ial
Ġin dependent
Ġs ure
c ustom
o res
Ġser ies
Ġset up
m al
Ġc tx
comm on
Ġw ord
Ġperform ance
Ġfrequ ency
he lp
IT Y
comp on
P re
ĠThe n
Ġappro xim
n umpy
g reg
Ġag ree
I mage
sche ma
time out
Ġb io
alle l
de c
p id
OR T
Ġg ive
S ec
) -
, "
ĠPy thon
I O
Ġst ream
is f
Ġd ynam
e poch
Ġcon v
Ġd raw
ul ations
ĠI d
de st
Ġe as
channel s
re port
G G
Ġs core
M odule
Ġ2 8
Ġse n
ĠN e
Ġnot e
R A
is ing
Ġz ero
p ulumi
Ġ-------- --
ul a
A t
Ġc ard
y mbol
P RO
ĠC or
Ġr atio
Ġemp ty
je ction
ĠPar ameters
Ġfollow s
E nt
Ġa uto
ut ed
Ġpol icy
Ser vice
ĠN ote
Ġaut om
ĠAN Y
hand ler
Ġ ĊĠĠĠĠĠĠĠ
Q U
'] :
Ġf ib
)$ .
). __
Ġenumer ate
m g
Ġp ract
Ġb lood
P C
Ġc ult
d rop
re cord
ud io
čĊ čĊĠĠĠĠĠĠĠ
0000 0000
ra d
ist ance
ab or
row s
ial og
b t
val s
Ġreg ard
P AT
il der
Ġa round
t ab
Ġ ĠĠĠĊĠ
om in
us r
Ġtime out
ne y
ĠC ir
Ġt urn
W ith
čĊ ĉĉ
it ution
Ġg ame
. \
Ġcor rel
Ġpre sence
Ċ ĊĊĠĠĠ
ĠD E
Ġgra d
Ġs plit
Ġan sw
Ġcompon ents
P l
sq l
Ġcert ain
ĠThere fore
S C
et er
ch ie
Ġre st
re al
Ġ" \
Ï Ħ
Ġdist ance
Ġmet adata
ĠP er
Ġident ified
pro perties
th is
Ġcour se
ress ion
O per
ĊĠĠĠĠĠĠĠĠĠĠĠĠĠĠĠĠĠĠĠĠĠĠĠĠĠĠĠĠĠĠĠĠĠĠĠĠĠĠĠĠĠĠĠĠĠĠĠĠĠĠĠĠĠĠĠĠĠĠĠĠĠĠĠ Ġ
'] [
G amma
Ġp aper
ub untu
Ġnecess ary
it ory
re quired
Ġ2 3
Ġre duced
if orm
Ġin j
St atus
u k
I t
AR T
AT A
sk ip
l or
UR L
Ġant i
st e
Ġcol umns
Ġf amily
sol ute
Ġp red
C reate
set up
u uid
Ar ray
Ġma int
Ġt ree
pol icy
Ġd irection
l ight
ra ises
O mega
Ġ âĪĴ
plement ary
Sup pose
S ON
5 01
co un
A pp
Ġpro duction
C ode
ĠS T
Ġver bose
ent ity
ĠF urther
f older
Ġf unc
redential s
Ġtra ck
Ġres p
AG E
Ġrun ning
get her
G ener
ed ge
Ċ ĊĠĠĠĠĠ
and s
Ġmax imum
Ġab le
o logy
FA ULT
st ats
Ġme mber
co ur
Ġde cl
g ithub
Ġwe b
Ġs age
Ġprovide s
ĠDef ault
cont rol
ed it
ĠD NA
Ġderiv ative
Ġcol l
/ {
AB LE
Ġ util
Ġ' ,
B o
yp es
Ġ[ [
Ġ ĠĠĠĠĊĠ
Ġgrow th
Ġne eded
R un
w d
ron ic
){ #
o graph
TY PE
ixt ure
G F
Ġf ixed
Ġline ar
b er
igh b
r ule
Ġint ro
) =
re ed
Ġpro per
n an
ig en
ĠL o
Ġant ib
Ġ' --
co mes
Ġco ordin
u int
l at
Ġemb ed
ron t
ran k
Ġbet ter
Ġdirect ly
Ġpresent ed
Ġlo op
* (
Ġcon tact
ap plication
and id
Ġpas sed
ct x
Ġ: :
so ft
ll ant
cent er
Ġal ways
Test Case
oc al
ut ions
Ġac cur
ĠPh ys
Ġre c
S i
Hand ler
ip s
S P
F rom
c fg
o od
Ġrequest s
Ġt ran
d raw
assert R
Ġuse ful
ĠA fter
start s
Ġst yle
que ue
war ds
Ġdim ension
th read
ex it
ac ity
Ġpass word
D I
Ġhy dro
Con text
F e
__ ,
P y
ĊĠĠĠĠĠĠĠĠĠĠĠĠĠĠĠĠĠĠĠĠĠĠĠĠĠĠĠĠĠĠĠĠĠĠĠĠĠĠĠĠĠĠĠĠĠĠĠĠĠĠĠĠĠĠĠĠĠĠĠĠĠĠĠĠ Ġ
ind ices
Ġjud gment
Ġ[ **
Ġid x
O f
test s
W indow
c r
net ic
ch at
Ġrelations hip
ĠF e
Ġal le
ĠA meric
(' /
Ã £
N O
we ights
00 01
ĠQ u
Ġi r
Ġ ĠĠĠĠĠĊĠ
Ġe arly
== =
"] ["
ĠA nd
Ġv ir
sp an
Ġf ore
arg in
Ġmeasure d
Ġ" "
Ġp ut
i qu
c ar
le ms
Ġspec ial
Ġent er
ĠC reate
C ount
F act
f in
Ġkey s
ĠO ne
ch ine
g y
Ġa ir
Ġw ave
Re g
Ġbehav ior
Ġcent er
Ġi de
D A
p g
sample s
st ates
Ġbas is
re c
) **
rap per
le ctions
ĠM e
Ġ ?
č ĊĠ
Ġactiv ation
m aterial
v are
Ġdiffer ences
l ig
ĠK ey
Ġexist ing
ver ed
oc ial
ra m
AP I
Ġin fe
Ġ ĠĠĠĠĠĠĊĠ
c d
Ġdict ionary
Ġcol lection
w ords
assertR aises
se quence
ĠStr ing
Ġ" .
led ge
: ]
******** ********
hes is
ĠQ t
Ġdis able
f ill
/ (
00 2
Ġinte ger
n ull
am l
Ġde vices
ud a
S p
ĠTO DO
is ms
Ġcomple te
ĠT HE
ent er
act iv
ĠWAR RAN
s u
Ġdoes n
ĠW IT
ar ies
D IR
ĠAp pe
Ġpl an
om y
ĠS ub
b i
Ġed ge
Ġoper ator
call back
fe ature
^ +
(' --
Ġprevious ly
g lobal
z ero
= ['
lev ant
Ġas sess
el se
R ec
ter m
Ġ\ <
Ġf ew
cur ity
E lement
Ġimpro ve
ri e
for ce
error s
Ġm ath
am ent
Ġpress ure
lay out
ist ration
Ġ' \
Ġ ĠĠĠĠĠĠĠĊĠ
} =
Ġus ers
right arrow
Ġhand le
cl ick
Ġprote ins
ok en
Î ¿
Ġse em
Ġoff set
e ffect
Ġfe ed
Ġa chie
ĊĠĠĠĠĠĠĠĠĠĠĠĠĠĠĠĠĠĠĠĠĠĠĠĠĠĠĠĠĠĠĠĠĠĠĠĠĠĠĠĠĠĠĠĠĠĠĠĠĠĠĠĠĠĠĠĠĠĠĠĠĠĠĠĠĠ Ġ
Ġc v
Ġcon tract
al ed
)$ ,
Ġh ist
vol ume
Ġset ting
Ġpre vent
w in
Ġto o
ĠC an
Ġsy mbol
ore m
it ation
Res ource
Ġeffect ive
b ound
d iff
ra ft
Ġt mp
Ð° Ð
hand le
Ġw ait
b a
â Ķ
Ġst orage
en code
Ġi p
Ġun its
Ġat temp
u str
Ġ( (
Ġc r
ly ing
opt im
v ars
ĠU RL
Ġst ri
Ġv ers
vare psilon
v ision
Ġvi ol
id ing
Ġgre ater
Ġm is
k g
Ġpro gress
Ġunder stand
N S
Ġn et
pro p
CON F
Ġof ten
z one
Ġper cent
cl uster
st at
Ġscre en
F L
Ġf ast
ĠT rans
p ng
de code
Ġ ĠĠĠĠĠĠĠĠĊĠ
ann er
Ġwork s
c irc
W h
Ġcle an
i ver
and as
Ġallow ed
ĠN ame
25 6
Ġd ir
Ġsy mp
b all
KE Y
Add ress
ĠI I
C all
use s
ĠB e
f uture
ĠS ystem
Ġco re
Ġar ch
Ġinfl u
ful ly
Ġde ath
p ad
Ġinter face
h an
ast ic
i mages
Y ou
ta x
ĊĊ ĉ
y mp
Î ¹
r um
Ġpre c
R I
" ].
_ (
f ont
in clude
Ġpro file
F O
un ch
b al
C ur
ren cy
ĠA pp
st eps
im er
Com mand
Ġoutput s
Ġde lete
ĠG NU
Ġappro pri
ur i
doc s
al ysis
cl us
Ġreg ister
k ed
======== ====
Ġf alse
operator name
av ed
k es
Ġpre fix
Ġ er
Q t
f aces
line ar
Ġben ef
am il
Ġsat isf
= -
il er
Ġ ĠĠĠĠĠĠĠĠĠĊĠ
Ġdec ision
se ed
\ ,
Ġ2 6
Ġse en
ĠD is
add r
sup port
Ġnum er
M ap
Ġfor ward
ION S
ĠN OT
Ġby tes
Ġwork ing
der r
ch ain
B U
Ġoff ic
N umber
Ġmemb ers
Ġl ar
co ding
are st
or iz
Ġb it
t re
t ml
ĠIn d
al low
starts with
u ed
ma g
ĊĠĠĠĠĠĠĠĠĠĠĠĠĠĠĠĠĠĠĠĠĠĠĠĠĠĠĠĠĠĠĠĠĠĠĠĠĠĠĠĠĠĠĠĠĠĠĠĠĠĠĠĠĠĠĠĠĠĠĠĠĠĠĠĠĠĠ Ġ
i ra
env iron
ĠP ol
Ġe mail
n ment
var phi
B S
) ^
Ġn umbers
Ġdiv ided
Ġdiag n
ge q
ĠM y
ĠT able
Ġi ll
Ġcirc uit
Ġ" %
s ite
Ġ ^
Ġ' _
time stamp
cl usion
\ ].
ĠF ile
Ġex pect
Ġpro tocol
Ġr ather
output s
ab ol
Ġ utf
ins ert
" {
Ġsa id
as ic
ĠM ed
Ġ -------
Ġinvol ved
pro te
Ġsort ed
Ġcomp ute
Man ager
Ġis ol
[ ^
ĠIn st
\ <
p x
lo op
so le
ĠA tt
bu ffer
a fter
Ġ2 7
ay ers
he st
s in
c ular
Out put
g ument
b on
Ġal pha
čĊ ĉ
Ġw ar
P oint
G ET
E xt
Ġc hem
Ġins ert
Ġre cept
sy mbol
Ġac ross
st orage
Ġm issing
Ġt ags
D R
tt p
init ial
Ġst im
Ġcon vert
B A
Ġar tic
L ayout
log in
C M
ĠP re
Ġz ip
ut er
S U
Ġpubl ished
s d
Ġ" ,
am ount
Ġdiff ic
cal led
ĠS ince
ĠD es
Ġcar ri
Ġst age
Ġphys ical
Ġs us
nap sh
Ġex act
A nd
PAT H
Ġc rit
Ġ ĠĠĠĠĠĠĠĠĠĠĊĠ
comp ute
Ġtre ated
Ġlik ely
ag ent
Par ser
over line
Ġch ain
ĊĊ Ċ
ro ph
Ġsum mary
Val id
ef ore
S H
b re
Ġtak en
ur b
Ġre lease
Ġfail ure
L A
S pec
ĠRe g
ĠCon t
Ġtiss ue
Ġp ul
Ġre pe
ro me
} _{\
osp ital
Ġl ife
Ġag ent
Col or
av or
Î ¼
cp u
Ġre ve
Ġt w
Ġenco ding
Ġansw er
Ġimm un
Ġv ert
Ġinter pre
Ġfind ings
att ribute
^{ (
z ip
Ġh istory
ĠS p
~~ ~~
Re ferences
## #
A ction
S ER
ext end
Ġhas attr
Ġs mo
Ġneed s
al k
h a
z ed
qu are
direct ory
c ategory
le y
re me
ĠM an
Ġpri vate
ran e
g ments
Ġv s
In stance
Ġbu ffer
i os
ime s
load s
Ġdef inition
ro le
ool s
co p
valid ate
fl ags
Ġup per
oc us
Ġcl asses
Ġdetect ed
Ġre strict
Ġf uture
p are
az ure
ĊĠĠĠĠĠĠĠĠĠĠĠĠĠĠĠĠĠĠĠĠĠĠĠĠĠĠĠĠĠĠĠĠĠĠĠĠĠĠĠĠĠĠĠĠĠĠĠĠĠĠĠĠĠĠĠĠĠĠĠĠĠĠĠĠĠĠĠ Ġ
} ^{\
om s
Ġco e
Ġmon ths
Ġappe ar
us ers
Ġg rid
b m
r l
F l
Ġexperim ents
Ġtyp ing
r ong
} "
F ilter
Ġn at
it ing
Ġp hen
l angle
ĠG e
Ġwrit ing
Ġtrans port
tra ck
Ġlink s
ines s
clo ud
Ġwe ights
Ġincre asing
] ):
Ġmat ter
al led
Ġr ights
i ency
oriz on
Ġspe ed
â ĸ
ĠC ar
L abel
Ġre verse
Ġsubst ant
ĠU p
Ġimpl ied
č ĊĠĠĠĠĠĠĠĠĠĠĠĠĠĠĠĠĠĠĠ
t ick
: \
Ġsome thing
IN T
Ġ' __
Ġsu fficient
Ġlimit ed
Ġb inding
P U
Ġthe ory
Ġcalcul ated
Ġdef ine
Ġreco gn
Ġal gorithm
Ġv ideo
Ġother wise
% (
Ġf un
Ġget attr
Ġco up
Ġpro posed
V AL
dim ension
ĠP ath
Ġback ground
du le
] ],
Ġresult ing
Ġth ink
Ġtest ing
. '
Ġs ql
ĠThe y
AC K
s pe
m ot
ap ter
AL L
h ome
ex tra
enc ed
Ġa mpl
Ġqual ity
Ġintern al
Ã ¦
static method
Ġpri me
ĠSo ftware
P A
Ġp adding
re en
ad o
cle ar
, -
sa fe
uro pe
module s
B lock
end ants
gener ate
Ġprocess ing
LE CT
h idden
lic enses
d ates
Ġ( \
ribut ions
mult i
ct ors
ue st
d ers
Ġh om
Ġf em
HO UT
Ġcomm unic
Ġex per
t k
ĠEx ample
ate way
Ġchang ed
fact ory
S O
Ġad van
Ġal tern
M e
s uccess
Ġ2 9
Ġd rop
g ame
resh ape
w idget
Ġf ont
to ols
ĠUn ion
Ġprob lems
if i
D ER
ie f
Ġtum or
M ethod
Ġs il
Ġto gether
Ġconcent ration
Cont ent
ta ch
I F
ne g
Ġst atic
}} _
it ro
er ved
Ġinclude s
ap pro
å ı
inst all
Ġb us
RO M
war ning
Ġauth ors
Ġsk ip
Ġcomm it
Ġre duction
an c
Ġpro p
Ġ( **
Ġ\ ,
Ġpl as
Ġdevelop ed
v a
de sc
ĊĠĠĠĠĠĠĠĠĠĠĠĠĠĠĠĠĠĠĠĠĠĠĠĠĠĠĠĠĠĠĠĠĠĠĠĠĠĠĠĠĠĠĠĠĠĠĠĠĠĠĠĠĠĠĠĠĠĠĠĠĠĠĠĠĠĠĠĠ Ġ
B ig
P T
Ġ ri
pp ed
Ġgener ally
v s
ma ster
25 5
G L
Ġreg ions
str ument
Ã£ o
Ġt ax
ion al
Ġw omen
path s
Ġl ate
12 8
f etch
Ġwrit ten
spec ific
Ġcall back
N et
Ġconst ra
E nd
00 4
Ġhy per
comp ile
ĠR o
ian s
am era
ĠD ep
H ER
ar io
Ġb and
Ġo x
F unction
z z
Ġve h
ĠB ut
Ġre d
Ġto ol
up lic
Ġav oid
ane ous
Ġind ices
00 5
ud o
s f
Ġident ify
ĠCon fig
ĠO b
Ġm ac
D F
Ġ ĠĠĠĠĠĠĠĠĠĠĠĊĠ
f ree
Ġappropri ate
qu ant
ve y
Ġremo ved
Ġst ack
A ct
Ġ ----------------------------------------------------------------
Char Field
l int
o ph
Ġoper ations
l ap
M B
v oc
AN D
Ġsur v
ĠType Error
Ġuse s
ĠW ith
Ġequ ation
s ible
) +
Ġapplic able
Ġen able
fact or
00 3
ĠWIT HOUT
G R
res ses
O ptions
Ġch allen
m id
Ġpr inc
e qu
Ġbut ton
du cing
E C
Ġsy m
Ġet c
H el
Ġt x
w s
ĠE ng
Ġinter action
Ġproces ses
V ersion
Ġre levant
Ġs itu
Ġf ill
Ġconnect ed
Ġ --------------------------------
Ġh ard
Ġform ation
cont rib
s ur
ut or
Ġtrans fer
Ġ= >
ĠM odel
lo s
Ġclaim s
h s
Ð »
ro t
Ġen gine
ul er
ra g
}} (
Ġde gree
Ġhas h
go ogle
load er
Ġin tra
( ['
s he
d r
al let
par ameter
in ing
EN SE
Ġp ad
Ġg as
Ġent ire
Ġad just
ho ok
F OR
ĠL O
Ġext ension
cle an
ir med
pr ice
ĠF irst
M ode
Ġdete ction
Ġc ategory
Ġon ce
contain er
Ġ ĠĠĠĠĠĠĠĠĠĠĠĠĊĠ
ag ing
Ġs m
] +
war n
Ġp anel
art ment
": "
f c
Ġlimit ations
plic it
fra k
ĠAN D
app a
Ġw arn
Ġ" --
H ow
Ġl ayers
Ġh tml
ĠP l
Ġ1 000
ve ctor
ĠS pec
Ġfil m
dim s
ĊĠĠĠĠĠĠĠĠĠĠĠĠĠĠĠĠĠĠĠĠĠĠĠĠĠĠĠĠĠĠĠĠĠĠĠĠĠĠĠĠĠĠĠĠĠĠĠĠĠĠĠĠĠĠĠĠĠĠĠĠĠĠĠĠĠĠĠĠĠ Ġ
Ġfollow ed
G e
S ource
Ġlar ger
L IC
R OR
Qu ery
S o
Ġpe ak
n one
con struct
con s
ain ing
Ġe ffic
' re
Ġent ity
tra ce
class method
Ġg ot
Ġf ix
Ġn an
sum mary
Ġ utils
ĠF OR
Ġhe ld
Ġbe gin
Ġf ive
. âĢĿ
Ġre fer
_ ,
AS S
Ġins ide
( **
Ġpo ol
t uple
C t
ren der
con n
comm it
Ġre duce
Ġme tric
################################ ################################
Ġ ĠĠĠĠĠĠĠĠĠĠĠĠĠĊĠ
Ġph osph
org an
cri ption
Ġreg ular
ĠDist rict
con vert
ĠÎ ¼
St art
IN D
Ġpart s
Ġw ords
Ġequ ival
[ \
Ġtra ce
ic ity
o ch
ĠF ound
Ġappe al
ã Ĥ
Î ½
Ġass ume
Ġmod ify
ho od
or ing
W AR
c ard
ĠA m
Ġcontain er
ĠV ersion
red u
O O
ĠV al
M ult
Ġobser v
Ġw orld
Ġse ed
en abled
Ġb in
Def ault
h ol
Ġfunction al
c uda
co mb
g b
Ġd ie
M y
Ġde sc
ĠB ase
t ol
Ġexp ressed
Ġan g
ry st
sc al
Ġ ----------------
e v
ĠI nt
Ġpro duced
ĠI P
std out
# !
ra ys
Ġst eps
Ġ6 4
Ġde bug
" \
al ign
um my
M et
C I
en sed
Ġser vices
av es
ance l
re set
a j
s leep
ateg ories
\ ],
p b
EN D
Ġi ma
Col umn
Ġst ress
Ġdr ug
ĠS im
Ġsy nt
mpl ing
th yl
ĠM ay
]\ ],
Ġne arest
Ġc ut
Ġper missions
ro py
Ġ3 1
Ġc riter
pri me
Pro cess
k ernel
Ġprob ability
Ġl ack
Ġatt ributes
IN E
Ġr ates
Ġan n
Ġdis k
cor rect
ç ļ
In valid
Ġde li
Ġindic ated
le ted
Î µ
Att ribute
Ġm en
ic a
th ers
Ġimp act
c ut
Ġset s
if est
1 000
Ġh ar
Ġb ias
Ġfor ms
pi peline
i ot
Ġsub str
ĊĠĠĠĠĠĠĠĠĠĠĠĠĠĠĠĠĠĠĠĠĠĠĠĠĠĠĠĠĠĠĠĠĠĠĠĠĠĠĠĠĠĠĠĠĠĠĠĠĠĠĠĠĠĠĠĠĠĠĠĠĠĠĠĠĠĠĠĠĠĠ Ġ
Ġcontra st
ro ute
ã ĥ
gra de
napsh ot
inter val
ump tion
ĠN ational
Ġf ar
Ġprote ct
f inal
loc ity
opt s
In teger
N E
çļ Ħ
} -
Ġser ial
Ġy et
A b
C s
R ES
ĠAl though
Ġb inary
te gr
ec ause
99 99
Ġb al
Ġan im
p df
Ġfor med
DE FAULT
o logical
Ġstate ment
Pro perty
m ut
er ing
Ġinter val
laint iff
event s
un der
Ã ¼
Ġ" -
I mplement
Z E
ig hest
log ging
me try
vari ant
CT ION
> <
un ique
Ġk ind
} '
Ġrow s
cre ated
du ces
ĠG roup
N ew
, '
ic ode
ĠT ime
Ġdo uble
Ġorig in
Ġv oid
= %
Ġse lection
Ġ3 5
Ġj ury
ĠS c
en n
is ode
Ġfl u
Ġrepresent ation
Ġab solute
ed eral
ĠI mage
L ambda
M ock
ific ate
Cal culate
cour se
port s
M ax
Ġsub sequ
1 01
PO ST
Ġcurrent ly
= _
ist ant
g it
dep th
Ġnot ice
enc ing
g g
Ġwh ole
Ġreplace ment
Ġne ver
so cket
ma c
Ġmechan ism
ad a
Ġg r
Ġp ers
r type
Ġstat ist
d ag
or al
pat tern
att en
ĠJ oh
ĠM in
rid ge
Ġinfe ction
re pr
Ġm i
Ġit self
app ly
{ {
Ġmag netic
b olds
Ġcoun ter
Pol icy
ot es
ser ies
ra di
C lo
Ġne ar
ĠM ar
pos ure
c f
Ġe poch
Ġp atch
ri st
am in
att ributes
ÂłÂł ÂłÂł
bolds ymbol
T oken
ĠI L
ĠMore over
ĠSe ction
Ġhe l
Ġpl atform
O ne
Ġs chool
fl ict
Ġexperim ent
sh ort
Ġfile d
math frak
Ġp ast
* ]{}
Ġcom ment
med ia
ut ing
chang ed
F ound
ot al
Ġs ay
B ack
Ġh app
train ing
ĠR ec
Ġindic ate
cal e
ĠT ensor
sh ip
u fact
ens ive
Ġs cope
ĠAmeric an
/ (-
arg v
Ġ8 0
it ute
Ġre action
r f
ĠFig ure
ĠB u
exception s
an cy
Fact ory
is ions
Ġte am
ĠH ere
Î ²
Ġa ctions
ĠA R
fl ag
er man
ĠS te
Ġsche ma
k a
5 00
b um
Ġ} )
}, \
f il
d ig
Ġter min
Ġch arge
vo ice
Ġn orm
Ġs ources
pl us
sel ine
Ġpy lint
ld ots
Ġm m
Ġestabl ished
Ġallow s
ex cept
Ġproduct s
dri ver
inal ly
ST R
Ġ[ (
m k
Ġpro of
Ġpi peline
un its
g ent
Ï ĥ
Ġther apy
il it
ĉĉ ĉĉ
Ġex ternal
: %
per iod
ĊĠĠĠĠĠĠĠĠĠĠĠĠĠĠĠĠĠĠĠĠĠĠĠĠĠĠĠĠĠĠĠĠĠĠĠĠĠĠĠĠĠĠĠĠĠĠĠĠĠĠĠĠĠĠĠĠĠĠĠĠĠĠĠĠĠĠĠĠĠĠĠ Ġ
Ġmed ical
me ssages
Ġs cores
Ġmet abol
ast ype
Ġmo ment
Ġw ide
Ġconstra int
ph er
it able
Ġvis ual
Ġsh all
Ġne ut
if ically
Ġsmall er
u co
Ġk in
ĠCoun ty
Ġf ul
Ġparticular ly
L S
Ġth reshold
__ )
D et
/ >
S che
Ġ ĠĠĠĠĠĠĠĠĠĠĠĠĠĠĊĠ
def ined
ect or
Ġ3 6
Ġdep th
pl atform
U M
T C
G E
Ġiss ues
s ive
M in
Ġagree ment
an a
N e
Data Frame
Ġl iter
ch ron
Ġv an
in ct
Ġdiffic ult
Ġcompar ison
ã Ģ
Ġpro ceed
Ġan gle
(" \
ran t
me trics
o ot
T A
hentic ation
() [
Ġloc ated
re po
ĠC ode
Ġo cc
Ã ¨
pl an
e le
Ġme ssages
Ġm ill
Ġs ites
Re ad
#! /
Ċ ĊĠĠĠĠĠĠĠĠĠĠĠĠĠĠĠĠĠĠĠ
Ġc ri
Ġp ixel
Ġbu ilt
ĠL og
Ġvalid ate
Ġse x
ic ensed
Ñ ĥ
Ġ9 5
Ġb ir
Ġact ually
Th ere
b le
Ġdis co
Ġsw itch
ri ef
sel y
ensure math
ĠE d
B e
Log ger
Ġcomp os
Ġ3 7
={ '
om ial
Ġne ur
IG HT
medi ate
urn al
box es
com ment
N N
et ing
at al
FI LE
) ?
Ġparticip ants
201 8
Ph i
av ailable
Ġle arning
Ġsequ ences
l r
Ġbl ack
S ION
ĠS he
for ward
irc uit
back end
i ke
A ss
201 7
I B
Ġcorrel ation
T ag
** )
D ATA
w er
Ġg round
r b
ap ache
Ġbro ad
Ġ ĠĠĠĠĠĠĠĠĠĠĠĠĠĠĠĊĠ
l anguage
w as
ob ile
Ġdemonstr ated
Ġcent ral
x ff
re ply
L L
AN T
Ġma king
Ġmin imum
it ivity
Ġconsist ent
pri vate
j a
u ous
âĶ Ģ
& \
Ġdis cre
view s
bu cket
Ġst ra
Ġmin utes
Ġag reed
. ](
orizon tal
Ġp ain
itt le
en gine
)/ (-
pro to
Ġre comm
ex port
T EST
Ġm it
Ï ģ
re at
ĠA b
Ġmedi um
ĠA S
Ġal though
ign ore
Ser ver
Ġh ighest
Ġfl ag
ol low
config uration
ic les
Ġth ough
me mory
not e
i mp
ic o
; \
Con nection
k appa
Ġup dated
T ask
Ġproced ure
Ġ ensure
Ġne uro
({ '
g ers
() ))
Ġfo ot
P ack
ĠJ ud
Ġcomb ination
he x
Ġc apt
IC E
UL L
Ġ9 0
U E
oun ded
ï¼ Į
Ġexperim ental
cri min
L en
Ġe ar
ĠS O
N etwork
l n
ot imes
Ġcoun sel
S c
Ġin valid
filter s
. ",
lo aded
dir name
inter face
Ġbe come
Ġch rom
Ġa st
v i
Ġlib rary
Ġde lay
Ġmed ia
ing er
M T
Ġ{} ".
Ġd s
re ference
ĊĠĠĠĠĠĠĠĠĠĠĠĠĠĠĠĠĠĠĠĠĠĠĠĠĠĠĠĠĠĠĠĠĠĠĠĠĠĠĠĠĠĠĠĠĠĠĠĠĠĠĠĠĠĠĠĠĠĠĠĠĠĠĠĠĠĠĠĠĠĠĠĠ Ġ
s ian
tok ens
Ġ ĠĠĠĠĠĠĠĠĠĠĠĠĠĠĠĠĊĠ
in valid
ĠCal culate
s mall
Ġre mote
Ġbel ie
- %
Ġare as
ĠC all
col lection
Ġstruct ures
pl ugin
reg ion
Ġelect ron
est ed
p n
m enu
ĠP ri
Up date
Ġ" _
Ġma chine
to ol
up per
ĠU se
Ġcon vention
Ġb rain
h igh
Ġres ources
ap es
ro ad
z en
Ġm g
const ant
Ġcause d
Ġpar ty
Ġ ut
} ")
Ġw in
ĠR NA
ap s
on ic
b and
Ġj ur
G raph
TI ES
( {\
Ġwh y
Ġd uration
C ore
row ser
ĠOr der
ĠS ch
Ġder ived
Ġname d
ĠI mport
l u
a id
() .__
ex c
n ers
ĠM c
Ġatt ention
ĠT ra
Ġh idden
EX T
Ġst and
N P
Ġma kes
dat abase
if er
test ing
å Ī
or ical
US ER
Ġrecor ds
P art
Ġmod ified
j ava
ĠJ an
ĠA D
Ġpl ayer
__ ()
Ġcontinu ous
Ġex pr
Ġcal c
Ġpart ial
L icense
P ORT
Ġin ner
"} )
Ġ' {
Ġre q
Ġc andid
Ġknow ledge
Ġpur pose
Ġ4 2
Ġcharacter istics
ĠE X
Ġ ĠĠĠĠĠĠĠĠĠĠĠĠĠĠĠĠĠĊĠ
s ingle
e ks
Ġsepar ate
Ġ_ ,
Ġchannel s
] ])
^ âĪĴ
% ,
V E
(' \
ĠFound ation
201 9
y e
Ġse conds
ĠFurther more
um ing
Ġcon n
ĠO pen
S igma
Ġb ur
ist ent
) "
Ġs q
Ġfind ing
Ġ' ',
set ter
Ġb ig
Or der
Ġtry ing
IL ITY
Ġl at
P UT
b ias
ac ing
Ġresponse s
Ġopt ical
l t
Ġan not
Ġno ise
ĠH TTP
Implement ed
Ġco p
Ġpath s
at ives
act or
k t
o log
Ġstore d
Ġ% (
Ġm apping
Ġdown load
Ġc fg
Ġcomp li
d m
en able
n c
mat ic
cl i
ache s
Ġh alf
Ġc m
Ġc red
Ġn or
g i
] ["
Ġin duced
Ġsub process
Ġlet ters
s ig
L oc
Ġl icense
Ġmolec ular
attr s
Ġab ility
Ġmaterial s
qu id
Ġver ify
c v
ect ed
und le
mb ox
Ġfol der
Ġ ĠĠĠĠĠĠĠĠĠĠĠĠĠĠĠĠĠĠĊĠ
Ġse gment
O K
ĠO ur
ĠR E
Ġestabl ish
Ġ ult
P ER
mpl ify
at ial
ĊĠĠĠĠĠĠĠĠĠĠĠĠĠĠĠĠĠĠĠĠĠĠĠĠĠĠĠĠĠĠĠĠĠĠĠĠĠĠĠĠĠĠĠĠĠĠĠĠĠĠĠĠĠĠĠĠĠĠĠĠĠĠĠĠĠĠĠĠĠĠĠĠĠ Ġ
ĠM ult
H TTP
ĠAp ache
Ġwh ose
nd array
Ġres istance
de tails
Ġco ver
n ab
Ġch arg
' ve
Ġhigh ly
G B
Ðµ Ð
de te
gra ms
ter min
Ġen ough
p ick
Ġanaly zed
U D
Ġd t
a ma
Ġhyp ot
([ [
V ariable
Ġlong er
Ġl and
Ġpro f
Ġport ion
Ġres id
Re f
ĠT r
variable s
at ically
l ab
ob s
argument s
Ġsp in
Ġ4 8
Ġrel ation
\ |
Ġbo ok
à ¤
Ġ" __
ĠW est
Ġfl uid
ER ROR
it is
ta ke
s ome
valid ation
Ġuser name
Ġre pl
ĠWARRAN TIES
pos itory
ul y
Ġbas ic
Ġevalu ation
ĠE urope
Ġr at
Ġopt s
no logy
F ore
W N
and om
Ġf ace
Ġr ules
ile s
ĠE q
v oid
Ġ4 5
Ġover all
icro soft
Ġst ated
ĠR ed
N OT
Ġso cket
Ġx ml
al o
ger y
re ce
De vice
iz ers
Ġes sent
ĠP laintiff
Ġt en
b ert
Ġex hib
ĠAl so
Ġ ĠĠĠĠĠĠĠĠĠĠĠĠĠĠĠĠĠĠĠĊĠ
Ġmon itor
Ġp etition
O UT
comp at
Ġs ocial
Ġ sel
lo ok
er ve
B C
Ġlo ck
ust ers
Ġb a
Ġindividual s
Ġro und
ĠU SA
ex tract
end point
Ġas semb
b ounds
Ï Ģ
b est
Ġdes ired
) ])
Ġ( $
M I
Ġal ter
}} }
Ġmark er
Ġad j
S te
}} {
Ġcrit ical
Ġtensor flow
iqu es
z a
Ġpro duce
Ġh ours
ĠM at
ĠC ity
2 000
W OR
Ġ2 55
Ġin v
S ystem
ip al
Ar gs
in v
SE T
Ñ ı
Ġgover nment
Ġwe ak
(" /
down load
Ġb ranch
Ġex plicit
c b
P ri
ens ors
k w
process ing
ĠP art
201 6
Ġvalid ation
f req
Ġtarget s
b ut
Ġsent ence
rup t
Ġexp an
Ġinst alled
id ers
ĠM o
MO DE
W ork
_{ {\
ren ce
im ate
Ġnat ural
. [
__ ':
Ġb acter
D own
Ġw on
** ]{},
Ċ ĊĠĠĠĠĠĠ
Ġspec ify
Ġstr ategy
iv o
// //
s m
ific ations
"] :
Ġex posure
ynam ic
Ġ ĠĠĠĠĠĠĠĠĠĠĠĠĠĠĠĠĠĠĠĠĊĠ
mp ly
. $$
Ġo thers
)/ (
Ġcontrol s
sion s
Ġseem s
Ġevalu ate
re lease
* )
v irtual
Ġcompli ance
Ġw rong
ĠO ut
h istory
Ġinj ury
b en
Ġdri ver
comple te
Ġman agement
re mote
Ġre le
e valu
Data set
cur sor
Ġtrans ition
Ġimplement ation
a res
Ġcirc um
P D
Ġapplic ations
Ġm ar
d ays
gra mm
Ġclo sed
dump s
ĠO ther
ta ck
(' -
co st
od ies
C re
Ġcho ice
ĊĠĠĠĠĠĠĠĠĠĠĠĠĠĠĠĠĠĠĠĠĠĠĠĠĠĠĠĠĠĠĠĠĠĠĠĠĠĠĠĠĠĠĠĠĠĠĠĠĠĠĠĠĠĠĠĠĠĠĠĠĠĠĠĠĠĠĠĠĠĠĠĠĠĠ Ġ
Ġne ighb
if ies
. [@
Ġres olution
in ternal
re ason
Ġrelative ly
Ġhe at
trans action
D ir
abil ities
m argin
Ġdis clo
ĠN O
W S
Ġreason able
ot o
âĢ Ĭ
Ġname space
sub scription
child ren
i am
Par ameter
Ġl im
Ġus ually
Ġad apt
Ġregard ing
C F
Ġcy cle
i et
ĠAc cording
ð Ł
b its
r d
Ġe th
! \
row n
.. /
ug ins
bo ot
act ers
Ġen zy
Ġconduct ed
O pen
ren gth
Ġse ason
plot lib
âĢ ²
201 5
mpl ates
ĠF ield
bl ank
ar ange
Ġ ĠĠĠĠĠĠĠĠĠĠĠĠĠĠĠĠĠĠĠĠĠĊĠ
Ġshow ing
v ideo
ache d
L ayer
ĊĊ ĊĊ
cur rency
Ġ201 5
if act
St ream
ge bra
am m
in ion
Form at
Ġran k
ĠD r
lo or
M R
ot t
Ġunit test
ĠS outh
Ġrad io
ord ers
Ġ ĊĠĠĠĠĠĠĠĠĠĠĠ
k in
Ġv irtual
Ġdocument ation
o sed
Ġtest ed
Ġcl ick
ĠY ork
= ["
es is
h ing
Ġveh icle
') ),
M at
P age
ame tri
as er
ab et
Ġex it
ist r
Ġf und
ĠB l
Ġ3 4
Ġo l
it ors
u med
â ķ
Ġman ufact
Ġe ff
compon ent
P AR
ce l
s pect
ĠF ROM
Ġof fer
pro xy
non umber
Ġblock s
ĠA rt
s ync
Ġrepresent s
block s
ser v
as is
Ġsign als
h older
Ġg ives
f old
Ġ ĠĠĠĠĠĠĠĠĠĠĠĠĠĠĠĠĠĠĠĠĠĠĊĠ
Ġes pec
Ġc he
D IT
Ġaccur acy
dict ion
ar ma
Ġ2 000
il i
frame work
O ver
T P
E E
Ġt ick
f ake
Ġl in
Ġwhere as
0000 00
Ġme tal
ĠCon straint
ax es
In it
Ġpat ter
ĠN umber
ver bose
Ġsi mply
S ession
3 00
Ġbet a
Ġindic ates
ul ating
ĠR em
Ġcomp are
Ġp en
Ġcol lect
ĠN a
Ġro om
Ġw all
Return s
M D
Ġfin ite
ac cept
in duced
Ġmeasure ments
Ġand roid
Value Error
(" %
Ġwarn ings
ĠS ci
z ure
Ġstud ied
Ġad ult
u ary
en o
Ġfra ction
Ġprom ot
Ġ201 0
Ġp andas
ur ity
Ġdes igned
Ġdecre ased
Ġm ention
ast er
B O
coun ter
P i
Ġcol lected
ne ctions
ix in
! !
o ptional
get ter
Ġassoci ation
Ġgre at
se cond
Ġconcent rations
Ġun d
AB ILITY
Ġcommand s
12 3
Ġmig rations
po ses
sub set
ĠE ach
Ġmemb rane
Ġcur ve
Ġcomb ined
Ġtyp ically
Ġ ĠĠĠĠĠĠĠĠĠĠĠĠĠĠĠĠĠĠĠĠĠĠĠĊĠ
ĠTh at
Ġout side
m ul
Ġincre ases
ar ily
ĠRes ource
Ġ201 6
im ony
bin ary
do uble
C U
s g
Ġcomp at
ĊĠĠĠĠĠĠĠĠĠĠĠĠĠĠĠĠĠĠĠĠĠĠĠĠĠĠĠĠĠĠĠĠĠĠĠĠĠĠĠĠĠĠĠĠĠĠĠĠĠĠĠĠĠĠĠĠĠĠĠĠĠĠĠĠĠĠĠĠĠĠĠĠĠĠĠ Ġ
in x
Ġreve aled
Le vel
wh ich
ĠG o
Ġlead ing
col s
Ġas pect
Ġanaly ses
ĠL a
p us
Ġmo use
nab la
Ġque ue
cont in
ĠP r
ĠNot Implemented
S V
Ġremain der
to ms
dimension al
Ġ3 3
assert Is
Ġcoordin ates
CO L
Ġstart ing
ann ing
Ġdepend s
ĠO S
Ġappe ars
Ġcomp any
Ġtr igger
cl ip
ĠCl ass
æ ľ
b ind
Ġmon th
201 4
Ġpart ies
Ġs al
p v
n es
ĠF ree
Ġed uc
or ary
Ġg ly
con cat
Ġfig ure
f alse
Ġpartic les
Ġ201 4
n b
Ġn a
Ġpay load
bu f
čĊ čĊč
Ġtak es
pl ayer
Ġf all
pl t
Ġfilter s
} ".
Ġsubject s
Se e
) ],
dot s
B ar
p ower
Ġcomm unity
d y
Ġequival ent
Ġquant um
Ġevalu ated
oper ation
Ġartic le
Ġcal culate
Ġwe ek
fe ed
Ġexp lo
os ome
Ã Ĳ
form s
w rap
Ġc a
Ġp sy
res ources
ĠG u
ĠW ill
L ink
ip y
ri al
Ġpro port
pol y
ĠS ome
at in
ĠM on
ro y
url s
Ġstr ings
ĠP o
Ġ ĠĠĠĠĠĠĠĠĠĠĠĠĠĠĠĠĠĠĠĠĠĠĠĠĊĠ
Ġb ad
z o
Ġpar allel
Ġ201 3
Ġ[ -
Ġg al
ĠM A
Ġrecept or
map ping
name space
Ġ' <
Con tain
Ġfinal ly
( $
Ġsq rt
UT H
ex ist
11 1
I ST
Â ·
ĠWh ile
th at
R em
if fer
struct ure
Ġremain ing
Ġdim ensions
U s
s lot
or ney
du c
r atio
it ative
} +
S cript
Ġf ocus
SI ZE
pay load
in ity
ail y
b ad
Ġpl ate
V A
Ġmeasure ment
} )$
Ġapproxim ately
Ġen g
ab c
S L
S to
Ġpatter ns
Ġpre v
k y
Ġcap acity
Ġ_ ("
Ġ( )
Ġf n
st derr
ifi ers
Ġ201 2
se lected
is ation
Ġsubstr ate
Ġp ie
Ġbound ary
Con v
el i
ĠC A
S M
ĠM r
al og
C RE
Ġar bit
Ġbot tom
Ġre cur
Ġo k
Ġmark et
exp and
Ġtime stamp
ĠJ SON
Ġpract ice
ig ration
de ed
Ġg lob
Ġto k
s cores
Ġsecond ary
Ġst ar
Ġst ation
201 3
c in
mon th
ĠA ug
Ex ec
Ã Ĺ
V ar
f p
ig ation
ul in
Ġdiagn osis
li er
Ġ ĠĠĠĠĠĠĠĠĠĠĠĠĠĠĠĠĠĠĠĠĠĠĠĠĠĊĠ
ĠO ct
Ġcomp lic
Ġc ryst
Ġespec ially
ĠH T
Ġsh ared
p ubl
cor por
Ġb one
Ġspect rum
': '
ĠL icensed
pro ps
A CT
comp any
Ġse q
Ġse c
Ġplas ma
SE LECT
ĠF rom
Ġpair s
gener ator
Ġh old
Ġ" ",
Ġbe am
i ate
> </
Ġcol lections
ĊĠĠĠĠĠĠĠĠĠĠĠĠĠĠĠĠĠĠĠĠĠĠĠĠĠĠĠĠĠĠĠĠĠĠĠĠĠĠĠĠĠĠĠĠĠĠĠĠĠĠĠĠĠĠĠĠĠĠĠĠĠĠĠĠĠĠĠĠĠĠĠĠĠĠĠĠ Ġ
)* (
Ġvol tage
Ġj oint
`` .
pro gress
Ġse ss
Ġb r
Ġli quid
Ġex erc
æ ķ
A ut
Ġ201 7
Ġm orph
Cont rol
n el
init ialize
ST AT
ot a
ĠS w
** ]{}
Ġsurv ival
() ),
Ġch ose
ĠK IND
Ġdo se
, )
te e
Ġhand ler
'} ),
âĶĢ âĶĢ
Ġpart ition
ĠC ur
hel per
se ct
Ġdig it
** (-
mis s
Ġunder lying
Ġinter actions
Ar gument
P RE
ur ch
Ġass ign
B L
l ang
' {
ĠS E
e ff
ph inx
dist ance
Ġpr ice
Ġn one
Ġme trics
Ġexample s
Ġth ick
ail s
Ġ ĠĠĠĠĠĠĠĠĠĠĠĠĠĠĠĠĠĠĠĠĠĠĠĠĠĠĊĠ
il ation
Ġcomput er
Ġimpro ved
t z
pro tocol
Ġor g
th reshold
} '.
ĠH o
Ġfact s
Ġshe ll
Ġaltern ative
graph y
Ġms at
un s
se cret
ost ic
Ġh ospital
prec ated
f on
}} _{
wide tilde
us ing
Ġhe aring
ĠE rror
Ġn ature
Ġv o
ĠHe alth
ol l
me sh
/ \
Ġgu ide
g pu
= ""
Ġcon struction
ĠP e
.... ....
en ario
Ġ201 8
compon ents
mis sing
iddle ware
ĠÐ ¿
00 6
ir ing
Ġquest ions
bl ue
}} ,
y es
/ %
M od
" ;
b ur
201 2
ĠE xt
si mple
LIC ENSE
st ar
er as
Ġser um
ut able
ic ial
Ġmechan isms
Ã³ n
Ġgover ning
Ġ7 0
Ġtask s
Ġident ity
p d
Ġsens or
Ġge ometry
it ect
own er
ĠE R
unit test
I ter
Ġex port
Ġap par
Ġpl ugin
Ġful ly
ĠG erman
P H
ue l
b n
Ġ[ {
an o
Ap plication
Ġback end
g lob
er m
one y
Ġdo ing
Ġref lect
ĠT ext
Ġconvention al
command s
Ġno vel
Ġve locity
Ġ ĠĠĠĠĠĠĠĠĠĠĠĠĠĠĠĠĠĠĠĠĠĠĠĠĠĠĠĊĠ
Ġend point
Ġfl ags
en ing
Ġst ats
Ġdecre ase
Ġsol utions
L R
ot ype
Ent ry
ĠCol umn
Ġor ient
Ġpick ed
d x
Ġestim ate
( ?
c ape
w rit
Ġ200 8
Ġ ;
TI ME
mer ge
m n
Ex ternal
Ġmodule s
di ag
loy ment
ul k
ob er
Ġestim ated
ĠV ar
ad ing
Ġexec ute
Ġro ute
vol ution
at o
Ġag greg
Ġm id
âĢ Ķ
Ġlo s
ĠC I
Ġst ride
ä »
"] [
um in
y aml
ĠIn dex
me mb
Ġden ied
se conds
Ð º
4 00
Ġsh ift
j i
Ġfo od
sl ice
Ġs alt
Ġremain s
Ġf ire
) ",
ĠC R
Ġsuggest ed
m ol
ĊĠĠĠĠĠĠĠĠĠĠĠĠĠĠĠĠĠĠĠĠĠĠĠĠĠĠĠĠĠĠĠĠĠĠĠĠĠĠĠĠĠĠĠĠĠĠĠĠĠĠĠĠĠĠĠĠĠĠĠĠĠĠĠĠĠĠĠĠĠĠĠĠĠĠĠĠĠ Ġ
ul ator
ĠÎ ±
Ġ5 00
al ing
Ġnot ed
s ure
> \
O p
er ic
Ġev olution
Ġ201 1
AG S
ĠJ ap
D ep
sup plementary
Ġm ort
r ich
t ical
S R
Ġplay ers
u ck
Ġ1 28
Ġjo in
le arn
Ġ ĠĠĠĠĠĠĠĠĠĠĠĠĠĠĠĠĠĠĠĠĠĠĠĠĠĠĠĠĊĠ
Ġp le
c ence
Ġen abled
d l
Ġactiv ities
run ning
R ow
MA X
E V
Ġsol id
Ġab sor
sh ift
Ġtrans action
Ġcont ents
F P
Ġjur is
que e
ĠF l
bs ite
Ġgo ing
Ġl ayout
. ',
untime Error
s n
\ {
h i
Ġtechn ique
Ġoccur red
Ġdel ta
ĠThe orem
P r
Ġpredict ion
"} .
Ex p
è ¯
ĠB ar
il s
Ġpre p
Ġbl ank
redu ce
__ .
are a
en um
Ġl ittle
y r
ser vices
Ġbo ard
ĠC ircuit
b id
Ġpl aced
pr il
$ $\
ch or
P e
p et
t wo
or ter
aw s
cond ition
Ġhe art
Ġstat ute
Ġass ay
_ .
ak er
Ġtrans mission
Ġarg parse
Ġt ab
( ["
Ġtri ed
Ġwe eks
R out
let ion
d ings
dis k
lo ur
Ġ ).
pro c
og ene
Ġi ds
rel u
Ġreason s
h ist
f d
ĠF orm
ru gs
å Ĳ
Ġun known
P ool
Ġ ĠĠĠĠĠĠĠĠĠĠĠĠĠĠĠĠĠĠĠĠĠĠĠĠĠĠĠĠĠĊĠ
S QL
ph p
N F
ad s
prov ider
task s
el low
par k
y ing
sup er
d one
Ġcontain ed
sign al
uff ix
Ġ200 9
20 20
b us
p a
Ġprob ably
** ,
co ded
Ġindic ating
te mber
^+ ^
ĠNotImplemented Error
Ġtest imony
Result s
Ġbe comes
Ġw idget
T S
Ġab sence
yn omial
G C
ĠOn ly
top ic
par ametri
' d
G A
Ġappe llant
] *
G ui
/ '
ĠC a
Ġad v
D ec
Ġdist inct
Ġradi us
ĠIn it
Ġmat ches
l ers
Ġf ront
Ġw x
ĠS i
BU G
Ġcriter ia
Ġpol ar
ĠRe search
ject ed
Ġed ges
ĠJan uary
b lob
Ġho use
Se quence
t ty
b efore
d ic
MP L
Ġsh are
Ġre set
il le
x s
et te
Ġcarri ed
] --
Ġinflu ence
h am
C ell
Ġda mage
r pc
Ġ& =
Ġdiscus sed
in ner
Se lect
ol ved
Ġent ries
Ġbuild ing
M o
Ġf etch
ker as
ĊĠĠĠĠĠĠĠĠĠĠĠĠĠĠĠĠĠĠĠĠĠĠĠĠĠĠĠĠĠĠĠĠĠĠĠĠĠĠĠĠĠĠĠĠĠĠĠĠĠĠĠĠĠĠĠĠĠĠĠĠĠĠĠĠĠĠĠĠĠĠĠĠĠĠĠĠĠĠ Ġ
Ġre ally
Ġproper ly
ON E
me m
ĠH ttp
ce ler
Ġsur gery
p erson
ĠJ une
Ġpos itions
Ġde ep
ce mber
ish er
go ing
d ent
ĠV er
ĠRe v
Ġre ach
Ġcommunic ation
12 0
on gs
201 0
ign Key
Ġ3 8
ĠB ecause
ot ic
ĠM arch
C an
Ġtechn iques
ĠA P
) ',
Ġ ĠĠĠĠĠĠĠĠĠĠĠĠĠĠĠĠĠĠĠĠĠĠĠĠĠĠĠĠĠĠĊĠ
count s
R ed
stru ctions
Î ·
AC E
Ġm ale
b ranch
orig inal
Ġmot or
ĠS ep
ar c
s yn
I E
r r
w ell
Ġoptim izer
Ġb ra
Ã ĥ
Ġinterpre t
mat ory
Ġ" {
in i
Ġ{ },
ph ase
) =\
F ailed
Ġimplement ed
Ġ ion
del ay
S olve
z eta
M on
D L
Ġraise d
ĠB AS
Ġobserv ations
lo tt
in ite
Ġin strument
Ġacc um
m env
Ġcle arly
ĠC H
ĠR ob
} :
Ġchar acters
ch arge
00 7
]-- [@
Ġpol ling
O ff
Ġst rength
Ġrel i
tra ined
Ġcur sor
ĠP RO
Ġma ster
Ġ$ {{\
C V
LO G
id a
res p
at abase
Ï Ĥ
ĠS ec
ĠU S
ĠSt ud
Widget s
Ġsu ff
b ru
Ġb ank
ĠA g
Ġcon cept
uff le
ces sed
ses sed
Ġse curity
Ġret rie
i ma
ex pression
ir cle
c up
IN FO
st ances
Ġe fficient
P os
Ġf at
ĠW indow
Ġst able
Ġpro ve
W hen
) ^{
d uration
Ġcomp ounds
1 10
Ġ ĠĠĠĠĠĠĠĠĠĠĠĠĠĠĠĠĠĠĠĠĠĠĠĠĠĠĠĠĠĠĠĊĠ
Ġnot hing
p ub
l le
ph one
act ivity
sy m
Set tings
Ġch at
M eta
Ġra pid
Ġp ert
cell ular
mo lec
om orph
Ġ200 7
Ġview s
ij ms
ll ib
Ġgen ome
Ġpredict ed
r ules
Ġon to
201 1
Ġto ols
oun g
E num
Ġima ging
_ >
S um
Ġsymp toms
Ġbehav i
S ign
Ġun icode
Ġ< <
Ġgener ator
ame s
ĠR el
av g
Ġal most
Ġcho ices
f ast
Ġimpl ic
Ġal bum
ĠH igh
Ġmed ic
ing u
Ġl ymp
Ġstart ed
M AP
Ġop inion
Ġform ula
ĠS olve
oper ative
com ing
fig ure
id ation
Ġm anner
mpl er
M ENT
V er
Ġappar atus
Ġinst ances
Ġout come
+ '
M IN
Ġrecor ded
U I
Ġperson al
Ġread ing
Ġequ ations
HER E
w riter
Ġass igned
A uto
am matory
pt r
Ġth ings
Ġal ign
T ree
st ock
Ġf ine
ic ip
Ġoccur s
t i
Ġax es
ĠM et
Ġmatch ing
ra ise
Ġ ĠĠĠĠĠĠĠĠĠĠĠĠĠĠĠĠĠĠĠĠĠĠĠĠĠĠĠĠĠĠĠĠĊĠ
a o
Ġag ents
lo gs
gre es
Ġc ast
Ġpo or
ĠD ec
Ġsche me
Ġc e
mp t
R ule
requ ire
Ġhe ter
M ixin
Ġsp atial
Ġmeasure s
}} ^
Ed it
Ġinc ub
se curity
Ġcon flict
Ġ200 6
ke ep
Ġprov iding
Ġf avor
Ġto po
ĠCon struct
Ġwh ite
ĠCl ient
Ġp lease
n x
Ġcomple ted
Ġaffect ed
Ġrequire ments
M AT
ĠO ver
Ġcall s
Th read
Ġlo aded
ul i
Ġte le
Ġ Âł
F S
Ġcon clude
Ġpl ant
Ġ ])
optim izer
Ġrequest ed
bl ack
function s
CH E
Ġmag n
ol ic
Ġconv ict
g ence
Ġo ps
Ġs low
Ġe val
Cur rent
DIT IONS
c ss
Ġsen se
Ġsmo oth
parametri ze
Ġli ver
m ia
ĊĠĠĠĠĠĠĠĠĠĠĠĠĠĠĠĠĠĠĠĠĠĠĠĠĠĠĠĠĠĠĠĠĠĠĠĠĠĠĠĠĠĠĠĠĠĠĠĠĠĠĠĠĠĠĠĠĠĠĠĠĠĠĠĠĠĠĠĠĠĠĠĠĠĠĠĠĠĠĠ Ġ
Ġen c
________ ________
Ġ201 9
Ġpath way
pos itive
Ġba seline
st age
Bu ild
B P
k i
en coding
Ġz one
O ptional
m as
Ġtak ing
Ġspec ifically
ĠW orld
Ġchem ical
Ġ ĠĠĠĠĠĠĠĠĠĠĠĠĠĠĠĠĠĠĠĠĠĠĠĠĠĠĠĠĠĠĠĠĠĊĠ
ĠW ork
Ġint ensity
u v
re gex
Ġon es
={ "
Ġman ager
Ġautom atically
F C
ĠJ uly
Ġun iform
Ġscal ar
on ent
pro d
Ġs leep
per cent
ĠUn less
ĠR ule
Ġgen etic
(" --
Ġrel ates
Ġdef endants
12 7
Not Found
P ort
ot ed
Ġstd out
un ct
re quires
Ġext ent
h old
Ġby te
ĠU sing
L C
Ġpol it
Ġ Ñģ
Ġbec ame
oci ation
Ġre direct
k ind
Ġper mission
ty le
i mpl
Ġconf irmed
f ixture
with in
p le
sens ors
Ġre po
: **
Ġse ctions
Ġ" <
Ġrot ation
Ġrece ive
part s
d c
Ġgener ation
Ġc aus
Ġill ustr
==== ===
ĠCON DITIONS
D U
ĠBAS IS
Ġpack et
Ġconst ants
Ġ1 20
ta iled
Ġout er
ion e
spe ed
Ġobser vation
Ġst e
Ġbus iness
= {}
on ce
Ġb rief
Ġ ĠĠĠĠĠĠĠĠĠĠĠĠĠĠĠĠĠĠĠĠĠĠĠĠĠĠĠĠĠĠĠĠĠĠĊĠ
Ġ{ {\
Ġsubsequ ent
ab e
Ġc ms
Ġs aved
Ġsupport s
Ġtok ens
al ias
pri or
ĠAug ust
ex perim
F R
Ġrepresent ed
ĠSer vice
Ð ²
Ġ" [
ish ing
ĠA pril
ve mber
' ll
Ġrele ased
Config uration
ĠUp date
Ġbl ue
Ġsens itivity
Ġab s
, ),
al i
att ice
Ġeas ily
l ish
h ot
t w
Ñ Į
de t
ill s
Ġpur ch
Ġrecent ly
mg mt
ater al
Ġanim als
Ġext ended
Ġsubstant ial
(\ [
R el
ĠP O
d k
Ġcoun try
Ġcult ure
up load
r ical
Ġinvestig ated
V ert
ext ension
Ġa po
ĠM ag
col ors
B R
pk g
} =\
T r
Ġexper ience
Ġconf irm
Ġl ive
Ġlead s
c les
able s
ĠIn put
un ds
ffic ients
w orld
ol ding
Ġgrad ient
U SE
serial ized
ĠCh ar
Ġor d
me th
pri mary
ss ible
ĠOct ober
) }\
sc r
Si mplify
Len gth
ag ue
Ï ħ
ĠTe ch
ĠF ran
Ġdis crimin
Ġtran scription
Ġw it
Ġ ĠĠĠĠĠĠĠĠĠĠĠĠĠĠĠĠĠĠĠĠĠĠĠĠĠĠĠĠĠĠĠĠĠĠĠĊĠ
} ]
Ġmean ing
Ġmap s
requ ency
f name
Ġatta ch
$ )
} ')
ill a
p pe
cap s
Ġcomput ed
ri end
work er
ĠS D
======== ==
An y
Ġprec ision
Ġmer ge
sub ject
Î º
e g
en coder
ore d
Ġexam ined
Ġin corpor
Ġre ct
Ġpe pt
Ġrepresent ing
method s
D ist
w all
ĊĠĠĠĠĠĠĠĠĠĠĠĠĠĠĠĠĠĠĠĠĠĠĠĠĠĠĠĠĠĠĠĠĠĠĠĠĠĠĠĠĠĠĠĠĠĠĠĠĠĠĠĠĠĠĠĠĠĠĠĠĠĠĠĠĠĠĠĠĠĠĠĠĠĠĠĠĠĠĠĠ Ġ
[: -
quee ze
b asic
Ġco me
ĠRes ult
p ers
ĠSep tember
Ġcause s
Call back
Ġnetwork s
jo int
Ġcomp laint
p in
ĠD O
am ine
alle st
Ġap pend
U B
^ -
A ccess
Se arch
Ġclass ification
lim its
ocy tes
Ġfl ux
comple x
qu bit
ĠDe cember
cho ice
Ġform er
Ġc as
Ġexec ution
im s
D ialog
ĠR un
Â ¶
Ġpar a
Ġun less
ĠS an
con straint
check point
ĠS uch
Ġm al
Ġ4 4
i ated
Ġpartic le
Te mplate
Ġcon cer
Ġter minal
J ob
qu is
ss l
IN TER
ver ify
b rid
Ñ ĭ
in ations
Ġdescrib e
Ġm enu
pl as
ab stract
get Logger
T ypes
Ġdise ases
M ark
cdot s
Ġ ĠĠĠĠĠĠĠĠĠĠĠĠĠĠĠĠĠĠĠĠĠĠĠĠĠĠĠĠĠĠĠĠĠĠĠĠĊĠ
effect ive
Ġprov ision
om as
(' .
\[ [@
pre v
/ -
it ter
H z
ĠÃ Ĺ
Ġ Ã©
Ġdri ve
We b
it led
({ "
Ġ3 9
Ġsign ature
æķ °
Ġdef ect
Ġsa f
Ch ang
Ġisol ated
N R
assert False
code s
Ġ um
ĠBo ard
i ph
t ely
Ġs n
F low
ĠL em
ĠM ethod
Ġdynam ic
he el
F loat
Ġintro duced
Ġfl at
Ġcomp osition
ĠF inally
w ik
n ce
trans late
f ound
Ġ- =
target s
% %
Ġ[ ])
ed ges
Ġed it
ĠT uple
Ġpl ane
p adding
Ġmajor ity
ĠP M
link s
ĠData Frame
ib ly
U RE
s uffix
å ħ
Ġmat plotlib
k l
c redentials
ent ries
at om
Ġ200 5
Ġunderstand ing
Ġcor re
Ġkey word
Ġl ip
Ġar r
Ġsl ight
N ING
Ġm u
Ġs ing
d n
}} {\
ĠCom mission
G S
R ange
re et
re a
Ġframe work
Ser ializer
st ant
âĢ ľ
ĠDep artment
ĠJoh n
ĠN ow
Ġliter ature
Ġsa fe
re cor
ĠS chool
Par ams
D irect
ol ar
ck s
l ifer
Ġv ent
uco se
ĠF unction
Ġany thing
ail ability
ok ie
N ESS
ime d
Ġgo al
Å ¡
Ġcost s
Ġa min
Ġreg ression
'] ),
N um
av y
Ġcon c
Ġ ĠĠĠĠĠĠĠĠĠĠĠĠĠĠĠĠĠĠĠĠĠĠĠĠĠĠĠĠĠĠĠĠĠĠĠĠĠĊĠ
un ded
il ing
ĠHT ML
He ader
Ġvir us
p ush
Ġr ing
sc an
Ġ3 00
ĠN ode
e ch
key word
Ġeffic iency
Ser ies
Ġus age
Ġde t
CONF IG
Ġ{} '.
k o
Ġf ederal
Ġalle ged
ict ure
ateg orical
Ġho pe
m c
Ġsc atter
E P
ĠE vent
Ġ$ {
pre ad
Ġout comes
__ ":
Ġcontrol led
ir ror
pack ages
Ġl abor
voc ab
Ċĉĉĉĉ ĉ
I A
Ġw ild
im ent
vo ke
n y
Ġdiv ision
Ġcount s
Pro v
Ġv es
Ġd uplic
ill ing
Ġc sv
is o
Ġlog in
Ġar ter
o ught
construct or
h ort
Ġcre ating
itution al
Pro file
Ġsignal ing
Cl ick
cl uding
ĊĠĠĠĠĠĠĠĠĠĠĠĠĠĠĠĠĠĠĠĠĠĠĠĠĠĠĠĠĠĠĠĠĠĠĠĠĠĠĠĠĠĠĠĠĠĠĠĠĠĠĠĠĠĠĠĠĠĠĠĠĠĠĠĠĠĠĠĠĠĠĠĠĠĠĠĠĠĠĠĠĠ Ġ
Ġass uming
D D
bre ak
ĠOb ject
ident ifier
ĠH ow
00 8
Ġre pro
P ass
Fore ignKey
or ation
er ies
Ġpre par
Ġf ake
Ġcar bon
Ġe mer
> '
ue ue
"} ),
sh ared
il ities
Ċ ĊĊĠĠĠĠĠĠĠ
Ġeas y
ro om
T F
S im
E CT
Ġpack ages
neg ative
Ġgal ax
ĠT ex
Ġv m
ut ive
ĠF IT
12 34
ir s
L D
Ġadd ing
st im
Ġco s
\] ).
} |
Ġ ĠĠĠĠĠĠĠĠĠĠĠĠĠĠĠĠĠĠĠĠĠĠĠĠĠĠĠĠĠĠĠĠĠĠĠĠĠĠĊĠ
IG N
Cont roller
Ġm RNA
Ġc ort
Ġi l
Ġcorrect ly
b at
Ġe q
iz ations
N ote
Ġre ply
Ġ7 5
Ġch ronic
Ġen han
ers hip
ĠT H
Ch ild
Ġas sessed
P Y
Ġt ell
Ġstatist ical
Ġsuggest s
Ġmus cle
bru ary
UL AR
medi ately
Ġ ))
Ñ ĩ
u lo
Ġsc an
W arning
ib ration
Ġexpl ain
hy dro
ic ies
an alysis
ĠR ef
Ġcon version
Ġs quare
(' %
'] ))
Ġd ut
) '
hel ial
sh a
ch unk
Ġto ok
b an
ast e
Ġsever e
Ġen h
Ġr ats
LE D
he tic
Ġre ferred
Ġsub set
Ġsim ulation
Ġbo ot
ĠP ART
Sche ma
Ġchose n
f ort
Ġc ity
m ig
Ġch unk
vent ory
Ġattemp t
T arget
Â §
Ġmin im
ĠC ell
Ġexp and
Rec ord
I X
ĠH el
an aly
b g
z on
B B
200 9
ank s
Ġpur poses
ro zen
ustr al
ca de
Ġle d
f a
ch mark
VER SION
Ġimm une
Ġprov ider
ci i
ĠI II
D C
Ġvari ation
Ġ ĠĠĠĠĠĠĠĠĠĠĠĠĠĠĠĠĠĠĠĠĠĠĠĠĠĠĠĠĠĠĠĠĠĠĠĠĠĠĠĊĠ
Ġassess ment
ener gy
ele ments
B atch
M ed
ch er
Ġcompos ite
ur a
p hen
return s
âĸ Ī
ĠD eter
ĠSer ies
pl ies
look up
Ġ5 5
ĠP a
A fter
č ĊĠĠĠĠĠĠĠĠĠĠĠĠĠĠĠĠĠĠĠĠĠĠĠ
Test s
ĠG en
** (
01 0
() ):
Ġdefault s
T ab
Ġp or
ann ed
Ġal one
ĠÐ ½
PO SE
ĠE N
b box
Ġg ain
el if
Pro ject
Ġvari ety
G T
E mp
Ġcy to
L P
Ob j
Ġpro g
min imal
B l
ĠM ake
Ch annel
ĠPro ject
V ol
Ġre tain
Ġw ire
ĠJud ge
Ġaw ay
Ġachie ve
ĠSim ilar
ograph y
co in
Ġ{} )
ĠSe cond
co ords
Ġgo ogle
ĠJ o
M C
Ġide a
io logical
sc reen
ĠC lo
Ġdest ination
re pe
Ġpercent age
Ġpre fer
Ġpar sed
Ġcont roller
LO W
Ġ6 5
ĠRe quest
P at
Ġequ ip
' })
ĊĠĠĠĠĠĠĠĠĠĠĠĠĠĠĠĠĠĠĠĠĠĠĠĠĠĠĠĠĠĠĠĠĠĠĠĠĠĠĠĠĠĠĠĠĠĠĠĠĠĠĠĠĠĠĠĠĠĠĠĠĠĠĠĠĠĠĠĠĠĠĠĠĠĠĠĠĠĠĠĠĠĠ Ġ
IV E
r ices
F irst
Ġv oc
ĠNo vember
Ġsh util
Ġreport s
ĠL ine
Ġf amil
Ġow ner
aus sian
En v
Ġeff ort
ur ations
Ġin her
d st
iv il
Ġex clude
Ġbu cket
Ġv itro
Ġpoly mer
T op
r as
] -
gramm ing
Ġsm allest
V ICE
late st
me asure
Ġinst ant
sort ed
g on
Ġ ĠĠĠĠĠĠĠĠĠĠĠĠĠĠĠĠĠĠĠĠĠĠĠĠĠĠĠĠĠĠĠĠĠĠĠĠĠĠĠĠĊĠ
12 5
tern ational
D ocument
sl ug
ĠN orth
xy gen
pt s
ĠC ent
Ġst rain
Ġpredict ions
è ¿
ĠM ax
un iform
Ġcomple tely
() ]
back ground
Ġflu ores
Ġtri als
ĠC T
ro ke
call s
Ġsuccess fully
scal ar
Ġcheck s
Ġantib ody
Ġf p
om an
ape ut
Ġv ac
Ġsa mpling
Ġp p
Ġ' ')
len e
C ustom
A F
sh are
or a
ri er
ĠM ark
[ [
ul f
Ġh um
m en
Â Ģ
cre te
Ġe igen
abet es
u ation
Ġdepend encies
/ ',
r is
in tegr
Ġm oun
m L
reg ular
Ġexact ly
const ants
ho use
H A
Ġcon clusion
Ġd rugs
s parse
Line ar
Ġear lier
Ad min
Ġbox es
por ation
Ġt s
Ġc ategories
Ġc redentials
ĠD et
00 000
Ġsuccess ful
ĠR ep
j pg
in teger
ition ally
fl u
:` ~
se p
in der
Ġi o
k ip
Ġexerc ise
Ġessent ial
Ġto x
Ġmaint ain
Ġ ĠĠĠĠĠĠĠĠĠĠĠĠĠĠĠĠĠĠĠĠĠĠĠĠĠĠĠĠĠĠĠĠĠĠĠĠĠĠĠĠĠĊĠ
Ġident ifier
: .
Ġleg al
assert In
ĠS QL
ĠÐ ²
ad ded
Ġt or
Ġ4 7
Ġdepend ing
Ġpre val
Ġattr s
sh ould
ome tric
er v
by te
Ġ _{
200 8
cont roller
}) \
Ġprep ared
Ġsu itable
N s
ĠM ER
D NA
Ġset Up
Ġcell ular
v ir
.. .,
Inter face
d p
Ġ200 4
U ID
Par ameters
Ġfem ale
AN G
') ;
ends with
ident ity
c ross
l on
t od
est im
on ical
ar a
r ig
R S
ç Ķ
ĠN etwork
fra mes
Ġrepe ated
i en
Ġrun s
Ġe mission
us age
w allet
Ġm ixed
se lection
Ġmed ian
vari ance
Ġse cret
is sion
ĠH IV
Id ent
ĠW ar
g ical
en ed
j ud
e es
fon ts
Ġgran ted
Ġjuris diction
Ġ4 00
ĠP UR
Ġlo st
Ġsitu ation
`` ,
Ġper f
Ġg ap
Ðµ Ð½
up dated
st ud
Ġmolec ules
Ġmin or
================================ ================================
ai red
str ategy
Ġe con
app ed
Ġv ary
ĠD av
Ä ģ
Ġ ĠĠĠĠĠĠĠĠĠĠĠĠĠĠĠĠĠĠĠĠĠĠĠĠĠĠĠĠĠĠĠĠĠĠĠĠĠĠĠĠĠĠĊĠ
equ iv
Ġcomp et
A Y
Ġbre ast
Ġopt imal
Ġget ting
con tact
Ġf lex
Ġro ll
Ġb order
in itions
Ġ4 3
Ġv as
ĠCom mand
Ġso ft
Bo olean
Ġl atter
Ġd omin
se gment
Ġ20 20
D IS
ĠA M
Ġre ader
Ġstr ict
to ur
host name
part ition
Ġad opt
ĠM ock
ĠD ate
ĊĠĠĠĠĠĠĠĠĠĠĠĠĠĠĠĠĠĠĠĠĠĠĠĠĠĠĠĠĠĠĠĠĠĠĠĠĠĠĠĠĠĠĠĠĠĠĠĠĠĠĠĠĠĠĠĠĠĠĠĠĠĠĠĠĠĠĠĠĠĠĠĠĠĠĠĠĠĠĠĠĠĠĠ Ġ
ĠSt at
reg istry
M ain
Ġcho ose
Ġ" )
Ġlim its
Ġp ages
Ġw rt
abs path
Ġs ig
ĠI ll
Ġtest ified
Ġco verage
f ric
e lect
Ġh olds
Ġmo ved
ĠKey Error
appro x
P ost
& =
Ġ4 1
duct or
ĠH ence
R ep
us cript
Ġin tr
Ġachie ved
drop out
Ġth ought
Ġ å
ĠP ost
Ġorder ed
Ġ }}
G P
Ġdetermin ation
ĠâĢ Ķ
Ġpro lifer
ĠExample s
A uth
Date Time
Ġcomp ri
Ġdirect ed
Ġapp arent
ater n
ist ed
lib rary
name d
Ġin du
h r
activ ation
le ge
ĠS m
u z
env ironment
Ġ5 6
ĠE l
- (
Loc ation
Ġth ing
H ost
Ġm ix
Ġ: ,
\* \*
** *
ĠW hether
Ġtop ic
M any
gre en
N ormal
read er
č ĊĠĠĠĠĠ
WAR E
ĠF our
ĠDef endant
at tach
] }
Ġwar ran
Ġc amera
bu ilder
script s
par allel
Ġdynam ics
Ġinter vention
Ġ ĠĠĠĠĠĠĠĠĠĠĠĠĠĠĠĠĠĠĠĠĠĠĠĠĠĠĠĠĠĠĠĠĠĠĠĠĠĠĠĠĠĠĠĊĠ
ĠS ign
iss ue
er ate
Ġreg ulation
CH ANT
ä º
Ġvers us
Ġtiss ues
Ġre plic
Ġex change
Ġenter ed
Ġcircum stances
ĠPUR POSE
Ġsk in
Ġl ung
Ġhe nce
orig in
Ġve ctors
15 0
Ġlet ter
Ġh ref
Ġvers ions
Ġa mb
V is
ĠM O
ct ed
}\ ,
wide hat
Ġcandid ate
ĠS ur
Ġim mediately
Ġt ub
or se
Ġd ark
col lect
S tyle
Ġstud ents
ĠPART IC
Â ¸
Ġn d
up les
Ġignore d
c n
40 4
IT E
Ġep isode
ĠN S
L ib
AR Y
Ġwork er
> `
Ġimpl ies
V ID
Ġmort ality
BA SE
ĠO per
11 11
Ġst ock
CHANT ABILITY
Ac count
de tail
i ac
Ġpl aces
ĠWh ich
ĠAtt ribute
Ġ* ,
Lo ad
Ġvari ant
Ġar rays
trans port
Ġint ended
/ "
Ġdepend ent
R T
re verse
Ġal gebra
Ġjud ge
ĠFe bruary
Ġas ked
ĠPARTIC ULAR
Ġp an
Ġsl ice
ãĢ Ĥ
Ġ ĠĠĠĠĠĠĠĠĠĠĠĠĠĠĠĠĠĠĠĠĠĠĠĠĠĠĠĠĠĠĠĠĠĠĠĠĠĠĠĠĠĠĠĠĊĠ
oun ts
Ġde al
ar an
M enu
Ġac ute
ĠT wo
A v
Lo ader
ĠV ariable
Ġt m
os ity
[ (
ĠD B
Ġcheck point
Ġcon j
Ġmo ving
Ġcoe fficients
ar ded
H ere
d types
pro gram
example s
radi us
OR S
w ave
en ate
ul ty
trans pose
200 7
]^ .
scrib e
Ġ& &
p ace
N orm
ĠP CR
other apy
ak ing
ot ing
mod ified
Ġdef ic
Ġcall able
ph ys
C or
ĠWe b
ĊĠĠĠĠĠĠĠĠĠĠĠĠĠĠĠĠĠĠĠĠĠĠĠĠĠĠĠĠĠĠĠĠĠĠĠĠĠĠĠĠĠĠĠĠĠĠĠĠĠĠĠĠĠĠĠĠĠĠĠĠĠĠĠĠĠĠĠĠĠĠĠĠĠĠĠĠĠĠĠĠĠĠĠĠ Ġ
oc hem
us ic
RE AD
O B
Ġup load
V ector
Ġp H
Ġload ing
F N
Py thon
ĠF IG
pos itions
ĠWindow s
em on
sc hed
ĠÎ ²
y ond
Ġcorrespon ds
Ġv ivo
Ġneur ons
Ġman uscript
D ES
de serialize
ass ign
Ġ200 3
ĠU N
it o
cont ents
od ds
P si
Ġd il
G rid
Ġde tail
i lo
æ ĸ
Ġpay ment
Ġtrans formation
ac ent
n m
ĠRes ponse
Ġ/ >
Ġdata sets
per m
Ġmention ed
Ġg ro
om al
s at
Ġcoup ling
pect ive
Ġdec imal
Ġ ĠĠĠĠĠĠĠĠĠĠĠĠĠĠĠĠĠĠĠĠĠĠĠĠĠĠĠĠĠĠĠĠĠĠĠĠĠĠĠĠĠĠĠĠĠĊĠ
Ġex pon
ĠS um
s ame
H ttp
Ġn m
orn ia
Ġrespon sible
bal ance
dis able
Ġpro to
Ċ Č
Ġ4 9
Ġd st
Ġlist s
Ġ1 01
work ers
pl ugins
Î ³
Ġadmin istration
T otal
c ases
: ,
Ġplaintiff s
* ^
f amily
ul us
set ting
Ġ7 2
is p
Ġobject ive
Ġmus ic
Ġdocument s
Î »
Ġat om
connect ed
Ġ4 6
scri ptions
Ġproced ures
iffer ent
Ġdifferent ial
D ATE
ĠSup reme
rand n
de ep
E ng
job s
sign ature
Ġsup ply
Ġ ------------------------
Ġ5 1
Ġpop ulations
Ph ys
rel ation
bot tom
U til
Ġl ig
ĠFIT NESS
================ ====
itect ure
ĠCh ina
y a
as set
wh ile
ser vation
ock et
st andard
Ġbio logical
Ġconstraint s
b ed
ss y
sequ ently
ĠM a
Ġpro xy
cell s
end ar
Ġlo t
ĠLem ma
support ed
ph ere
att ention
% .
ig uous
Str uct
Ġocc up
Ġradi ation
Oper ation
Ġanal og
Ġe m
Ġinvol ve
Ġv acc
ex ternal
f ailed
Ġ1 50
F IL
Ġassemb ly
Ġnormal ized
Ġthere by
L U
E G
Ġmark ed
Ġ ĠĠĠĠĠĠĠĠĠĠĠĠĠĠĠĠĠĠĠĠĠĠĠĠĠĠĠĠĠĠĠĠĠĠĠĠĠĠĠĠĠĠĠĠĠĠĊĠ
U se
Ġpl us
b c
Ġinvestig ate
Ġgre en
cal c
h ass
Ä į
ĠR untimeError
Ġfail s
Ġg t
~~~~ ~~~~
n i
ĠB oth
Ġst em
00 9
ag en
RE G
MA IN
re v
Ste p
Ġcol ors
ane se
: ")
ĠM ich
Ġappro aches
re p
Ġg it
Ġcalc ulation
g ather
ER S
Ġto ler
W rite
S he
Ġpri v
Ġtr ust
Ġspect ra
P P
Ġ## #
Re ference
Ġcont ribution
K e
Ġemploy ed
D M
Ġcharacter ized
W idth
IM IT
ĠG ive
ĠL ib
Ġconver ted
Wh ich
ĠA nt
Ġcl usters
un ks
ys ql
Ġre ached
ĊĠĠĠĠĠĠĠĠĠĠĠĠĠĠĠĠĠĠĠĠĠĠĠĠĠĠĠĠĠĠĠĠĠĠĠĠĠĠĠĠĠĠĠĠĠĠĠĠĠĠĠĠĠĠĠĠĠĠĠĠĠĠĠĠĠĠĠĠĠĠĠĠĠĠĠĠĠĠĠĠĠĠĠĠĠ Ġ
Ġâ ī
Ġde leted
Ġover ride
Ġre p
Ġs ound
Ġass umed
man y
Ġchallen ge
log its
ur er
Ġexpan sion
Ġel im
Ġdeli very
Ġexpl ained
Ġ\ >
Ġs izes
A g
Ġp ow
200 6
Ġsp aces
Ġtrans l
> "
Ġdisplay ed
ri ed
I pv
Ġint ent
Ġproces sed
Ġpol ynomial
ol ver
Ġgl ucose
A UTH
ro duction
Ġoper ating
is l
L a
ĠQu ant
Ġd ot
Ġcar ry
cop ic
Ġan imal
Ġinhib ition
ro g
Trans form
l st
default s
Ġcall ing
Ġse mic
Des cription
XX XX
ĠMER CHANTABILITY
Ġfo o
mark er
co ordin
Ġresult ed
Ã§ Ã£o
Ġ ĠĊ
Ġbo olean
ç »
Ġwrit er
Ġg ate
Ġ ĠĠĠĠĠĠĠĠĠĠĠĠĠĠĠĠĠĠĠĠĠĠĠĠĠĠĠĠĠĠĠĠĠĠĠĠĠĠĠĠĠĠĠĠĠĠĠĊĠ
Ġbal ance
---------------------------------------------------------------- ----------------------------------------------------------------
Ġb on
GG ER
Ġme sh
Ġtra d
Ġres erved
\] ),
il led
Ġcon sole
if ornia
ft ime
eli hood
ĠC re
Ġasync io
Ġstr ateg
ues s
w n
Ġmark ers
Ġexp ert
H o
F E
Ġ200 1
c red
ed s
St at
Ġvert ical
ĠO N
Ġh ass
clus ive
v in
S Y
Ġa udio
anc ial
fl atten
Ġ5 2
De lete
Ġrece iving
part ner
ĠG ra
Ġ200 2
ĠS to
ĊĠĠĠĠĠĠĠĠ ĊĠĠĠ
Ġther mal
Ġde grees
Ġde tailed
U rl
file path
Ġman ifest
ĠE nd
Ġsur vey
Ġcopy right
ĠA L
Ġlist ed
ap pe
Ġo xygen
t le
h ow
clus ions
ĠP R
rand int
Ġbe yond
init ializer
Ġantib odies
V M
Ġ' {}
Ġre cording
ĠH ar
u a
b or
Ġ ĠÂł
) |
Ġl aser
iven ess
he mat
Ġcoe fficient
DE BUG
dir s
ĠR O
Ġd ys
Ġco mes
Fe ature
Ġrequire ment
Ġto wards
Ġdec ay
b et
ier arch
ate st
dist ribute
apeut ic
Ġextract ed
Ġ ĠĠÂł
ce ived
che my
Un it
Ġexper i
Ġ ĠĠĠĠĠĠĠĠĠĠĠĠĠĠĠĠĠĠĠĠĠĠĠĠĠĠĠĠĠĠĠĠĠĠĠĠĠĠĠĠĠĠĠĠĠĠĠĠĊĠ
Ġthrough out
Ġreco very
Ġor al
p ixel
Ġenh ance
Ġexist ence
recor ds
J SON
cert ain
Ġmin imal
Ġ ubuntu
Ġlook ing
Ġ5 4
Ġelect ric
co hol
J ECT
ĠUn der
Ġintegr ation
Ġoper ators
qu ote
document class
Ġp a
ient ific
Ġamin o
d irection
Ġde serialized
Ġst ability
w x
_ %
Ġ' #
Ġorgan ization
Ġtyp ical
Ġsup ra
ĠN A
table s
f mt
co ver
Ġimport ance
Ġprof ession
port ed
Ġd ro
Ġde part
+ "
Ġelect ronic
Ġcount ries
de coder
AA AA
R et
Ġbu f
Ġident ification
Ġb ind
Ch ange
ex pect
pl ier
ĠV ol
Ġ_ ('
cus sion
ĉĉ ĉ
r at
w t
de vices
sche dule
Ġ9 9
Ġex cess
Ġcomp ound
fl at
ra se
ver sed
å ¤
Ġa de
ĊĠĠĠĠĠĠĠĠĠĠĠĠĠĠĠĠĠĠĠĠĠĠĠĠĠĠĠĠĠĠĠĠĠĠĠĠĠĠĠĠĠĠĠĠĠĠĠĠĠĠĠĠĠĠĠĠĠĠĠĠĠĠĠĠĠĠĠĠĠĠĠĠĠĠĠĠĠĠĠĠĠĠĠĠĠĠ Ġ
e lem
Ġle ave
Ġre v
Ġol der
Ġatta ched
ĠP res
se g
Ġres on
ĠA ustral
Ġcomp ens
Contain er
Ġrel ief
unic ode
Ent ity
Ġtable s
te am
Ġt end
ĠJ ust
Ġdemonstr ate
l iter
Ġapo pt
A pi
ĠD uring
-------------------------------- --------
Ġqu ite
Ġver tex
C B
Ġact s
**************** ****************
Ġdi et
Ġ\ {
18 0
tre ated
ang er
Ġw a
Mult i
Ġmove ment
Ġ> >
du cer
gree k
Ġloc ations
iv ar
script or
Ġb ounds
t ar
Ġeduc ation
all close
Ġ ĠĠĠĠĠĠĠĠĠĠĠĠĠĠĠĠĠĠĠĠĠĠĠĠĠĠĠĠĠĠĠĠĠĠĠĠĠĠĠĠĠĠĠĠĠĠĠĠĠĊĠ
T uple
m ass
Ġgran t
ĠM od
T emp
Ġ1 23
On ly
ĠQt Widgets
Ex ample
k it
Ġde comp
(" -
Ap pe
d al
ul atory
Ġpick le
Ġsol ve
ry ption
Ġ\ *
W E
Ġmain ly
Ġcat aly
: '
Ġis n
co mpl
Ġsus p
Ġt un
Ġs parse
Ġin jection
A uthor
P osition
################################################################ ########
embed ding
ĠImport Error
HO ST
ĠF ind
}{ -
Ġclose st
R andom
el f
O pt
L ocal
ĠE nt
200 1
Ġcorrespon d
: "
ĠB rit
ĠWARRAN TY
Ġcomm erc
ĠF ra
ing ton
Ġme m
Ġw arning
čĊ čĊ
Ġvari ance
Ġsaf ety
Ġent itled
ans wer
Ñģ ÑĤ
St orage
Ġtrans lation
H R
Pro duct
Ġf a
' ^
(' _
quest ion
base name
Ġ ---
Ġp in
__ .__
cl aim
i Ã³n
pp ing
l as
set length
de termin
ĠW HERE
Ġstra ins
c pp
w hen
ĠM eta
å ®
et o
ĠE mp
Ġst derr
Ġs lot
request s
Ð ¼
dis patch
ĠC enter
b erg
ä ½
Ġ ĠĠĠĠĠĠĠĠĠĠĠĠĠĠĠĠĠĠĠĠĠĠĠĠĠĠĠĠĠĠĠĠĠĠĠĠĠĠĠĠĠĠĠĠĠĠĠĠĠĠĊĠ
c rib
Ġcur ves
Ġg amma
ru it
Ġstate ments
ĠM essage
ab ric
app s
ĠP lease
Ġre gex
Ġ" '
Ġ9 6
] [@
Ġfoot ball
ĠAr gument
Ġd u
Ġinter act
Ġstrong ly
Ġtra de
Ġden ote
Ġd aily
l arge
Ġre try
ri a
prec ision
ĠâĢ ĺ
sp aces
Ġcoordin ate
ys ym
ĠO f
ams math
t p
al ty
Ġsuff ix
o ma
G en
Ġar m
en ance
Ġat oms
Bu ffer
we ek
Ġcomp act
Ġprote ction
ĠN on
er ior
Ġab und
Ġsy nd
roll ing
s r
it a
Ġqu ick
Ġhealth y
Ġ5 9
pos al
Ġprop ag
- +
Ġrepl aced
Ġrecomm end
Ġext reme
b sy
Ġadmin istr
ssy mb
rs fs
AT TR
math rsfs
Ġind ent
math sf
a udio
[ ]
am ssymb
Ġlink ed
h ere
Ġas k
s id
Clo se
Å ¾
ta ges
Ġconc ern
q quad
Ġstat istics
chron ous
200 5
Ġ icon
ams fonts
Ġvis ible
Ġspect ral
Ġf air
ĠD ocument
Ġ ĠĊĠĠĠ
Ġsuggest ing
Ġsh a
25 0
Ġnucle ar
Ġs om
ams bsy
C G
Ġ ÏĦ
: ",
Ġ ĠĠĠĠĠĠĠĠĠĠĠĠĠĠĠĠĠĠĠĠĠĠĠĠĠĠĠĠĠĠĠĠĠĠĠĠĠĠĠĠĠĠĠĠĠĠĠĠĠĠĠĊĠ
on ia
B M
F ind
in ux
Ġbenef it
up greek
Ġdiv is
ug ment
was ysym
ult aneous
Ġcom ments
Ġposs ibility
ach ing
Ġ& \
Ġ25 6
h ar
Ġsign ed
ide margin
Col lection
Ġo sc
ĠN or
ac le
odds idemargin
str ings
19 2
Ġoffic ial
A V
evalu ate
w rapper
Ġappro ved
cur acy
Ġst ars
tr igger
ĠComp any
Ġur llib
ĠA fric
Ġstruct ural
C IT
Ġm iddle
ong o
| |
Ġb ug
et c
Ġhypot hesis
Ġbenef its
s izes
r h
ĊĠĠĠĠĠĠĠĠĠĠĠĠĠĠĠĠĠĠĠĠĠĠĠĠĠĠĠĠĠĠĠĠĠĠĠĠĠĠĠĠĠĠĠĠĠĠĠĠĠĠĠĠĠĠĠĠĠĠĠĠĠĠĠĠĠĠĠĠĠĠĠĠĠĠĠĠĠĠĠĠĠĠĠĠĠĠĠ Ġ
Ġ: )
/ *
Sup plementary
O ption
Ġu id
ĠAr ray
ra pped
ĠOut put
Ġac cord
ne q
velop ment
per missions
ĠSci ence
ĠB ank
Ġd ual
ĠM S
ĠBu ild
Ġon line
Ġco gn
y y
} ",
no ise
set Text
un known
le ts
hel lo
A SE
ut c
Ġlog ic
D P
r ine
Ġget s
RE QU
ren ch
o gram
ĠC OP
ĠD irect
Type Error
ck now
Ġc types
ĠIn ternational
tri al
Ġde cor
en g
') [
Ġaccept ed
Ġm and
bu ilt
Ġle arn
epoch s
Ġdef ense
}} }}
ĠEng lish
P lease
as cii
c are
Ġ ĠĠĠĠĠĠĠĠĠĠĠĠĠĠĠĠĠĠĠĠĠĠĠĠĠĠĠĠĠĠĠĠĠĠĠĠĠĠĠĠĠĠĠĠĠĠĠĠĠĠĠĠĊĠ
LO CK
Ġatt orney
cl one
Ġde mand
lic ense
coun try
N ow
cache d
Ġmut ations
DE F
Ġsynt hesis
Ġop port
io logy
è ¡
f r
Ġfil ms
0 33
Ġthick ness
Ġmoment um
Ġqu ad
ok ed
ĠRe ad
Ġslight ly
de cl
sw itch
l m
Ġnumer ical
f ire
} +\
ex clude
Ġinterpret ation
im m
b ro
Ġep it
C N
Ġfe e
Ġcommon ly
b orn
Ġarg ues
Ġdiscus sion
Ġvis it
ak es
Ġmode s
Ġtech nology
Ġ ĠĠĠÂł
ĠCal ifornia
M emb
Ġac celer
te ms
Ġt run
Ġadd r
Ġ æ
bt n
le arning
Ġinter mediate
ag o
n ed
Ġident ical
! ")
P CR
add Widget
Ġinter pol
amp a
Ġclo ud
Ġdist ingu
Ġh a
ref resh
gorith ms
0 20
C ache
_ )
och ond
s napshot
ed Dict
Ġre pository
co gn
Ġconf idence
Ġcre ation
Ġl if
c ers
Ġcryst al
g ateway
ĠC ustom
C ho
Sto re
Ġsum mar
S l
Ġper mit
pl ant
re try
Ġ ĠĠĠĠĠĠĠĠĠĠĠĠĠĠĠĠĠĠĠĠĠĠĠĠĠĠĠĠĠĠĠĠĠĠĠĠĠĠĠĠĠĠĠĠĠĠĠĠĠĠĠĠĠĊĠ
i res
') ])
Ġc ere
Ġb box
Ġparent s
Ġdi abetes
Ġ5 3
S ome
molec ules
' +
}^{ (
5 12
Ġpur su
Ġbelie ve
Ġs on
Met adata
amil ton
Ġlymp h
ag ger
g ui
Ġ' )
S ample
Ġsepar ated
ver ter
part icle
IP T
Ġenco der
Ġcon sent
Ġremo val
with out
Ġ---------------------------------------------------------------- --------
r g
co ord
ĊĠĠĠĠĠĠĠĠĠĠĠĠĠĠĠĠĠĠĠĠĠĠĠĠĠĠĠĠĠĠĠĠĠĠĠĠĠĠĠĠĠĠĠĠĠĠĠĠĠĠĠĠĠĠĠĠĠĠĠĠĠĠĠĠĠĠĠĠĠĠĠĠĠĠĠĠĠĠĠĠĠĠĠĠĠĠĠĠ Ġ
inst ances
Ġp s
d ash
Ġadvan tage
min us
ĠSt art
Ġpath ways
f ac
Ġsens itive
Col lect
Ġpl ants
ant ic
Ġco hort
âķ Ĳ
ĠL I
ĠN ULL
Ġres idual
OR Y
Val ues
Ġestim ates
ollow ing
ĠSe quence
Ġex posed
Ġmo v
Ġpre pare
Ġpreval ence
Ġ( %
: ',
op ath
sub mit
Ġn ational
Ġdiscre tion
= ',
Ġme as
Ġs pl
she ll
r untime
Comp onent
Ġbegin ning
Ġmicro s
ĠCon s
g z
i at
sub plot
ing ly
Ġshe et
Ġconstruct ed
Ġv ict
Ġser ved
)) ;
Â º
iv ari
th m
CO MP
w atch
Ġbur den
N ext
Ġb g
10 5
back up
p ages
v id
config ure
Ġembed ding
Ġade qu
Ġ ĠĠĠĠĠĠĠĠĠĠĠĠĠĠĠĠĠĠĠĠĠĠĠĠĠĠĠĠĠĠĠĠĠĠĠĠĠĠĠĠĠĠĠĠĠĠĠĠĠĠĠĠĠĠĊĠ
c ancel
lo ating
Re gex
ĠI ter
pay ment
: -
Ġproport ion
II I
fix ed
m ount
local host
T ool
Ġwindow s
L Y
Ġpre gn
Ġp ure
f ord
ĠInst itute
w hat
ĠA ut
Ex pected
UN T
) }{
Ġh orizontal
Ġquant ity
il ib
M atch
FT WARE
ĠG iven
Ġ" {}
Ġvert ices
Ġwork ers
3 60
Ġob vious
TR A
ĠS H
b p
resource Group
st able
Ġdi ameter
Ġimprove ment
ĠP ort
S w
cre tion
stra p
Ġin structions
cho ices
Ġviol ation
Ġ19 99
Ġ$ (\
}} ^{
mon itor
ĠL aw
200 4
~ ,
T itle
} ;
Ġ: ]
RO OT
f ol
Ġthe ore
ĠGo ogle
] $
ĠCom m
an ol
ĠP D
Si mple
Ġinc idence
data sets
ĠAp plication
Ġ ĠĠĠĠĠĠĠĠĠĠĠĠĠĠĠĠĠĠĠĠĠĠĠĠĠĠĠĠĠĠĠĠĠĠĠĠĠĠĠĠĠĠĠĠĠĠĠĠĠĠĠĠĠĠĠĊĠ
Ġda mages
chang es
ch a
Ġtum ors
Ġany one
} ',
Ġor ders
Chang ed
Ġinvol ving
N ET
ce eded
ĠT R
h om
Ġ5 7
ĠAppe llant
ĠÂ µ
process or
Ġp al
log ies
'] ]
LI ST
ĠD iv
Ġcons ists
Ġ ĠĠĠĠÂł
Ġexplicit ly
ss h
Ġd ump
01 5
Ġpro grams
Ġex cluded
Ġdist ributions
ĠK ing
Ġperson s
gen e
Ġarbit rary
' $
Ġf req
por ter
Â ¼
16 8
ĠA ir
f requency
im ing
, ))
ĠPro v
Ġdo ub
att le
ca pt
road cast
Ġplay ed
f un
Ġatta ck
Ġop pos
ĠI V
ĊĠĠĠĠĠĠĠĠĠĠĠĠĠĠĠĠĠĠĠĠĠĠĠĠĠĠĠĠĠĠĠĠĠĠĠĠĠĠĠĠĠĠĠĠĠĠĠĠĠĠĠĠĠĠĠĠĠĠĠĠĠĠĠĠĠĠĠĠĠĠĠĠĠĠĠĠĠĠĠĠĠĠĠĠĠĠĠĠĠ Ġ
Ġexception s
ur ance
Ġenzy me
ĠP A
CO MM
Ġst aff
Ġcl ip
c am
Ġopen ing
Ġenhan ced
ify ing
Ġmill ion
Ġh it
R ad
ĠPro cess
Ġdetermin ing
mb ed
ir al
ic ular
Ġro ut
C le
prote in
Ġfac ilit
Ġk eras
clo sed
Ġ 00
A meric
ĠR et
Ġd ire
tri es
Ġsh if
Ġre ferences
T rain
end ment
Ġho ok
mo us
Ġsup plement
Q ueue
co very
ĠE V
b ian
Ġup dates
ĠP ark
Ġsemic on
Sh ape
Ġy es
Ġar rest
Ġsc ipy
Ġdisco very
t an
Ġu uid
i us
Ġ ĠĠĠĠĠĠĠĠĠĠĠĠĠĠĠĠĠĠĠĠĠĠĠĠĠĠĠĠĠĠĠĠĠĠĠĠĠĠĠĠĠĠĠĠĠĠĠĠĠĠĠĠĠĠĠĠĊĠ
Ġox id
Ġbir th
li k
am ental
ag raph
ne ighb
Ġn ative
vis ible
C ar
Ġl attice
P tr
ĠT ask
Ġmagn itude
Ġj a
fe at
e ction
g al
Ġfra gment
OR E
str y
ĠD el
ĠA ff
a verage
Mat rix
Ġ1 80
t l
Ġenco ded
Ġra re
Ġcor related
Ġexam ination
ĠCont rol
Ð ´
Ġo il
Hel per
Ġ- \
N C
ogene ous
( ""
: ])
Ġlate st
I AL
O M
ĠI g
t n
act ual
Ġ ĊĠĠ
Ġs in
}^ \
Valid ator
ri f
Ġcharacter istic
d ense
re ams
WOR D
Ġdomain s
Rout e
Window s
| -
se par
Ġco ol
Ġme et
vas cular
Ġpick ing
O H
sequ ences
s quare
con tract
Ġfra mes
Ġdis p
mit ive
v ated
Ġsu ffer
r in
R IGHT
Â »
Ġcharg ed
b untu
Ġcol on
ian a
ĠF L
Ġcont ribut
Ġmut ation
Par se
v ial
i ary
Ġelectro de
ach ine
Ġprolifer ation
Ġmig ration
gn u
Ġ5 8
Ġh ot
ag greg
ĠL anguage
Ġen um
ist or
}} )
Ġinvestig ation
Ġ ĠĠĠĠĠĠĠĠĠĠĠĠĠĠĠĠĠĠĠĠĠĠĠĠĠĠĠĠĠĠĠĠĠĠĠĠĠĠĠĠĠĠĠĠĠĠĠĠĠĠĠĠĠĠĠĠĠĊĠ
ic Mock
Ġ ĠĊĠĠĠĠĠĠĠ
q ty
Con d
Ġre store
Ġiss ued
Ġme th
Ġmat rices
1 12
ĠCON F
Ġre con
Ġsur gical
ĠS P
Ġves sel
Ġm M
Ġt ro
Ġmi R
I Z
. ^[@
pro j
ĠP oint
Ġcur r
rel ative
R o
amb er
O F
Ġauthor ity
Ġpro files
ĠB ra
Ġcode s
ri ver
Bu ilder
Ġcapt ure
Ġro les
h ard
Ġcomput ation
å Ń
Ġinterest s
memb ers
d ummy
Ġsignific ance
VAL ID
Ġmonitor ing
è ®
ĊĠĠĠĠĠĠĠĠĠĠĠĠĠĠĠĠĠĠĠĠĠĠĠĠĠĠĠĠĠĠĠĠĠĠĠĠĠĠĠĠĠĠĠĠĠĠĠĠĠĠĠĠĠĠĠĠĠĠĠĠĠĠĠĠĠĠĠĠĠĠĠĠĠĠĠĠĠĠĠĠĠĠĠĠĠĠĠĠĠĠ Ġ
ff ff
Ġext end
r aries
Ġdig ital
Ġsim ultaneous
CR IPT
ĠG raph
place ment
p an
b old
b inding
R ole
ĠDeter mine
Ġman ual
Ġampl itude
ĠO P
ĠHttp Response
t or
R est
Ġfin ished
Ġsim ulations
Ġd ry
) ')
ĠM ot
ass oci
In st
par s
fe e
atter ns
H S
ĠB ack
iv ation
Ġ1 10
te mplates
Ġdev iation
arch ive
un ter
ĠK e
ĠEurope an
Ġac ids
ic ate
} ),
ma chine
A x
exist ing
c nt
Ġ ĠĠĠĠĠÂł
g ly
Â µ
Ġinit ialize
Ġcert ificate
Ġcop ies
trans fer
Ġ ĠĠĠĠĠĠĠĠĠĠĠĠĠĠĠĠĠĠĠĠĠĠĠĠĠĠĠĠĠĠĠĠĠĠĠĠĠĠĠĠĠĠĠĠĠĠĠĠĠĠĠĠĠĠĠĠĠĠĊĠ
ĠG over
Ġl r
u ge
Ġgra v
n or
in y
al ert
F ont
is file
ex e
gen ic
Pro perties
Î ¯
h av
v c
m icro
Ġintegr ated
pro cessed
Prov ider
FI X
Ġther apeutic
ĠD i
ĠL i
Ġc c
re present
ke le
allow ed
200 3
Ġm obile
S a
Ġosc ill
Ġclass ical
ick s
P o
à ¸
ol id
ĠH er
Ġin verse
wh ite
Ġb its
Ġpre tty
Ġdifferent iation
ma ps
Lo ss
Con nect
Ġs outh
ar ison
ĠMult i
str ftime
over ride
Ġ** *
q t
T wo
f ront
red irect
Ġpol ice
ĊĠĠĠĠĠĠĠĠĠĠĠĠ ĊĠĠĠĠĠĠĠĠĠĠĠ
Ġread s
a el
oci ety
Ġsym metry
ĠE ast
ĠR aises
am ing
in voice
Ġ" ")
per mission
add le
---------------------------------------------------------------- --------
Ġbe gan
Ġdo ct
atter y
Ġelect rical
Ġm or
ad ow
sub net
c il
lic es
Ġpro jection
Ġlow est
% ),
us s
å Ľ
lo pe
spec ial
Par am
ĠH y
dec ay
Ġrecogn ized
ar p
Ġover lap
, âĢĿ
sel ves
200 2
Ġc ame
Ġlo gs
r ated
Se ction
Ġ$ -
4 01
Ġal k
pair s
Ġ ĠĠĠĠĠĠĠĠĠĠĠĠĠĠĠĠĠĠĠĠĠĠĠĠĠĠĠĠĠĠĠĠĠĠĠĠĠĠĠĠĠĠĠĠĠĠĠĠĠĠĠĠĠĠĠĠĠĠĠĊĠ
Ġy oung
6 00
C oun
\ "
Ġgener ic
Un ion
Ġw ays
Ġlook up
sens itive
mult iple
ĠÃ ł
Integer Field
Ġp od
repe at
Ġevery thing
Ġp se
Ġper iph
Ġal cohol
Ġcour ts
Ġpl ural
Ġback up
Ġm l
ro te
Ġrespect ive
ĠC le
En abled
ampa ign
? ?
ut ri
S F
Ġch art
sens or
ĠÐ ¸
Ġbehavi our
d ynamic
ĠIn valid
ĠCur rent
ST ATE
Ġ ì
H owever
de g
fl ush
ĠSer ver
Ġser ve
HE AD
\ ^
Com mon
ri um
Ġphot o
Ã¶ r
Ġs igma
Ġexpl an
Ġbroad cast
"} ](
ic ian
und red
Ġdis order
Ġsu c
Ġor th
Ġal ignment
Ġt y
Ġres olve
il a
MODE L
ser ved
Ġor bit
ĠR ad
Ġman ually
Ġw rapper
FL AGS
Re als
ĊĠĠĠĠĠĠĠĠĠĠĠĠĠĠĠĠĠĠĠĠĠĠĠĠĠĠĠĠĠĠĠĠĠĠĠĠĠĠĠĠĠĠĠĠĠĠĠĠĠĠĠĠĠĠĠĠĠĠĠĠĠĠĠĠĠĠĠĠĠĠĠĠĠĠĠĠĠĠĠĠĠĠĠĠĠĠĠĠĠĠĠ Ġ
ĠM ath
Ġapply ing
fo ot
æ Ĺ
A MP
an im
ul ing
Ġal ias
ell ar
graph ic
Ġcorre ction
ixt ures
Ġpro sec
Ġpre m
leg end
Ġcon nections
Ġwarran ty
/ {}
Ġsur faces
Ġwe bsite
Ġstrateg ies
sh apes
ĠCh rist
Ġ č
w b
Name s
{ -
Ġm ixture
s ources
W rapper
ĠDE FAULT
Ġintegr al
Ġse ven
LO C
Ġk w
æ Ī
$ _
Ġfl ask
-------------------------------- ----------------
Ġe cho
p ot
Ġpotential ly
ĠB er
re view
Pack et
log ic
10 2
lin ux
) ")
ative ly
help ers
Ġ ĠĠĠĠĠĠĠĠĠĠĠĠĠĠĠĠĠĠĠĠĠĠĠĠĠĠĠĠĠĠĠĠĠĠĠĠĠĠĠĠĠĠĠĠĠĠĠĠĠĠĠĠĠĠĠĠĠĠĠĠĊĠ
ĠAdd itionally
y ears
length s
ĠR T
Ġh olding
' "
Ġar ri
H ash
Ġin vas
D T
S tack
ĠSO FTWARE
version s
Ġmechan ical
ĠA T
m ann
Ġenvironment al
Ġpixel s
s phinx
Ġx y
read only
in ical
B E
Ġins ulin
Â ½
Ġorient ation
Ġf oc
Y PE
res ize
Ġin duction
. /
sub process
Ġthe orem
de cor
t imer
run ner
Ġd y
Ġre distribute
ĠS che
con sole
P V
Ġlarge st
Ġvoc ab
Ġform al
Ġ19 98
Ġsyn c
TH ER
ĠIn deed
Ġsc enario
it uted
c rit
> =
e cho
Ġh our
b one
i pt
Ġfe el
Ġu int
Ġm argin
') ]
Ġperiod s
Ġa ud
ivari ate
r gb
Ġp ush
Ġnull able
un ities
t ile
ap ed
h our
Ġadd resses
Ġgre atest
Â ®
Ġhel per
H ead
list s
oper ations
N on
Ġiter ation
Ġis o
Ġhe x
Ġs pon
ser ializer
ĠLO G
and roid
j it
Ġpro be
Ġto ward
fra ction
ter minal
ĠO ff
Ġdevelop ing
Co mple
S cale
=' ',
ĠS ets
ino ma
Ġsup plied
Ġbu ilder
16 0
Ï ī
H C
Ġs ust
Ġsi mpl
d on
Ġst ages
ĠLo ad
Ġcon cluded
L ong
ograph ic
Ġo mitted
Ġchang ing
n av
an cer
st s
Ġsynd rome
Ġcont ribute
Ġ ĠĠĠĠĠĠĠĠĠĠĠĠĠĠĠĠĠĠĠĠĠĠĠĠĠĠĠĠĠĠĠĠĠĠĠĠĠĠĠĠĠĠĠĠĠĠĠĠĠĠĠĠĠĠĠĠĠĠĠĠĠĊĠ
Re v
a ud
material s
Ġun ion
Ġs qu
Ġhand ling
Ġenv iron
em o
Ġdis miss
uto ff
Ġl it
Ð¾Ð ²
E valu
Ġ6 3
Ġpol ym
b ul
Ġw ent
Ġmat ched
amp ion
) }$
Ġ10 24
ched uler
Ġs an
Ġp kg
") ),
Ġcalcul ations
Ġ6 6
Ġ: =
ll a
Ġm ental
ĠDefault s
Ġmit ochond
ro uter
ar ia
Ġ ĠĠĠĠĠĠÂł
pack et
Vol ume
T EXT
ĠCom mon
Ġcheck ed
ĊĠĠĠĠĠĠĠĠĠĠĠĠĠĠĠĠĠĠĠĠĠĠĠĠĠĠĠĠĠĠĠĠĠĠĠĠĠĠĠĠĠĠĠĠĠĠĠĠĠĠĠĠĠĠĠĠĠĠĠĠĠĠĠĠĠĠĠĠĠĠĠĠĠĠĠĠĠĠĠĠĠĠĠĠĠĠĠĠĠĠĠĠ Ġ
Ġadj acent
Re ader
Ġlook s
Pl ugin
b ust
K EN
Ġd as
Ġg ave
Ġprinc ipal
Do es
Ġsemicon ductor
Ġdis abled
Ġp ull
a ux
} [
Ġrespon d
Ġexec uted
y les
Ġcontinu ed
Ġre pr
Ġa z
os a
Ġd x
Ġcri minal
å Ĭ
B D
Pro tocol
Ġfact ory
ĠV iew
Un known
. -
01 7
vent ions
W R
co v
comp are
Ġbel ong
L ast
Ġa ux
Ġsome times
cy cle
ir ation
Ġal ert
Ġadvan ced
Ġ ĠĠĠĠĠĠĠĠĠĠĠĠĠĠĠĠĠĠĠĠĠĠĠĠĠĠĠĠĠĠĠĠĠĠĠĠĠĠĠĠĠĠĠĠĠĠĠĠĠĠĠĠĠĠĠĠĠĠĠĠĠĠĊĠ
Ġpath ogen
Ġhigh light
Ġy aml
ter ior
D i
is hes
Ġa ri
Ġsome one
Ġo m
Ġab normal
w ater
ip v
Ġ8 5
{ "
Ġconstruct or
Ġn ur
y er
ĠC y
Sh ow
Ã ª
}\ \
def inition
M ag
av en
T ex
ĠH and
Direct ory
Ġde sp
ĠC ong
Ġj ava
ony mous
angu ages
Ġ" #
Ġpre ferred
B ot
Â Ĥ
Ġtemp er
ĠAttribute Error
d ialog
Ġsu it
ip ient
Ġallow ing
ĠD on
Ġinterest ing
< \
âĸĪ âĸĪ
head s
v l
ĠU s
Ġ6 1
Ġal loc
ĠAppe als
Ġc lock
Ġst aining
ĠB lock
ING S
ill er
G o
inal g
Ġrestrict ion
G RO
ĠI R
host s
Ġn ic
Gener ator
math scr
Ge ometry
Ġform ing
Ġconfig ured
| ^
pe er
ĠAn alysis
Ġin struction
Ġsup press
Ġscreen ing
Ġre ducing
Ġc it
Ġdiag no
ĠD jango
Ġstatist ically
ĠAccording ly
ked irs
Ġf name
Ġinfl ammatory
. **
Ġ' "
Ġto day
R ight
ĠST AT
exec ution
^ ^
AR CH
omin ator
File s
Ġsk learn
p anel
Ġprior ity
Ġ' [
Ġth in
ge o
Ġ\ "
CO DE
w est
ĠI O
ivers al
Ġset t
Ġphen omen
10 4
ut down
Ġ$ |
Ġpert urb
Ġrecomm ended
Ġ ĠĠĠĠĠĠĠĠĠĠĠĠĠĠĠĠĠĠĠĠĠĠĠĠĠĠĠĠĠĠĠĠĠĠĠĠĠĠĠĠĠĠĠĠĠĠĠĠĠĠĠĠĠĠĠĠĠĠĠĠĠĠĠĊĠ
Ġrepe at
Ġst ay
ĠDes cription
Ġelim in
par ty
sched uler
ĊĠĠĠĠĠĠĠĠĠĠĠĠĠĠĠĠĠĠĠĠĠĠĠĠĠĠĠĠĠĠĠĠĠĠĠĠĠĠĠĠĠĠĠĠĠĠĠĠĠĠĠĠĠĠĠĠĠĠĠĠĠĠĠĠĠĠĠĠĠĠĠĠĠĠĠĠĠĠĠĠĠĠĠĠĠĠĠĠĠĠĠĠĠ Ġ
STAT US
Ġregister ed
em ory
Ġs ong
dest ination
Ġpro c
Ġt ensors
RE CT
al most
Ġpart ner
Ġin fer
Ġm ur
Ġph arma
de gree
Ġ19 97
Ġaw ard
mark s
ub er
Ġa ver
Ï Į
Ġfeed back
Ġ" +
Ġwork ed
Ġscal ing
Ġcy cl
Ġmod ification
Ġfib er
un pack
Ġdis orders
p ie
ĠWest ern
ĠRem ove
s mo
Ġrecept ors
P rint
Ġemploy ee
ĠF ore
OP T
Ġn av
CL ASS
c ategories
t b
Ġma ch
Ġdid n
pe ak
ext ensions
ĠW il
Ġaccord ance
la unch
++ ++
Ġn ested
ind ent
ment ion
pre pare
ĠGerman y
dist ribution
P M
Ġdis c
]{} ]{}
he t
č ĊĠĠĠĠĠĠĠĠ
H istory
ĠO p
f i
Ġapopt osis
Ġfrequ encies
Ġ6 8
Ġ4 04
re plic
Ġb lob
Ġapproxim ation
Ġe ight
Ġaccur ate
Ġhy brid
Ġfrequ ently
Ġb all
P lot
Ġsymbol s
Ġcard iac
ĠM ac
Ġsub mitted
in cre
> ',
Ġcap able
Ġend s
S K
Cl uster
ĠM IT
UN D
ut ory
Ġd ra
Ġser ious
al chemy
Ċ ĊĠĠ
{ (
project s
Ġob s
Ġneg lig
Ġ ĠĠĠĠĠĠĠĠĠĠĠĠĠĠĠĠĠĠĠĠĠĠĠĠĠĠĠĠĠĠĠĠĠĠĠĠĠĠĠĠĠĠĠĠĠĠĠĠĠĠĠĠĠĠĠĠĠĠĠĠĠĠĠĠĊĠ
ĠT er
âķĲ âķĲ
Ġconsider ation
Ġincub ated
Ġsche dule
01 4
Ġnormal ize
st o
Ġactiv ated
I tems
un i
}. $$
Ġdepend ence
itu des
Ġt it
an i
Ġdiagn ostic
Ġb ond
Ġtw ice
Ġhy po
Ġpul se
Ġcons umption
Ġl iving
ĠM ost
ad van
M ac
l aw
Ġ19 96
Ġfor ces
pl ane
Ġwide ly
Ġse m
thread s
aterial s
u cl
r atic
Ġro unded
X ML
ĠIn formation
HT ML
a co
ĠTex as
Ġle s
Ð° ÑĤ
lle e
Ġthread ing
Ġin come
ox y
c rypt
ĠP en
Ġmut ant
w it
In d
Ã¤ r
Ġappe ared
Ġsc ene
k m
Ġneut ral
Ġwh om
Ġin form
the me
Ġent ities
ĠAs ync
B I
io x
I mport
10 7
Ġext ensions
Ġstud ent
ÂłÂłÂłÂł ÂłÂłÂłÂł
Ã º
Ġs ch
ic ians
C ould
e ast
') ],
Ġp aid
Ġj e
//// ////
Ġle sions
Ġtrans f
ces ses
Ġ6 7
re pository
grad ient
ri p
Ġaw are
ĊĠĠĠĠĠĠĠĠĠĠĠĠĠĠĠĠĠĠĠĠĠĠĠĠĠĠĠĠĠĠĠĠĠĠĠĠĠĠĠĠĠĠĠĠĠĠĠĠĠĠĠĠĠĠĠĠĠĠĠĠĠĠĠĠĠĠĠĠĠĠĠĠĠĠĠĠĠĠĠĠĠĠĠĠĠĠĠĠĠĠĠĠĠĠ Ġ
Ġsubstant ially
& &
et ra
Ġo ste
Ġ\ |
Ġne ither
Ġstim ulation
Ġde precated
gu ild
Ġass umption
Ġf el
Ġoffic er
Ã¤ n
Ġre ward
19 99
land s
re ward
Ġhydro gen
er os
Ġcommerc ial
u f
b d
Ġal t
Ġposs ibly
sc ene
ed er
č ĊĠĠĠĠ
Ġsh ip
ge ometry
ĠA ction
Ġcon ven
Ġm other
lev ision
Ġ ĠĠĠĠĠĠĠĠĠĠĠĠĠĠĠĠĠĠĠĠĠĠĠĠĠĠĠĠĠĠĠĠĠĠĠĠĠĠĠĠĠĠĠĠĠĠĠĠĠĠĠĠĠĠĠĠĠĠĠĠĠĠĠĠĠĊĠ
nd im
organ ization
Ġn g
sd k
)* (-
Con vert
is co
}( {\
Ġ6 2
Ġde coder
D AT
Ġval s
M ask
ĠJ ava
Ġphosph ory
Ġequip ment
Ġa im
Ġhyp ert
s igned
p atterns
in ds
ĠT rain
ĠH is
} -\
Ac cept
Ġ ĠĠĠĠĠĠĠÂł
Ġcompat ible
amm ation
or ient
Ġins pect
end or
Ġh undred
ir atory
Pro xy
as array
Ġser ializer
Ġme thyl
L INE
Ġm x
LE TE
Ġstart s
Ab stract
Ġe ye
ul ates
Valid ation
Ġma il
Ġse gments
He ight
' %(
Ġpl ain
Le ft
1 19
Â Ī
ĠAd min
oc ard
au ge
Ġconsider ing
contain s
NU M
P s
Ġb rowser
t os
me thyl
warn ings
_ [
Ġfin ancial
ĊČ Ġ
Ġinter vals
Ġdivis or
Ġam ounts
Ġpe er
w ent
Ġr s
Ġfilter ed
G O
ĠO THER
Ġin correct
Ġp ump
r p
ĠB Y
ert ools
ME T
Ġ ĠĠĠĠĠĠĠĠĠĠĠĠĠĠĠĠĠĠĠĠĠĠĠĠĠĠĠĠĠĠĠĠĠĠĠĠĠĠĠĠĠĠĠĠĠĠĠĠĠĠĠĠĠĠĠĠĠĠĠĠĠĠĠĠĠĠĊĠ
ang ular
if th
çĶ ¨
ira ble
Ġun a
gener ic
Ġtra ffic
Ġprepar ation
t ions
H D
Ġd types
reg ulated
}_ \
as p
s pl
g res
t c
ond on
mat ches
], [
CHE CK
Ġde pos
ĠIn teger
Ġ -----
Ġoptim ization
Ġbi om
ĊČĠ Ġ
A gent
Ġac et
Ġbig gest
es cape
fail ure
ĠG L
ar ation
ĠL ocal
Ø §
(' <
Ġm oney
Ġd ense
Ġto ld
Ġm ol
place holder
Ġt ube
Ġdut y
Ġgener ating
D atabase
c wd
o O
ĠI tem
art icle
ĠResult s
C a
Ġw est
ent ities
ĠM er
ject ory
Ġcoup led
Ġopen ed
ĠSm ith
Ġg iving
she et
] =
R ect
Ġe ver
14 0
back ward
Ġd ialog
ĊĠĠĠĠĠĠĠĠĠĠĠĠĠĠĠĠĠĠĠĠĠĠĠĠĠĠĠĠĠĠĠĠĠĠĠĠĠĠĠĠĠĠĠĠĠĠĠĠĠĠĠĠĠĠĠĠĠĠĠĠĠĠĠĠĠĠĠĠĠĠĠĠĠĠĠĠĠĠĠĠĠĠĠĠĠĠĠĠĠĠĠĠĠĠĠ Ġ
b ins
Ġinhib itor
Off set
Ġk id
Ġpursu ant
\ .
Ġcy tok
h l
13 0
bo olean
Â Ħ
n ic
Ġinc ident
stri de
Ġpri m
ma kedirs
mut ation
assert All
ot ypes
_ :
h al
om er
ĠX ML
lo id
h is
Ġ ĠĠĠĠĠĠĠĠĠĠĠĠĠĠĠĠĠĠĠĠĠĠĠĠĠĠĠĠĠĠĠĠĠĠĠĠĠĠĠĠĠĠĠĠĠĠĠĠĠĠĠĠĠĠĠĠĠĠĠĠĠĠĠĠĠĠĠĊĠ
ĠN E
sk i
Ã ĳ
Ġoff ice
Â Į
ĠA uto
ĠInter est
Ġremain ed
Ġrepresent ative
Ġgame s
ste in
hand lers
ic ed
lott ing
Ġvari ants
ĠÐ ¾
Ġmag net
ĠS ource
G u
ĠB i
ph y
( ',
he alth
semb le
ĠÐ º
W H
Ġ$\ {
ĠCor poration
STR ING
A I
Å Ĥ
ĠA uth
ĠCall able
Ġ ens
Pass word
Ġren al
ĠM al
Ġeffic acy
s alt
tra de
ĊČĠĠ Ġ
Ġthe ta
Ġneighb or
ĠE qu
Ġpat ent
ĠBrit ish
ĠA uthor
Ġph one
ij er
Ġdis charge
Ġm d
n at
11 7
Ġcomp ression
Ġemb ry
Ġcont ributions
bur g
ĠM odule
assertEqual s
ĠRob ert
quis ition
Ġdescrib es
A ME
not es
Ġs napshot
z ing
Ġfe es
Ġ9 8
p andas
B ACK
Ġ' +
AS H
Ġ }\
50 9
Ġdesp ite
\ }$
mo v
æ ĺ
n ight
art ifact
h alf
Ġab use
tr l
Ġ\ -
mark et
Ġch lor
c andid
ĠH amilton
Ġdri ving
Ġtime delta
normal ize
Ġ} );
AC C
1 32
Ġne ural
go od
Ġvir al
not ify
N a
no ck
Ġap plies
Oper ator
Ġdecre asing
ĠP age
Ġtemper atures
s ert
Ġlos ses
ĠS M
Ġ ĠĠĠĠĠĠĠĠĠĠĠĠĠĠĠĠĠĠĠĠĠĠĠĠĠĠĠĠĠĠĠĠĠĠĠĠĠĠĠĠĠĠĠĠĠĠĠĠĠĠĠĠĠĠĠĠĠĠĠĠĠĠĠĠĠĠĠĠĊĠ
Ġinitial ly
000 2
qu iring
Ġad verse
B ut
A rt
ĠAdd itional
t bl
P a
ĠM or
Ġbacter ial
Ġsp an
Ġst uff
Emp ty
ma y
Ġstra ight
01 8
Ġprogress ion
PI PE
St andard
01 9
window s
Ġt ail
ĠCom mit
ĠP ress
Ġbro ught
Ġh ab
th umb
Ġde ad
ins ic
Ġbir ths
Ġd ag
(_ ("
def ine
Ġ1 27
Ġf et
m x
um ul
ĠA rm
Ċ ĊĠĠĠĠĠĠĠĠĠĠĠĠĠĠĠĠĠĠĠĠĠĠĠ
01 6
y nt
il ds
Qu ant
Ġinf ected
Ġin equal
P N
loc ations
Ġrender ed
du led
Ġoff ense
ĊĠĠĠĠĠĠĠĠĠĠĠĠĠĠĠĠĠĠĠĠĠĠĠĠĠĠĠĠĠĠĠĠĠĠĠĠĠĠĠĠĠĠĠĠĠĠĠĠĠĠĠĠĠĠĠĠĠĠĠĠĠĠĠĠĠĠĠĠĠĠĠĠĠĠĠĠĠĠĠĠĠĠĠĠĠĠĠĠĠĠĠĠĠĠĠĠ Ġ
te q
' ;
Ġd os
mon ary
ĠQt Gui
hy per
in fl
Ġf er
Ġy ields
Ġpass ing
st one
wik i
Ġfour th
Ġ ĠĠĊĠĠĠ
aa aa
pl ain
ĠP ass
Ä ĥ
M icrosoft
LO AD
ens ities
Â ¥
form ance
] ]:
Ð° Ð½
Ġcre ates
Ġtrans ferred
Ġde bt
Ġin ference
W I
-+ -+
Ġm ic
ep isode
ister ed
sc atter
Ġass ignment
Ġc art
Ġend ot
Ġbacter ia
depend encies
M ES
itro gen
01 2
ant ly
ĠÐ ´
Ġemploy ees
Ġpi pe
ĠI sl
em it
be am
xy z
ĠT otal
under line
Ġgu aran
Ġse g
Ġman aged
j u
d ns
Se lection
ĠAss ert
Ġ7 8
pend ing
il ty
ĠB en
Ġscal es
Ġ ĠĠĠĠĠĠĠĠĠĠĠĠĠĠĠĠĠĠĠĠĠĠĠĠĠĠĠĠĠĠĠĠĠĠĠĠĠĠĠĠĠĠĠĠĠĠĠĠĠĠĠĠĠĠĠĠĠĠĠĠĠĠĠĠĠĠĠĠĠĊĠ
, $$
M ake
Ġretrie ve
as i
EN G
ap se
g gle
Ġh ole
Ġfund amental
Ġdiag ram
Ġper m
che n
Ġb ars
Ġprotect ed
u er
gener al
ma jor
ĠI tal
Ġsex ual
Ġ[ ('
^ ,
Ġsepar ation
U sing
Ġ ĠĠĠĠĠĠĠĠÂł
Ġtra vel
ĠG aussian
mo id
Ġr c
ĠC ase
col l
Ġn arrow
m ix
Ġtemp file
Ġc atch
round ing
Ġthan k
Ġar range
Ġmolec ule
Ġadult s
Ġquant itative
Ġre actions
medi ated
10 8
Sum mary
Ġ( {
prov iders
99 9
20 21
th ro
Ġgo es
Ġgra du
Ġt ar
Ġcogn itive
Ġr untime
Ðµ ÑĤ
ĠF in
Ġmaint ained
t ip
Ġcl ause
Ġ2 50
ST ART
Ġf s
ĠCol lege
B r
Ġle af
ĠSimilar ly
Ġla unch
Ġun certain
Ġwit ness
S ince
). $$
stand ing
Ġtrad itional
Ġtemp orary
ĠG reen
ĠP i
10 3
Ġmay be
ĠCOP Y
Ġg a
Ġexam ine
Ġfor th
at ar
ĠS U
ilib rium
iss ues
p ur
ĠV is
Ġcon tr
od ium
ĊČĠĠĠ Ġ
Ġdef ines
Ġun able
mar ily
ogen ous
ĠR ich
h d
RNA s
Ġsubsequ ently
Ġv ill
Ġr ig
Ġsupport ing
ĠJap an
Ġ ĠĠĠĠĠĠĠĠĠĠĠĠĠĠĠĠĠĠĠĠĠĠĠĠĠĠĠĠĠĠĠĠĠĠĠĠĠĠĠĠĠĠĠĠĠĠĠĠĠĠĠĠĠĠĠĠĠĠĠĠĠĠĠĠĠĠĠĠĠĠĊĠ
rel ations
Ġab stract
D im
Ġo d
Ġ19 95
AR D
Ġst roke
Ġen force
re vision
Ã ¸
Ġm ind
Set s
Ġl ens
l inalg
out er
Ġsub mit
ijer ph
Ġ( $\
AS K
g p
re w
ĠAn n
M apping
predict ions
Ġmetabol ic
Ġsus cept
ine se
can vas
ĊĠĠĠĠĠĠĠĠĠĠĠĠĠĠĠĠĠĠĠĠĠĠĠĠĠĠĠĠĠĠĠĠĠĠĠĠĠĠĠĠĠĠĠĠĠĠĠĠĠĠĠĠĠĠĠĠĠĠĠĠĠĠĠĠĠĠĠĠĠĠĠĠĠĠĠĠĠĠĠĠĠĠĠĠĠĠĠĠĠĠĠĠĠĠĠĠĠ Ġ
Ġ" (
ĠCol or
ĠCon st
Ġthere of
u um
ri des
l b
ĠH ospital
no logies
h aps
Ġinvol ves
pre ci
Ġ19 90
Ġb ulk
ĠSt andard
E mail
l ass
Ġnot es
and er
ĠM ain
Int roduction
P ASS
s aved
k ins
he at
ĠJap anese
L M
Ġcon cat
Ġ7 7
Ġ+ /-
Ġc yl
( """
Ġstri p
Ġtrace back
Â ¯
Ġfluores cence
Re port
Oper ations
Ġhe avy
Ident ifier
ĠCor p
), \
ĠPro gram
Ġcomple ment
set default
ĠPro te
Ġli ability
el ist
Dis play
The ta
, {\
i ro
Ac cording
I mpl
rupt cy
C AS
Ġgalax ies
Det ails
quant ity
Ġdete ctor
ho le
it z
ĠH ome
Ġas set
NotFound Error
Ġ** (
Ġsym metric
By tes
re m
Ġco vered
prior ity
Ġlimit ation
Ġperiph eral
the less
Ġv en
Ġthe me
Ġre pair
11 5
Ġc ircle
Ġ9 7
Ġlabor atory
S ort
c id
ĠT EST
Ġp icture
ĠW ash
Ġperform ing
state ment
Ġaspect s
Ġ ĠĠĠĠĠĠĠĠĠĠĠĠĠĠĠĠĠĠĠĠĠĠĠĠĠĠĠĠĠĠĠĠĠĠĠĠĠĠĠĠĠĠĠĠĠĠĠĠĠĠĠĠĠĠĠĠĠĠĠĠĠĠĠĠĠĠĠĠĠĠĠĊĠ
Ġal gorithms
Americ an
ĠMed ical
ĠN et
Ġthan ks
Ð ¿
Ġconcer ning
ĠO UT
Ġro bot
Sp ace
Ġreco mb
Ġabsor ption
Ġe mot
Time out
f loor
Ġri se
Ġfast er
Ġprinc iple
Ġfil led
pre vious
sen der
se ctions
g ate
Â ¤
re hen
P anel
do cker
Ġide al
Ġde mo
Ġf mt
oth ing
Ġvas cular
ell a
P ES
ĠEn v
Ġb ran
Re quired
Ġcap ac
Ġ6 9
W riter
Ġap point
ap sed
Act ivity
Ġn b
Ġtemp oral
Ġed itor
Ġannot ation
ac er
2 20
Ġex ceed
ast ro
res olution
st ood
ĠB ased
ĠP ack
Ġg old
Ġfamil ies
l ive
Ġ ĠĠĊĠĠĠĠĠĠĠ
ĠU K
O ther
Ġl on
Ġb undle
temp erature
config s
Ġthem selves
Ġorgan ic
Ġdisclo sed
ad os
Ġdi vers
V irtual
Ġse mi
n ative
A K
so ck
}^{ -
G lobal
ac curacy
Fl ag
Ġspec im
ra b
U C
Ġl ang
Rem ove
H P
Ġpept ide
Ġ8 4
Ġeffect ively
Ã ł
ab solute
10 24
Ġso le
Ġin duce
Ġs po
time delta
ĊČĠĠĠĠ Ġ
Ġrelationship s
AT ED
el s
Ġ ĠĠĠĠĠĠĠĠĠĠĠĠĠĠĠĠĠĠĠĠĠĠĠĠĠĠĠĠĠĠĠĠĠĠĠĠĠĠĠĠĠĠĠĠĠĠĠĠĠĠĠĠĠĠĠĠĠĠĠĠĠĠĠĠĠĠĠĠĠĠĠĠĊĠ
O FF
ch art
ous ing
oun ced
an ies
"> </
av as
ĊĠĠĠĠĠĠĠĠĠĠĠĠĠĠĠĠĠĠĠĠĠĠĠĠĠĠĠĠĠĠĠĠĠĠĠĠĠĠĠĠĠĠĠĠĠĠĠĠĠĠĠĠĠĠĠĠĠĠĠĠĠĠĠĠĠĠĠĠĠĠĠĠĠĠĠĠĠĠĠĠĠĠĠĠĠĠĠĠĠĠĠĠĠĠĠĠĠĠ Ġ
Ġfra ppe
Ġre versed
Ġtrun c
00000000 00000000
ist ical
J o
Ġnecess arily
Ġco ord
it ud
xx xx
å º
Ġout file
f b
Ġcomplic ations
per f
Â Ĺ
CL I
Ġtrans mit
Ġs ays
c u
st ic
Def inition
io graphy
ĠS ample
L IN
ed itor
Ġst abil
experim ent
Ġ8 8
Ġe lem
Ġpo inter
ĠClo ud
ma ker
ap ers
tol ist
Ġinfl ammation
ĠF ederal
Ġadjust ed
S ave
ub s
Ġaff irm
cur r
Ġc i
Ġ7 4
ar ter
C annot
S ocket
Do main
/ <
pro bs
###### #
Ġcomp osed
Exp and
Ġa cknow
b rowser
h n
se teq
uest ion
Ġtreat ments
Ġjob s
ĠM icrosoft
m iddleware
Ġval ve
Ġw or
embed dings
Ġpre ced
F D
)) /(
Ġextra ction
work flow
ir y
Ġsatisf y
Ġoppos ite
Ġf abric
ĠV M
b order
function al
Ġexpress ions
Ġw s
Ġden ominator
Tra ck
i ance
ĠM art
Ġ* =
Ġinfe ctions
ost er
ct ype
Ġnd array
X Y
ad j
Ġfra ct
Ġ ĠĠĠĠĠĠĠĠĠĠĠĠĠĠĠĠĠĠĠĠĠĠĠĠĠĠĠĠĠĠĠĠĠĠĠĠĠĠĠĠĠĠĠĠĠĠĠĠĠĠĠĠĠĠĠĠĠĠĠĠĠĠĠĠĠĠĠĠĠĠĠĠĠĊĠ
Ġfe at
Ġsh apes
ci um
P ref
Ġdiv ide
Â ľ
Ġprom ote
M sg
Ġd ied
" />
ver ted
MA IL
dag ger
Ġpl ays
Ġe mit
t u
h int
qu ential
}/ {
ad just
ag ents
grad ation
Ġreview ed
r x
Ġre start
Ġx s
Ġconvict ion
ĠSup er
Ġimp air
Ġchrom osome
X iv
Ġpri marily
ĠF I
not ification
Ġcache d
Ã ¯
L imit
Ġb at
Ġd ummy
ĠE lect
sche me
s udo
con duct
m q
Ġle aves
]{ .
and o
Ġl ab
H L
F ail
Ġrandom ly
0 22
Ġp ig
dis abled
ang les
Ġch amber
Ġrespon s
Ġ ĠĠĠĠĠĠĠĠĠÂł
ĠF ilter
AP P
Con s
e ach
. ;
]{ }\
gener ation
D iv
ol a
ros is
ð Ŀ
Ġ', '
Ġf uel
En ter
Ex pression
nes ses
Ġ ĠĊĠĠ
Ġ{ {
ĠB ro
ĊĠĠĠĠĠĠĠĠĠĠĠĠĠĠĠĠĠĠĠĠĠĠĠĠĠĠĠĠĠĠĠĠĠĠĠĠĠĠĠĠĠĠĠĠĠĠĠĠĠĠĠĠĠĠĠĠĠĠĠĠĠĠĠĠĠĠĠĠĠĠĠĠĠĠĠĠĠĠĠĠĠĠĠĠĠĠĠĠĠĠĠĠĠĠĠĠĠĠĠ Ġ
10 9
ĠL oc
ur ies
Ġport ions
W IT
c amera
Ġcaus ing
E ffect
u its
EN S
ï ¸
Ġadv ance
ĠMe an
Ġa zure
ch arg
predict ion
Ġb il
i h
zz le
Ġpost erior
Ġmetabol ism
Ġplot s
Ġsing ular
ĠVal id
Ġh al
Ġgl ass
2 24
UR CE
max imum
o plus
Ġ' *
Ġdis put
r ising
Ġres olved
Ġt k
omorph ism
tr as
e b
Ġro bust
d uplic
ch ors
Ġprinc ip
ĠW H
* ]{},
ex change
sol ution
Ġ ĠĠĠĠĠĠĠĠĠĠĠĠĠĠĠĠĠĠĠĠĠĠĠĠĠĠĠĠĠĠĠĠĠĠĠĠĠĠĠĠĠĠĠĠĠĠĠĠĠĠĠĠĠĠĠĠĠĠĠĠĠĠĠĠĠĠĠĠĠĠĠĠĠĠĊĠ
Ġre call
Ġrat ios
Ġg ender
Ġob lig
Ġw allet
Act ive
Ġac quired
Ġso ught
Ġ1 25
Ġ ------
vert ical
Ġs ale
c ity
Ġth ous
a imed
ĠAss ociation
33 33
Ġcomp aring
ĠC F
ĠU buntu
R oot
n r
COL OR
Ġkin ase
sent ry
r ating
leg al
Ġang ular
Ġtoler ance
Ġplural ity
AG ES
test inal
Ġcheck ing
Ġcustom er
t ensors
iter ator
n l
unt il
mk dir
Ġb ounded
Ġt al
slot s
Ġtran script
n ail
mag netic
Ġdiscus s
ĠL ou
Ġd raft
Ġrece iver
annot ation
os h
ĠE ven
az y
ĠL IC
S ingle
Ġc p
ochem ical
Ġ19 94
Ġx e
% ).
Ġde m
Ġfl uct
ĠB E
![ ](
aw n
ly mp
ve x
pre view
Ġ( (-
11 4
čĊĉĉ ĉ
Clo ud
ĠD en
Ġscatter ing
Ġsever ity
ick er
d ating
ph osph
R ate
Sec urity
G D
Ġaccount s
Ġs pread
associ ated
Ġ9 4
trans lation
(' #
var type
R aw
Ċ ĊĠĠĠĠ
čĊ čĊĠĠĠĠĠĠĠĠĠĠĠ
Ġfl ash
y al
wo od
Ġpro gn
ĠP C
S cal
ilit ary
tr m
Ġpart ially
sec utive
h ide
fin ished
Ġqu ote
de leted
$ {
Ġst ory
prob lem
d ensity
Key board
ĠSi mple
Ġg uess
if old
' (
Ġemploy ment
19 98
gener ated
Ġgraph s
Ġ ĠĠĠĠĠĠĠĠĠĠĠĠĠĠĠĠĠĠĠĠĠĠĠĠĠĠĠĠĠĠĠĠĠĠĠĠĠĠĠĠĠĠĠĠĠĠĠĠĠĠĠĠĠĠĠĠĠĠĠĠĠĠĠĠĠĠĠĠĠĠĠĠĠĠĠĊĠ
Y Y
w a
S ur
Ġsend ing
S ymbol
Ġe ps
ro les
level s
Ġ( %)
ĊĠĠĠĠĠĠĠĠĠĠĠĠĠĠĠĠĠĠĠĠĠĠĠĠĠĠĠĠĠĠĠĠĠĠĠĠĠĠĠĠĠĠĠĠĠĠĠĠĠĠĠĠĠĠĠĠĠĠĠĠĠĠĠĠĠĠĠĠĠĠĠĠĠĠĠĠĠĠĠĠĠĠĠĠĠĠĠĠĠĠĠĠĠĠĠĠĠĠĠĠ Ġ
us sian
ĠA ns
Ġconsist ing
ip ly
Ġcl ar
Hand le
is ons
Ġarch itecture
S pe
Ġf riend
Ġsufficient ly
"] ),
y o
Ġw rote
Argument Parser
$ ',
l am
ĠAmeric a
w edge
iz able
Ġt ip
Ġrestrict ed
Ġt i
sur face
Ġmaint enance
... ")
/ .
Ġg auge
Ġc ancel
Ġ1 15
V D
B ody
Ġp g
M issing
Ġlip id
ĠL abel
Ġde b
Ġant igen
Ġhe t
and a
Ġe c
pick le
Ġra ce
comp iler
R R
Ġper man
}} $.
Ġdec ided
ĠOrder edDict
Ġproject s
ĠW al
Ġproceed ings
Ġ$ [
Ġh arm
RE D
q dm
p ite
Ġinhib itors
Ġreco ver
Ġsen der
ind ic
Ġra y
abe led
Ġdiscre te
Ġes cape
s uch
Ġresid ues
Ġlaw s
Ġdraw n
Reg ister
ĠÂ °
Ġpie ces
Ġaut hentication
compat ible
Ġnumer ous
format s
Ġraise s
Ðµ ÑĢ
Ġpublic ation
Ġdist ances
Ġp c
ĠNOT E
Ã «
ach er
ĠT F
Ġcarri er
u ds
Pro b
circ uit
Ġm erg
H y
Ġ5 12
Ġ ĠĠĠĠĠĠĠĠĠĠĠĠĠĠĠĠĠĠĠĠĠĠĠĠĠĠĠĠĠĠĠĠĠĠĠĠĠĠĠĠĠĠĠĠĠĠĠĠĠĠĠĠĠĠĠĠĠĠĠĠĠĠĠĠĠĠĠĠĠĠĠĠĠĠĠĠĊĠ
Ġpro ved
cop es
Ġcar c
select or
Ġart ifact
*~ *
Ġf rozen
Object Name
ï¸ ı
Ġins urance
b az
u ke
Ġappe ll
000 5
h ours
avas cript
B Y
Ġreg istry
man agement
Ġp k
concat enate
Ġs old
par sed
Ġoffic ers
Aut hentication
ir q
PO INT
C y
DateTime Field
ocy te
Ġb orn
r v
h ang
Ġpol l
ĠC PU
assert Not
ĠE L
we et
Ġthread s
R ender
tex trm
sub seteq
Ġele vated
Ġgra de
ĠOther wise
Ġre vision
Ġag ency
C opy
re name
Ġcomplex ity
sel l
Ġin p
Ġh ip
Ġcur rency
Ġ7 6
Ġunder stood
res olve
Ġ\ ;
prote cted
ge l
Ġcriter ion
Ġrecogn ition
Ġp ip
ĠArgument s
Ġcomp ile
Ġmon o
Ä ħ
)$ $
Ke ys
As ync
10 6
>> >
is instance
ĠÂ ¶
Ġ ÏĢ
ar th
Us ers
Ġdep loy
Ġimpl ant
Ġ7 9
Ġman ip
load ing
B T
ther n
me ter
er ce
Ġvari ations
Ġtheore tical
ĠV ir
ns on
ĠN ormal
Ġf ather
ud get
. %
p ag
Ġsyn tax
d if
d h
ed u
te ch
Ġins u
[: ]
11 6
Ġbeh ind
Ġtransform s
ot ide
( %
ĠPres ident
TO KEN
M iddleware
ne um
ĠDav id
ĊĠĠĠĠĠĠĠĠĠĠĠĠĠĠĠĠĠĠĠĠĠĠĠĠĠĠĠĠĠĠĠĠĠĠĠĠĠĠĠĠĠĠĠĠĠĠĠĠĠĠĠĠĠĠĠĠĠĠĠĠĠĠĠĠĠĠĠĠĠĠĠĠĠĠĠĠĠĠĠĠĠĠĠĠĠĠĠĠĠĠĠĠĠĠĠĠĠĠĠĠĠ Ġ
ner gy
ĠPat ent
ĠE v
bl ast
ĠL ondon
Ġmost ly
Ġcandid ates
der ived
DO MAIN
Ġk m
Ġur i
}} }$
Ġext ends
Ġcy cles
Ġ ĠĠĠĠĠĠĠĠĠĠĠĠĠĠĠĠĠĠĠĠĠĠĠĠĠĠĠĠĠĠĠĠĠĠĠĠĠĠĠĠĠĠĠĠĠĠĠĠĠĠĠĠĠĠĠĠĠĠĠĠĠĠĠĠĠĠĠĠĠĠĠĠĠĠĠĠĠĊĠ
her ence
or ge
Ġpre jud
Ġp ending
ha ust
ĠCon vert
semb ly
AN CE
Ġindependent ly
Ġp t
Ġappear ance
Ġcor on
Ġdeath s
rypt ed
Ġ7 3
ĠAn other
13 5
Ġ7 1
in ent
ĠE T
custom er
ĠPro b
Ġarch ive
imit er
B efore
sp ring
Ã µ
ret ch
ĠL abor
Ġcare er
Ġb ring
Ġas ymp
. ),
am ination
Con f
f x
I con
add resses
Ġtr uth
Ċĉ Ġ
as y
Q P
ĠDef endants
h ref
H igh
b ial
Ġc av
ab ases
ĠD an
ĊČĠĠĠĠĠ Ġ
Ġ ĠĠĊĠĠ
Ġ ĊĊĠ
Ġ ĠĠĊ
DO WN
ĠLe ague
Ġartic les
Ġstat utory
P K
B inary
en a
Ġenco unter
b undle
\ ,\
ĠCoun cil
Des cript
che m
Ġdis cord
in p
Ġpetition er
Ġemp has
Ġm irror
() ).
Ġon set
ĠData set
ĠI MP
get item
Ġopport unity
ĠG al
Qt Core
is dir
Ġpie ce
Ġjo urnal
p ow
Ġcard io
ate ll
_ *
Ġhere in
Ġ* /
Ġnormal ly
ĠComp ute
Ġ8 7
-------------------------------- ------------------------
R UN
OL DER
Ġco lour
ĠB ay
List ener
12 4
ag g
Ġcompar able
E mbed
c it
ĠBl ack
Ġinte gers
ser vers
ap h
Ġ ĠĠĠĠĠĠĠĠĠĠÂł
p od
Ġa f
ĠSe arch
Ġfoc used
Ġjo ined
ĠO ptions
t ics
Ġt z
\ >
account s
Ġin place
Ġ8 9
([ ])
ĠPro position
rop ic
h orizontal
Ġcomp iler
D oc
Ġ ĠĠĠĠĠĠĠĠĠĠĠĠĠĠĠĠĠĠĠĠĠĠĠĠĠĠĠĠĠĠĠĠĠĠĠĠĠĠĠĠĠĠĠĠĠĠĠĠĠĠĠĠĠĠĠĠĠĠĠĠĠĠĠĠĠĠĠĠĠĠĠĠĠĠĠĠĠĠĊĠ
m or
f all
ĠI mp
al loc
Eng ine
es h
Ġepoch s
set ObjectName
p ressed
ut ation
cond itions
ĠO pt
fo x
Ġke pt
U ST
Ð¸ ÑĤ
)) ))
ed ing
Ġmeas uring
Ġ1 30
Ġcharg es
k ill
Ġadopt ed
Ġguide lines
Ġ9 2
Ġobser ve
Ġran ges
Ġi ron
Ġt uples
Ġs aw
Ġdepend ency
Ġc pu
ĠB el
Ġin formed
B it
Ã© s
ĠR est
Ġpy game
ESS ION
V C
Ġde code
14 7
}} $,
Ġmeta var
Ġlik elihood
Ġhe pat
p res
Ġexplan ation
annot ations
Ġdiff usion
N T
Ġut ility
te en
i loc
ĠEx ec
cur ve
re mo
cat alog
dis p
ĠHo use
################ ########
Ġw heel
ĠSh ow
D rop
Ġs v
}} }\
Ġtra ined
ĠGover nment
Ġgu ilty
1 0000
O ur
Ġin fra
- *
i ar
Ġsub net
Ġpubl ish
num eric
char acter
D a
Ġprofession al
s qu
Ġclass ified
id o
Ġb ands
Ġm il
Ġmeta st
+ )
}} (\
Ġlater al
ĠC hem
ĠCommit tee
Ġconfig ure
ĊĠĠĠĠĠĠĠĠĠĠĠĠĠĠĠĠĠĠĠĠĠĠĠĠĠĠĠĠĠĠĠĠĠĠĠĠĠĠĠĠĠĠĠĠĠĠĠĠĠĠĠĠĠĠĠĠĠĠĠĠĠĠĠĠĠĠĠĠĠĠĠĠĠĠĠĠĠĠĠĠĠĠĠĠĠĠĠĠĠĠĠĠĠĠĠĠĠĠĠĠĠĠ Ġ
Ġm p
" +
tr uth
Ġ19 93
=[ ],
Ġsatisf ies
ĠB io
Ġ8 6
sent ence
Ġf d
stri al
Con straint
Ġcon sequence
ĠLIC ENSE
iv a
Ġen code
G I
qual ity
Ġattemp ts
ex press
Ġsepar ately
Ġ ĠĠĠĠĠĠĠĠĠĠĠĠĠĠĠĠĠĠĠĠĠĠĠĠĠĠĠĠĠĠĠĠĠĠĠĠĠĠĠĠĠĠĠĠĠĠĠĠĠĠĠĠĠĠĠĠĠĠĠĠĠĠĠĠĠĠĠĠĠĠĠĠĠĠĠĠĠĠĠĊĠ
Î Ķ
na ire
ĠPro duct
G ateway
Ġpop ular
Ġp id
P arent
ĠU I
h u
Ġit ertools
Ġover write
Form atter
Ġhapp ens
C ert
Ġ ._
Ġwhere in
ol y
ĠR iver
pri se
Ġread y
l c
ĊĊ ĉĉ
ak en
ĠL ong
on ed
es ian
Ġr v
man ifest
j ar
Ġar c
ass istant
Ġconj ug
Sup p
jo urnal
Ġd ial
pi pe
Ġ-------------------------------- --------
ER T
ar rays
yn chronous
Ġfem ales
Ġ20 21
CON T
' _
Ġinsert ed
Ġcomput ing
ï¼ ļ
ĠE st
Ġc f
Pol y
prov ision
man ual
Ġal i
ĠF rench
Ġav ailability
C UR
Ġan chor
Ġl as
publ ish
cl er
Ġhum ans
F unc
Ġg dal
Â ģ
Ġ8 3
com ments
ĠR andom
ĠG R
Ġin take
Ġpol icies
Def ine
VAL UE
ĠDiv ision
Ġ1 19
01 3
Ġtrans plant
P erson
Ġ ub
ĠPol y
Ġname ly
in er
u ite
End point
Ġass ays
in line
ĠM ass
Ġp et
Ð ·
B al
y label
ul ary
ĠA zure
q s
Ġb ed
Ex ists
é ĩ
list dir
re cur
ut r
g ot
D raw
Ġ ĠĠĠĠĠĠĠĠĠĠĠĠĠĠĠĠĠĠĠĠĠĠĠĠĠĠĠĠĠĠĠĠĠĠĠĠĠĠĠĠĠĠĠĠĠĠĠĠĠĠĠĠĠĠĠĠĠĠĠĠĠĠĠĠĠĠĠĠĠĠĠĠĠĠĠĠĠĠĠĠĊĠ
ĠS al
Ġcan onical
k top
Ġperf ect
Ġ ĠĠĠĊĠĠĠĠĠĠĠ
Ġ9 1
Ġn orth
ĠI C
Ġox ide
ĠU SE
Ġmac roph
~ *
AR K
u rop
allen ge
ĠT ry
c rop
filter ed
EN CE
Â ļ
Pack age
los ses
uc ial
deep copy
h space
velo per
umul ative
rec v
att rib
Ġ19 92
Ġacc ident
Ġincl usion
Ġ1 12
Ġa pt
19 97
Ġhost s
Set ting
Ġsh uffle
Ġin deed
tmp dir
ĠH R
Ġre vers
At tr
Ġaccum ulation
Ġ+ \
ode s
Ġde gradation
mo use
h h
mat ched
' ",
ĊĠĠĠĠĠĠĠĠĠĠĠĠĠĠĠĠĠĠĠĠĠĠĠĠĠĠĠĠĠĠĠĠĠĠĠĠĠĠĠĠĠĠĠĠĠĠĠĠĠĠĠĠĠĠĠĠĠĠĠĠĠĠĠĠĠĠĠĠĠĠĠĠĠĠĠĠĠĠĠĠĠĠĠĠĠĠĠĠĠĠĠĠĠĠĠĠĠĠĠĠĠĠĠ Ġ
Ġpro mpt
D H
text bf
ĠConfig uration
] /
Ġ( :
Ġcont ends
Ġhapp en
Ġtechn ical
de m
Ġmoun ted
ĠAm ong
ĠEng ine
Ġlocal ly
ĠM ap
)) /
(" <
de scriptor
Ġrun ner
Ġnew ly
Ġser ialize
ĠMethod s
et ics
W ait
ĠA v
Ġph y
Ġh ierarch
Ġcri me
Ġad mitted
Ext ension
se y
ĠCong ress
Ġremo ving
Ġl ic
Ġte levision
Ġ ĠĠĠĊĠĠĠ
ĠPlaintiff s
Ġintro duce
0 25
Get s
Ġ ĊĊ
Ġm apped
Ġstand ards
Ġanaly ze
Ġc ivil
Ġset attr
UP PORT
Ġro ad
Ġdef ining
Ġre quiring
Ġde pression
ĠVal idation
0 23
Ġdi ver
Ġb right
pol ling
min imum
Ġb ins
F in
conf irm
l ife
Ġ ĠĠĠĠĠĠĠĠĠĠĠĠĠĠĠĠĠĠĠĠĠĠĠĠĠĠĠĠĠĠĠĠĠĠĠĠĠĠĠĠĠĠĠĠĠĠĠĠĠĠĠĠĠĠĠĠĠĠĠĠĠĠĠĠĠĠĠĠĠĠĠĠĠĠĠĠĠĠĠĠĠĊĠ
Ġwant ed
ci pe
Ġadministr ative
oun ce
Ġint ention
b roadcast
8 00
` :
s ince
11 3
ĠB ur
Ġt xt
Ġcont rolling
Ġdef initions
ĠL es
ĠLet t
ĠJ ames
Ġlength s
P G
{ '
Ġw rap
dict ionary
co eff
Ġse ar
Ġdec isions
Ġ9 3
Ġpath lib
ĠDo es
t v
> ,
UR I
Ġat m
vis it
ä¸ Ģ
â ī
Ġc rop
Ġcent ury
Ġcomp rising
+ ^
Ġpro spect
CO UNT
Ġ-- >
Î ¬
Ġestim ation
ag n
add itional
V I
ĠL td
to po
Â ¿
Ġse p
Ġsh ock
Ġne arly
Ġdisco vered
Ġexhib it
SER T
Ġh orm
Ġdrop out
soft max
ph an
go v
link ed
Ġincre ment
Iter ator
fl ux
u om
set minus
Ġintern ational
Ġsequ encing
Ġ8 1
Ġph ases
ĠI mm
Ġc s
Ġfun ct
FOR MAT
Ġ10 2
b ank
Ġp df
ot yp
back ends
ĠSt atus
REQU EST
(" #
ĠGener ated
(" .
z i
ĠB r
Ġannot ations
ĠStr uct
Ġmod erate
Ġdecre ases
s queeze
V AR
Ġdata frame
Ġsimilar ity
up s
subscription Id
n umbers
( ('
g ency
ES M
Ġsimultaneous ly
ĠP et
Ġ ic
ĠCh inese
act ic
14 5
ĠW T
Ġlog its
ĊĠĠĠĠĠĠĠĠĠĠĠĠĠĠĠĠĠĠĠĠĠĠĠĠĠĠĠĠĠĠĠĠĠĠĠĠĠĠĠĠĠĠĠĠĠĠĠĠĠĠĠĠĠĠĠĠĠĠĠĠĠĠĠĠĠĠĠĠĠĠĠĠĠĠĠĠĠĠĠĠĠĠĠĠĠĠĠĠĠĠĠĠĠĠĠĠĠĠĠĠĠĠĠĠ Ġ
Ġderiv atives
M ore
Ġev ident
h ub
M achine
hes ized
ĠP T
ĠF A
fe ction
cons istent
col lections
Ġ ĠĠĠĊĠĠ
. ],
Ġrel ax
V ideo
Ġ ĠĠĠĠĠĠĠĠĠĠĠÂł
Ġv it
> ",
ĠWash ington
ur s
Back end
med ian
Ġco lo
č č
m gr
o led
g ap
mask s
Ġ ĠĠĠĠĠĠĠĠĠĠĠĠĠĠĠĠĠĠĠĠĠĠĠĠĠĠĠĠĠĠĠĠĠĠĠĠĠĠĠĠĠĠĠĠĠĠĠĠĠĠĠĠĠĠĠĠĠĠĠĠĠĠĠĠĠĠĠĠĠĠĠĠĠĠĠĠĠĠĠĠĠĠĊĠ
er vation
Ġcomb inations
Ġto wn
ĠS y
k u
get attr
Ġip v
_{ -
M AN
Ġwave length
14 4
Ġv ars
ĠD M
Tra ce
$ (
ĠRe port
Ġfore ign
01 1
Ġpsy cho
Ġus ual
b io
utri ents
re strict
Ġdest roy
os ing
ĠM R
Ġstri des
art icles
Pe ople
loy ee
Ġoffer ed
PO S
Ġ8 2
5 67
Ġm gr
Ġn om
ĠB rown
Ġl ys
Ġo ch
âĢ ħ
Ġiter ator
ent ions
ri m
å į
Ġre duces
PRE FIX
e a
æ ł
WOR K
Trans action
== '
Ġn ight
r st
Ġind irect
v ia
se ek
e h
ve ctors
ĠM D
sa mpling
Ġorder ing
W A
is er
Ġcol s
s ch
ĠCh ild
Ġcal cium
Ġarter y
Ġm ales
fl ip
p al
S ch
p ip
Ġp un
Ġfl atten
Ġweight ed
Ġâī ¥
Se q
ok s
Ġte mplates
b oth
Ġdecl are
Ġcomple tion
sp in
Ġresp iratory
N D
ĠD C
Ġecon omic
ĠB a
Ġs udo
c lock
ites pace
Ã ½
^{ -\
Ġcl one
th resh
Â ĺ
x label
Ġas c
CL UD
ab out
l ip
all ery
Ġ ĠĠĠĠĠĠĠĠĠĠĠĠĠĠĠĠĠĠĠĠĠĠĠĠĠĠĠĠĠĠĠĠĠĠĠĠĠĠĠĠĠĠĠĠĠĠĠĠĠĠĠĠĠĠĠĠĠĠĠĠĠĠĠĠĠĠĠĠĠĠĠĠĠĠĠĠĠĠĠĠĠĠĠĊĠ
th rough
leg ate
12 6
Ġemb od
order ed
Ġadequ ate
Ġpro ducing
ĠI F
Ġiter ations
ter ms
ĠH E
Ġf ed
re store
Fact or
11 8
O C
itud inal
Ð¾Ð »
\ }
pl ays
UT E
Ġreturn ing
Ġass istance
ĠQu ery
ĠS ort
Ġ1 17
FF FF
å ¼
Ġk nock
ari os
as c
ĠC S
an chor
Ġp ed
Ġden otes
ĊĠĠĠĠĠĠĠĠĠĠĠĠĠĠĠĠĠĠĠĠĠĠĠĠĠĠĠĠĠĠĠĠĠĠĠĠĠĠĠĠĠĠĠĠĠĠĠĠĠĠĠĠĠĠĠĠĠĠĠĠĠĠĠĠĠĠĠĠĠĠĠĠĠĠĠĠĠĠĠĠĠĠĠĠĠĠĠĠĠĠĠĠĠĠĠĠĠĠĠĠĠĠĠĠĠ Ġ
ĠJ ack
it utions
ult ure
Ext ra
Un ited
Ġ\ #
Ġembed ded
F ull
cert ificate
t m
ex act
Ġwith draw
p ull
Ġw atch
Ġmerg ed
........ ........
Ġmax imal
="" ,
Ġeffort s
pre trained
Ġref resh
Ġfunction ality
Ġpl astic
Ġt a
B ad
Ġoccur rence
m ing
Ġtre nd
St ud
ĠS C
ran es
ĠZ e
#### #
pro f
ad ian
24 0
Or ig
19 96
ol f
M ar
ĠW rite
S yn
Ġcorrel ations
% ;
Ġt ile
ill ary
dep loy
") [
se m
Ġ ĠĊĊĠ
up dates
Ġantib iot
pat ient
Ġattach ment
Al though
Ġprov isions
publ ished
u an
ate ver
ĠU V
ĠF ire
20 4
I ii
v ille
la zy
Ġ1 13
find all
Ġso il
Ġcarc inoma
J son
b ral
Ġm align
Ġpromot er
Ġreson ance
ĠInst ead
pol ar
Hel lo
B V
J oh
work space
pri v
ĠS NP
Ġto uch
Ġsol vent
Ġs ulf
pe ction
000 4
ĠCON TR
OR M
ce il
re main
ĠInd ia
Ġ ĠĠĠĠĠĠĠĠĠĠĠĠĠĠĠĠĠĠĠĠĠĠĠĠĠĠĠĠĠĠĠĠĠĠĠĠĠĠĠĠĠĠĠĠĠĠĠĠĠĠĠĠĠĠĠĠĠĠĠĠĠĠĠĠĠĠĠĠĠĠĠĠĠĠĠĠĠĠĠĠĠĠĠĠĊĠ
ur ally
Ġexpon ential
Ġwork flow
Ġdes irable
Ġextreme ly
ĠD atabase
Ġincorpor ated
ĠR ights
Y es
Ġ1 88
ĠSt reet
Ġevent ually
ĠC la
Ä «
= ('
c amp
py plot
Ar g
atern al
Ġdirect ories
Ġat ol
Ġent ropy
um a
^ )
Ġobtain ing
Ġc am
Ġnot ification
time zone
12 2
Ġquery set
Ġsql alchemy
Ġme s
ili ary
p as
ĠO ffic
Ġhost name
Boolean Field
Ġdef orm
ĠÐ¿ ÑĢ
E A
C our
) },
Ġd ates
Ġindic ator
Ġautom atic
assertRaises Regex
Ġro ugh
ĠLe g
ĠS cale
Ġn x
ĠWh ite
_{ (
R ob
G ra
Ġ Ïĥ
Ġ1 60
serial ization
Ġ10 4
ĠOr gan
B asic
Î¿ Ïħ
P ay
Ġs odium
spec s
19 95
Ġb le
) })
rot ation
Ġact ing
ds h
ĊĠĠĠĠĠĠĠĠĠĠĠĠĠĠĠĠĠĠĠĠĠĠĠĠĠĠĠĠĠĠĠĠĠĠĠĠĠĠĠĠĠĠĠĠĠĠĠĠĠĠĠĠĠĠĠĠĠĠĠĠĠĠĠĠĠĠĠĠĠĠĠĠĠĠĠĠĠĠĠĠĠĠĠĠĠĠĠĠĠĠĠĠĠĠĠĠĠĠĠĠĠĠĠĠĠĠ Ġ
ĠAustral ia
Ġc b
ĠN at
Ġsuper ior
ogen ic
ĠC LI
æ į
Ġran d
Ġcomp rehen
n ested
Ġcl i
bul let
Ġpul monary
activ ate
Over ride
Ġtrans formed
L ock
Ġ ÑĤ
Text Field
Ġclo sely
con nections
Ġpar as
Ġf resh
Ġ rib
Ġw el
u ing
ĠL ink
ĠFran ce
a des
Ġs sl
Ġh ousing
index es
Â ´
D river
in ja
Ġme eting
Ġ# :
b asis
000 3
Ċĉĉĉĉ ĉĉ
CA DE
sk y
å ĩ
m ysql
Ġab ort
Ġs it
an ded
do i
ĠPat ients
Ġ ĠĠĠĠĠĠĠĠĠĠĠĠĠĠĠĠĠĠĠĠĠĠĠĠĠĠĠĠĠĠĠĠĠĠĠĠĠĠĠĠĠĠĠĠĠĠĠĠĠĠĠĠĠĠĠĠĠĠĠĠĠĠĠĠĠĠĠĠĠĠĠĠĠĠĠĠĠĠĠĠĠĠĠĠĠĊĠ
Ġap preci
s z
Ġmo ves
Ġav g
Ġspecific ity
inter faces
Â ¾
Ġmod ern
ĠDec imal
Ġfunct ools
ĠEx perim
Ġf usion
ist a
Ġw ind
ps y
Ġal leg
Ġ19 91
ĠSh ould
Ġfin ds
RE F
de ps
Ġo dd
ĠD own
Ġfra ud
ĠA ccess
Ġ= \
ĠP lan
Ġref ers
Descript or
Ï ĩ
A rea
ĠK E
Ġ ĠĠĠĠĊĠĠ
run s
Ġprec ise
l ag
ous ly
Ġpro duces
Ġcomp l
C Y
ns ure
ĠO h
Pro gramming
Ġ1 16
Ġd ash
hentic ated
Ġin variant
Ġ ĠĠĊĊĠ
Ġact or
Ġd op
19 94
Ã ¢
Ġinf inite
Pr ice
Ex press
Att ributes
Ġsymp y
ĠGener ate
Ġreg ulatory
d ra
Ġsur rounding
ĠD R
ĠL IMIT
: ],
Me an
ask et
AD DR
lib s
N ULL
Ġpr ison
en coded
Ġ-------- ---
Ġinter view
Ġduplic ate
Ġconst itutional
() }
Ġn u
Ġocc as
Ġdiag onal
gra y
Ġindu stry
ĠE lement
$ ^{
CLUD ING
Ġwait ing
Ġessent ially
group by
ar range
P op
ut ter
Ġsec ure
ok ies
Ġdire ctions
Ġturn ed
Ġtrans itions
T L
Ġcomplex es
let ter
_ +
ĠS ession
Al most
ĠC ount
Ġup grade
S PE
< <
Ġdis patch
Ġreport ing
ĠA F
Ġexpan ded
S uccess
Ġpart ners
Ġpresent ation
Ġ ĠĠĠĠĠĠĠĠĠĠĠĠĠĠĠĠĠĠĠĠĠĠĠĠĠĠĠĠĠĠĠĠĠĠĠĠĠĠĠĠĠĠĠĠĠĠĠĠĠĠĠĠĠĠĠĠĠĠĠĠĠĠĠĠĠĠĠĠĠĠĠĠĠĠĠĠĠĠĠĠĠĠĠĠĠĠĊĠ
Pref ix
] ',
se en
le af
inger print
ĠO K
i ers
Ġpregn ancy
Ġinterpre ted
r ics
Ġ% .
(" [
k b
lin space
air s
comm unic
ĠCan ada
Se cond
ot on
',' ','
ĠG a
$ ^{-
A ng
Ġa mp
Ġansw ers
reg ulation
Back ground
Ġ1 18
W T
{} ".
Ġdivers ity
Ġcont ributed
trans l
ĊĠĠĠĠĠĠĠĠĠĠĠĠĠĠĠĠĠĠĠĠĠĠĠĠĠĠĠĠĠĠĠĠĠĠĠĠĠĠĠĠĠĠĠĠĠĠĠĠĠĠĠĠĠĠĠĠĠĠĠĠĠĠĠĠĠĠĠĠĠĠĠĠĠĠĠĠĠĠĠĠĠĠĠĠĠĠĠĠĠĠĠĠĠĠĠĠĠĠĠĠĠĠĠĠĠĠĠ Ġ
AT CH
ver ts
C ap
form ula
Ġat tract
FI EL
al g
in formation
é Ģ
resourceGroup Name
Ġtr ig
Ġre plication
ĠLou is
p f
t un
MO ESM
ci pl
I ME
Ġrapid ly
Ġproceed ing
Ġdo or
Ġqu eries
row se
Ġvalid ity
he p
Î ´
============ =
č ĊĠĠĠĠĠĠĠĠĠĠĠĠĠĠĠĠĠĠĠĠĠĠĠĠĠĠĠ
Ġenzy mes
Node s
apt ic
Ġpl ates
Ġsub scription
w alk
Ġsp ot
G EN
Ġ-------------------------------- ----------------
am ic
Ġa ugment
G rad
in et
ĠSe ver
Ġ ĠĠĠĠĠĠĠĠĠĠĠĠÂł
id al
Ġe ast
j ax
mig rations
ĠSe lect
Gener al
ot ation
P ublic
ran ged
Ġpeak s
Ġb urn
Ġb attery
su ite
Ġsatisf ied
B F
Ġadmin istered
Ġchallen ges
Ġp ub
e ve
* (-
Ġ19 83
LO GGER
ĠTh omas
... )
IN ST
re ak
.* ]{}
Ġdiagno sed
je ctions
Ġmitochond rial
Ġreli able
Ġb ul
est er
ĠWill iam
sh uffle
Ġr is
Ġinequal ity
Ġspe ech
Ġleg isl
Ġ ĠĠĠĠĠĠĠĠĠĠĠĠĠĠĠĠĠĠĠĠĠĠĠĠĠĠĠĠĠĠĠĠĠĠĠĠĠĠĠĠĠĠĠĠĠĠĠĠĠĠĠĠĠĠĠĠĠĠĠĠĠĠĠĠĠĠĠĠĠĠĠĠĠĠĠĠĠĠĠĠĠĠĠĠĠĠĠĊĠ
al a
Ġreg ener
Ġ Ñ
Ġnon linear
Ġm ob
product s
po inter
ĠTr ust
Ġphen otype
ag ree
$ ]{}
Ġ1 40
E l
Ġge l
ĠC L
un ion
Memb er
Ġcompri ses
ĠR A
__( **
}$ $\
. :
Ġso on
Ġinter ventions
inter pol
j k
@ @
Ġz o
F older
Ġvict im
Ġbro ken
å ľ
Ġch ole
Ġ) ;
f ed
t ran
Ġbar rier
Ġ ĠĠĠĠĠĊĠĠ
stud ent
" '
Ġang les
th al
Ġar row
Util s
12 9
Ġsc en
ĠH all
as m
x fe
FOR M
Un able
r ink
Ġtrack ing
Ġ10 5
cre en
> .
AT T
Ġs co
ĊĠĠĠĠĠĠĠĠĠĠĠĠĠĠĠĠĠĠĠĠĠĠĠĠĠĠĠĠĠĠĠĠĠĠĠĠĠĠĠĠĠĠĠĠĠĠĠĠĠĠĠĠĠĠĠĠĠĠĠĠĠĠĠĠĠĠĠĠĠĠĠĠĠĠĠĠĠĠĠĠĠĠĠĠĠĠĠĠĠĠĠĠĠĠĠĠĠĠĠĠĠĠĠĠĠĠĠĠ Ġ
Ġp print
Ġlib raries
g mail
l ings
Ġcon secutive
Ġ19 80
Ġkey words
Ġlo ader
Ġb ill
Ġsel l
Ġ1 29
Ġex haust
local e
th ree
Ġs pher
Ġm ount
ĠRe quired
ĠNot es
* =
Ġconfig urations
Ġman age
Ġg ateway
Ġinsu fficient
/ ",
Ġbe g
mo ment
ĠRe view
Ġth rom
Ġprint ing
Ġ ĠĠĠĠĠĠĠĠĠĠĠĠĠĠĠĠĠĠĠĠĠĠĠĠĠĠĠĠĠĠĠĠĠĠĠĠĠĠĠĠĠĠĠĠĠĠĠĠĠĠĠĠĠĠĠĠĠĠĠĠĠĠĠĠĠĠĠĠĠĠĠĠĠĠĠĠĠĠĠĠĠĠĠĠĠĠĠĠĊĠ
ĠS R
âĶĢâĶĢ âĶĢâĶĢ
~ )
Ġdef er
Ġm ist
at ype
Ġd d
ven ue
Ġside s
An other
Ġpolit ical
Init ial
pi red
Ġimp o
F urther
ĠAr ch
Type Id
ĠCo mple
ff t
Ġregard less
P layer
() );
IC ES
ĠI ts
Ġoriginal ly
S ite
Ġper mitted
Ġad en
im ately
Ġinvolve ment
Ġcap ital
Ġ= ================================================================
Ġuncertain ty
c ube
Auto Field
Ġth reat
ari an
ra ck
Ġn erve
al so
Ġtime zone
({ {\
Ġexhib ited
Ex ist
ĠUn it
Ġr hs
ĠÎ µ
process ors
re y
H ub
Ġ` ``
ĠPe ople
Ġtra ct
ent ropy
ĠCons ider
Ġat omic
ĠN ever
Ġre act
w i
ĠP I
ĠSe cret
real m
sol ve
Ġ6 00
13 7
co okie
DE X
Ġw al
dist ributed
Ġphosphory lation
Ġv ul
Ġvalid ated
w ill
Ġdefault dict
om b
Ġsystem atic
Ġf ish
s ime
Ġhard ware
Ġc rypt
m f
ĠAm endment
reed om
Ġserial ized
ii i
ĊĠĠĠĠĠĠĠĠĠĠĠĠĠĠĠĠĠĠĠĠĠĠĠĠĠĠĠĠĠĠĠĠĠĠĠĠĠĠĠĠĠĠĠĠĠĠĠĠĠĠĠĠĠĠĠĠĠĠĠĠĠĠĠĠĠĠĠĠĠĠĠĠĠĠĠĠĠĠĠĠĠĠĠĠĠĠĠĠĠĠĠĠĠĠĠĠĠĠĠĠĠĠĠĠĠĠĠĠĠ Ġ
: {
ĊĉĠ Ġ
Ġestim ator
Ġver dict
pe l
ĠRe present
st ation
h it
Ġvary ing
la de
ĠB ad
Ġt qdm
Ġdoc s
æ ī
de letion
Ġcommit ted
un used
h ave
SS L
i ams
Ġsur ve
Ġ ĠĠĠĊĊĠ
Ġ ĠĠĠĠĠĠĠĠĠĠĠĠĠĠĠĠĠĠĠĠĠĠĠĠĠĠĠĠĠĠĠĠĠĠĠĠĠĠĠĠĠĠĠĠĠĠĠĠĠĠĠĠĠĠĠĠĠĠĠĠĠĠĠĠĠĠĠĠĠĠĠĠĠĠĠĠĠĠĠĠĠĠĠĠĠĠĠĠĠĊĠ
ugh ter
Ġsub class
Ġf loor
ĠPar ameter
Ġcon form
Ġalter ed
S end
g as
Ġb py
sw ap
ĠC ho
Ġ ĠĠĠĠĠĠĊĠĠ
f an
sum er
k et
sens us
scrib ed
Ġdis s
dri ve
Ġle ak
cl usters
CRE ATE
ĠDe velopment
ĠCh ang
ST M
15 7
âĢ ¯
Ġconst it
Ġ10 9
bat ches
s il
valid ators
Ġnot ation
. $
PR ESS
Ġcl aimed
pro g
En coder
an ced
ĠS ave
m os
ad der
Ġl abeled
Ġpar sing
Ġ1 14
Ġj ump
Ġconver gence
ster ol
Wh ile
f ar
id ity
Ġan s
Ġext ensive
Ġm arg
Ġdecl ared
ĠDe vice
: /
Ġl umin
mis sed
os itory
po le
d id
cor r
ä¸ º
Ġp el
Se gment
Ġprocess or
sim ilar
20 2
12 1
Ġpract ical
Ġcom ing
in cluding
ĠS pr
ump tions
. ]
S top
IN PUT
Ġt imer
ic it
Ġ10 3
Ġfib ro
Opt im
bib r
Ġrel ay
SE D
coordin ates
tod ay
g c
======== ===
15 5
Ġrad ial
Ġinterpol ation
django project
iter items
Ġco ords
sub scriptions
ĠDe lete
ĠEnv ironment
gen es
S kip
Ġth resh
Ġimport ed
Ġ1 33
Ġth row
17 5
per p
Ġcred it
ion Error
ĠTh ree
Ġ âĪ
Ġequ ilibrium
ĠV AL
ĠP L
capt ure
Ġ1 24
Ġs sh
Ġbelie ved
ĠCon nection
Ġimm unity
utor ial
Ġs oc
de mo
vis ual
Ġsyn chron
Ġ ĠĠĠĠĠĠĠĠĠĠĠĠĠĠĠĠĠĠĠĠĠĠĠĠĠĠĠĠĠĠĠĠĠĠĠĠĠĠĠĠĠĠĠĠĠĠĠĠĠĠĠĠĠĠĠĠĠĠĠĠĠĠĠĠĠĠĠĠĠĠĠĠĠĠĠĠĠĠĠĠĠĠĠĠĠĠĠĠĠĠĊĠ
p w
ME M
Â į
ide os
sime q
Ġcat alog
ce ut
SER VER
ĠS ociety
EV ENT
A X
Ġn it
liter als
estim ator
Ġpro x
Ġnormal ization
sol ver
gress ion
ell ing
Ġabund ance
ĠH z
Ġt iming
,\ ,
Ġhim self
I ds
ĠA G
ĠP al
E F
ĊĠĠĠĠĠĠĠĠĠĠĠĠĠĠĠĠĠĠĠĠĠĠĠĠĠĠĠĠĠĠĠĠĠĠĠĠĠĠĠĠĠĠĠĠĠĠĠĠĠĠĠĠĠĠĠĠĠĠĠĠĠĠĠĠĠĠĠĠĠĠĠĠĠĠĠĠĠĠĠĠĠĠĠĠĠĠĠĠĠĠĠĠĠĠĠĠĠĠĠĠĠĠĠĠĠĠĠĠĠĠ Ġ
Ġsign s
ĠP AR
il ine
13 3
os omal
Re LU
U G
r strip
IS A
Almost Equal
cal culate
CAS CADE
Ġtrans late
=" #
__ ['
Ð½ Ð¾
or i
cap acity
ĠM any
} ))
CH AN
h uman
s is
Ġplay ing
Method s
ĠT emp
Ġdefect s
un ately
ict ion
Ġreg istration
ten ant
Ġac compl
ĊČĠĠĠĠĠĠ Ġ
tre at
De bug
Ġn est
Env ironment
mis sible
Ċ ĊĠĠĠĠĠĠĠĠĠ
Ġ1 32
ĠT op
min utes
ĠSE LECT
ĠTech nology
Ġra il
AR M
z illa
p ix
Ġ ĠĠĠĠĠĠĠĊĠĠ
Ġcomp ress
in n
go al
U V
f w
Ġ10 6
ĠAtt orney
ĠF rank
erg ic
Ġport s
r n
ĠT YPE
Ġfl ip
á Ģ
Ġveh icles
ĠH uman
Ġadd ressed
! ')
UT F
ĠCont ent
}} _{\
ĠS a
ist ers
ĠF lor
Ã ±
ĠH O
te le
Ġdri ven
WAR NING
H AND
de precated
Ġattemp ted
ĠT arget
Ġre jected
Ġvari ability
Ġp ag
transform s
Ġvac uum
M er
Â ¨
0 24
Ġinter section
ĠF ort
ĠHamilton ian
IL D
Ġfluct u
UP DATE
Ġtre es
Ġkid ney
dest roy
Ġv irt
D at
Ġw ife
Ġ ĠĠĠĠĠĠĠĠĠĠĠĠĠĠĠĠĠĠĠĠĠĠĠĠĠĠĠĠĠĠĠĠĠĠĠĠĠĠĠĠĠĠĠĠĠĠĠĠĠĠĠĠĠĠĠĠĠĠĠĠĠĠĠĠĠĠĠĠĠĠĠĠĠĠĠĠĠĠĠĠĠĠĠĠĠĠĠĠĠĠĠĊĠ
N V
Inter val
Ġinj uries
des ign
Ġvent ric
Ġgl ut
ub ic
ĠB atch
M ove
M igration
Ġo lig
ĠCon v
Ġcomplic ated
ĠP lot
co up
Ġ ions
ac et
R PC
ĠA TT
Ġinstall ation
Ġ&= &
ĠP BS
bet ween
or er
sol id
\_ [
Ġlarge ly
T X
ver tex
Ġcontr ary
Ġ ĠĠĠĠĊĊĠ
ĠMag icMock
Ġth umb
as sets
ĠAc count
Ġs s
cell ent
Ġsens ors
Ġ'/ '
Ġconcer ns
vert ices
init ely
ĠS l
constraint s
âĢ ¢
Ġ ĠĠĠĊ
ip ed
C AC
Ġe lection
L i
/> .
O IN
r ick
t cp
Ġinter ference
weight ed
ĠS ER
g ro
h w
19 90
Ġnumer ic
Ġf irm
pt ic
TY PES
duc ation
"} ;
Ġpro hib
Ġ1 11
Ġac quisition
le ments
Ġag ed
con j
Ġarg ued
Ġ ĠĠĠĠĠĠĠĠĠĠĠĠĠÂł
Ġ( âĢľ
Ad apter
__ _
Check er
ĊĠĠĠĠĠĠĠĠĠĠĠĠĠĠĠĠĠĠĠĠĠĠĠĠĠĠĠĠĠĠĠĠĠĠĠĠĠĠĠĠĠĠĠĠĠĠĠĠĠĠĠĠĠĠĠĠĠĠĠĠĠĠĠĠĠĠĠĠĠĠĠĠĠĠĠĠĠĠĠĠĠĠĠĠĠĠĠĠĠĠĠĠĠĠĠĠĠĠĠĠĠĠĠĠĠĠĠĠĠĠĠ Ġ
Ġel astic
Ġmer ely
Ġt ens
ĠÎ º
valid ator
Ġj u
Dis cussion
ateg or
lott ed
Ġg ather
Ġquick ly
Ġappro val
ĠCh ampion
activ ated
Ġcult ured
check s
')) )
Ġsubject ed
mple ments
ĠM iss
Ġpan cre
Ġexperi enced
13 6
v t
I p
re tri
h yp
P ower
fil led
v irt
E q
assertIs Instance
ĠJoh nson
ex pl
Ġcompat ibility
ph il
Ġinter faces
graph s
Ġpolym orph
+ =
Ġ ĠĠĠĠĠĠĠĠĠĠĠĠĠĠĠĠĠĠĠĠĠĠĠĠĠĠĠĠĠĠĠĠĠĠĠĠĠĠĠĠĠĠĠĠĠĠĠĠĠĠĠĠĠĠĠĠĠĠĠĠĠĠĠĠĠĠĠĠĠĠĠĠĠĠĠĠĠĠĠĠĠĠĠĠĠĠĠĠĠĠĠĠĊĠ
hook s
Ġ ĠĠĠĠĠĠĠĠĊĠĠ
Ġvolume s
Ġf aces
Ġclass ifier
Ġ1 22
ĠAtt ributes
ĠB UT
ost on
Ġch ip
dete ction
ĠG H
Ġdistingu ish
Â ¹
Ġmanufact urer
n f
GF R
Se quential
x path
Reg ion
Ġdescrib ing
ĠC he
[ ...,
Ġtopo logy
k ers
Ġleg end
Ġcomm ission
spec ies
!\ !\
Ġv on
ĠD ue
Ġdeli vered
Ġintra cellular
ym metric
Run ner
Ġ( _
Ġprint ed
Ġgrow ing
ä¸ ª
de tach
out file
Ġab sent
Ġ" :
am i
ge om
Ġexplo re
symbol s
Ġh i
ĠMich ael
MB ER
c as
TRA IN
alo ader
ell ig
Ġsol ver
19 93
Ġad ds
Ġatm osph
ĠY es
Ġcl ients
Ġde position
"" ")
get env
ĠD IS
ĠK ore
Ġfib ers
ĠS pe
vers ation
ĠG lobal
Ġex e
L AB
Ġcon tour
e ven
Ġro uter
gen esis
Ex it
ĠCent ral
Ġu i
Ġcr ucial
m ma
S W
Ġp u
Ġpurch ase
Ġg uid
Ġtrain er
ad or
Ġback ward
= __
Us age
al ignment
ced ure
ĠPri or
Î Ń
me l
es ity
Ġarg ue
rol led
he et
de li
ĠP etition
Ġaffect s
Ġ| \
Ġspec ification
to o
Ġrout ine
G ER
cent ral
Ġsh orter
ĠN ext
ĠP ower
Ġcon volution
Ġ ĠĠĠĠĠĊĊĠ
ĠBo olean
Ã ¬
ip art
determin ed
to x
ĠSec urity
)) ]
v ature
Ġb ases
Ġcons ult
13 4
class ifier
m ust
Ġconnect ing
Ġde e
we ak
In formation
aw ait
Ġin line
ĠG PU
Ġ ĠĠĠĠĠĠĠĠĠĠĠĠĠĠĠĠĠĠĠĠĠĠĠĠĠĠĠĠĠĠĠĠĠĠĠĠĠĠĠĠĠĠĠĠĠĠĠĠĠĠĠĠĠĠĠĠĠĠĠĠĠĠĠĠĠĠĠĠĠĠĠĠĠĠĠĠĠĠĠĠĠĠĠĠĠĠĠĠĠĠĠĠĠĊĠ
al gorithm
ĠM ary
Ġbot o
Ġad mission
ĠC ore
Ġf av
Ġe state
ref s
Ġcult ures
} );
cre ation
ĊĉĠĠ Ġ
Ġfol d
i mplement
ĠC P
in ction
red is
]) ;
x ed
Time stamp
ul se
Ġepit helial
Ġw orth
Ġmin ute
p matrix
ĠV ector
Ġ-------- -
ĊĠĠĠĠĠĠĠĠĠĠĠĠĠĠĠĠĠĠĠĠĠĠĠĠĠĠĠĠĠĠĠĠĠĠĠĠĠĠĠĠĠĠĠĠĠĠĠĠĠĠĠĠĠĠĠĠĠĠĠĠĠĠĠĠĠĠĠĠĠĠĠĠĠĠĠĠĠĠĠĠĠĠĠĠĠĠĠĠĠĠĠĠĠĠĠĠĠĠĠĠĠĠĠĠĠĠĠĠĠĠĠĠ Ġ
Ð¾ ÑĢ
Ġ" $
require ments
Ġup take
ĠP erson
13 8
â ł
Ġp neum
mask ed
Ġ ĠĠĠĠĠĠĠĠĠĊĠĠ
ĠM emb
Ġan terior
ĠEng land
ä ¿
Ġ1 0000
Ġsample d
writ ten
ĠT ur
ĠF ollowing
col on
Ġdisclo ses
Ġre med
Ġfit ting
is son
an te
Ġinterest ed
Ġgrad ients
Con st
Ġh int
he ter
Ġcapt ured
click ed
åı ĸ
Ġcons umer
Ġl anguages
Ġm asses
e fficient
up grade
Ġh op
DI RECT
============ ===
Ġbutton s
E MAIL
Ġswitch ing
Ġf r
m M
Ġben chmark
rece ived
ĠRep ublic
Ġpro posal
ĠP rint
CC ESS
ro bot
ne cess
Ġendot helial
a ur
Ġoper ate
ra ms
ĠRe ference
Ġfile path
S m
ĠT NF
Ġlocal ization
um s
Ġcomb ine
Ġdig est
od o
Ġformat ted
in fer
MPL ES
Ġsub stance
Ġsee k
Ġf h
Ġdepart ment
Ġin struct
f ollow
y lene
Ġk ill
at oms
EN ABLE
` )
Ġsub group
ij n
ab etic
ç Ľ
z il
Ġcompens ation
) }(
âĢ² -
DE D
Ġpres erve
Ġo g
R F
Ġin jected
Ġenerg ies
Ġutil ized
Ġ ĠĠĠĠĠĠĠĠĠĠĠĠĠĠĠĠĠĠĠĠĠĠĠĠĠĠĠĠĠĠĠĠĠĠĠĠĠĠĠĠĠĠĠĠĠĠĠĠĠĠĠĠĠĠĠĠĠĠĠĠĠĠĠĠĠĠĠĠĠĠĠĠĠĠĠĠĠĠĠĠĠĠĠĠĠĠĠĠĠĠĠĠĠĠĊĠ
Ġdo ses
Ġplace ment
in ant
2 25
Ġas sets
! "
ĠInd ian
0 30
ot ropic
ĠM icro
ĠB it
Y our
Ġmix ing
velo pe
Ġprefer ably
à ´
ĠÎ Ķ
pol l
GRO UP
'] ):
ĠPar se
ĊČĠĠĠĠĠĠĠ Ġ
ĠL inux
T er
or ne
Ġpre lim
Ġvo ice
uber net
T AG
IC ATION
att n
Ġas ynchronous
Ġre mark
widget s
Ġimp osed
ph rase
Ġim mediate
ĠAp pro
Ġ ul
ĊĠĠĠĠĠĠĠĠĠĠĠĠĠĠĠĠĠĠĠĠĠĠĠĠĠĠĠĠĠĠĠĠĠĠĠĠĠĠĠĠĠĠĠĠĠĠĠĠĠĠĠĠĠĠĠĠĠĠĠĠĠĠĠĠĠĠĠĠĠĠĠĠĠĠĠĠĠĠĠĠĠĠĠĠĠĠĠĠĠĠĠĠĠĠĠĠĠĠĠĠĠĠĠĠĠĠĠĠĠĠĠĠĠ Ġ
mat mul
ubernet es
Ġmicros copy
Ġ" *
F ields
on om
Sign al
Ġmax im
Ġr tol
ct l
tag on
am o
Ġtarget ed
inc ipal
Ġ19 89
Ġclo sing
Ġcoll abor
Cre ated
Ġstop ped
ĠE th
ĠEn ter
ub y
ĠD ay
t it
ine ment
Ġc d
æĹ ¶
ĠOn ce
)\ ,
ĠN F
infl ammatory
16 5
Ġgro unds
Ġs lope
R GB
Ð ±
A E
Ġtrans actions
Ġpresent s
Ġj unction
g uid
y roid
Ġ1 34
og onal
Ġ< -
$ ).
ur able
Ġreg ime
) _{
gr pc
str ic
comm unity
ĠB asic
Ġindex es
U ES
ĠP ut
Ġsc ientific
h bar
Ġ ĠĠĠĠĠĠĊĊĠ
k k
Ġre ject
Ġsu ite
ok ing
Ġ ĠĠĠĠĠĠĠĠĠĠĊĠĠ
Ġpurch ased
ĠMed ic
Ar ch
Ġp addle
Ġdep ict
ĠH ol
l g
Ġper haps
Ġdec ide
Ġr ational
Ġw arm
Ġunder went
å °
line Keyboard
H as
Ġatt enu
GF P
Ġcl ub
AD D
Ð¾Ð ´
Ġchem otherapy
Ġ19 88
Ġ ĠĠĠĠĠĠĠĠĠĠĠĠĠĠĠĠĠĠĠĠĠĠĠĠĠĠĠĠĠĠĠĠĠĠĠĠĠĠĠĠĠĠĠĠĠĠĠĠĠĠĠĠĠĠĠĠĠĠĠĠĠĠĠĠĠĠĠĠĠĠĠĠĠĠĠĠĠĠĠĠĠĠĠĠĠĠĠĠĠĠĠĠĠĠĠĊĠ
ome ter
ĠAp pend
Ġrad ical
Ġdecomp osition
gu ide
phen e
Ġcirc ular
ch rom
Ġun expected
M F
Ġeas ier
ĠF er
vis or
ch ars
{} '.
Ġ Å
sub class
ri an
Ġ ice
G s
Ġphys iological
comp ress
Ġenviron ments
late x
ĠA B
ĠTe mplate
Ġm am
d ark
out s
Ġcav ity
Ċĉ Ċ
ĠCon sequently
ĠT oken
s an
Ġcor ner
19 92
ĠSpec ifically
Â ĳ
15 2
[ **
Ġnucle us
Ġfin ish
ĠH D
UR T
ÑĢ Ð°Ð
En able
s b
Ġentire ly
ĠWh ere
hav ior
plan es
roll ment
ĠCon nect
I MP
ĠRe al
ME D
Ġap ps
tr unc
Ġd ust
Fl ags
dep loyment
Î ®
Ġc ust
str ong
res net
Ġ-------- -----
t hen
Ġte ar
Ġgener ates
Ġpred omin
Ġan sible
t g
ĠQuant um
Ġcirc uits
Ġgalax y
out ube
] '
/ #
LE V
in voke
& -
log en
Pat tern
data frame
s park
Ġ ĠĠĠĠĊĠĠĠĠĠĠĠ
v ic
g ian
Point s
T V
Ġsmo king
Ex pr
Ġs ales
Ġwire less
Ġ1 26
Ġ10 8
14 3
] "
: ')
c art
Ġcol d
ĠTest s
17 0
ĠL ie
Ġ4 01
Ġidentify ing
Ġfac ility
i verse
S IG
Ġsimilar ly
big g
ä¸ į
Ġpar agraph
ĠCh ange
ri ends
Ġpolar ization
ĊĠĠĠĠĠĠĠĠĠĠĠĠĠĠĠĠĠĠĠĠĠĠĠĠĠĠĠĠĠĠĠĠĠĠĠĠĠĠĠĠĠĠĠĠĠĠĠĠĠĠĠĠĠĠĠĠĠĠĠĠĠĠĠĠĠĠĠĠĠĠĠĠĠĠĠĠĠĠĠĠĠĠĠĠĠĠĠĠĠĠĠĠĠĠĠĠĠĠĠĠĠĠĠĠĠĠĠĠĠĠĠĠĠĠ Ġ
Ġimplic it
Ġprotocol s
Ġfun ds
à ¥
Ġcomp anies
Ġperiod ic
cent ury
in strument
ĊČĠĠĠĠĠĠĠĠ Ġ
Ġquant ities
M emory
19 0
:` .
in verse
Ġfe as
"" ",
Ġser vers
I i
ER Y
IM AGE
mon ic
ver sely
aut om
Ġcardio vascular
R C
Ġcol i
Ġer red
Ġ ĠĠĠĠĠĠĠĠĠĠĠĠĠĠĠĠĠĠĠĠĠĠĠĠĠĠĠĠĠĠĠĠĠĠĠĠĠĠĠĠĠĠĠĠĠĠĠĠĠĠĠĠĠĠĠĠĠĠĠĠĠĠĠĠĠĠĠĠĠĠĠĠĠĠĠĠĠĠĠĠĠĠĠĠĠĠĠĠĠĠĠĠĠĠĠĠĊĠ
mode s
Ġlin ux
ĠOS Error
ĠC C
ĠD ATA
Ġfil ing
Class ifier
Ġrepresent ations
Ġwork space
ĠMA X
Ġadvan tages
ĠInit ial
Ġst ellar
re cogn
AN Y
Ġult ra
Ġpost operative
ass ignment
x ac
I ES
Ġrecon struction
Cho ice
ĠC ap
Ġs cheduler
Ġpre vention
Ġmask ed
Ġgen omic
Ġfilename s
iox id
ĠAdd ress
at i
p ause
f m
Ġmac ro
iv ot
Ä Ļ
ar ith
he sion
Ġdep loyment
sc roll
ig er
Ġ ĠĠĠĠĠĠĠĊĊĠ
' -
c riter
[ ~
Ġre ly
tra cker
st aff
Ġbel ongs
cl ause
f ish
* :
l ament
uns queeze
ĠA cade
tr ation
en na
Ġsystem ic
Ġin ject
Ġ ĠĠĠĠĠĠĠĠĠĠĠĊĠĠ
depend ency
Ġcal ibration
Ġf urn
Ġb id
co ef
_ '
Ġdo cker
Ġgra ft
dete ct
Ġblock ing
Ġfrequ ent
S plit
ĠA C
19 8
b el
ĠFra me
Ġsynt hetic
O w
Ġcon ce
exec utable
Ġa ds
Ġ ĠĠĠĠĠĠĠĠĠĠĠĠĠĠÂł
y ou
e ager
Ġsp ent
id av
+ (
Ġreason ably
Ġde letion
15 9
2 64
Ġcon clusions
Ġdiffic ulty
ĠE num
Ġassoci ations
17 7
temp t
Ġadapt ed
ĠCh annel
Ġf c
UN K
") ]
Ġco in
Ġk it
c ircle
f our
Ġph i
mention ed
38 4
ever y
Ġdiscrimin ation
Ġcompar isons
async io
ĊĠĠĠĠĠĠĠĠĠĠĠĠĠĠĠĠĠĠĠĠĠĠĠĠĠĠĠĠĠĠĠĠĠĠĠĠĠĠĠĠĠĠĠĠĠĠĠĠĠĠĠĠĠĠĠĠĠĠĠĠĠĠĠĠĠĠĠĠĠĠĠĠĠĠĠĠĠĠĠĠĠĠĠĠĠĠĠĠĠĠĠĠĠĠĠĠĠĠĠĠĠĠĠĠĠĠĠĠĠĠĠĠĠĠĠ Ġ
ch unks
Ġr ich
Ġm L
St ats
ci sely
urch ase
Ġco inc
Ġ ĠĠĠĠĠĠĠĠĠĠĠĠĠĠĠĠĠĠĠĠĠĠĠĠĠĠĠĠĠĠĠĠĠĠĠĠĠĠĠĠĠĠĠĠĠĠĠĠĠĠĠĠĠĠĠĠĠĠĠĠĠĠĠĠĠĠĠĠĠĠĠĠĠĠĠĠĠĠĠĠĠĠĠĠĠĠĠĠĠĠĠĠĠĠĠĠĠĊĠ
Ap pend
Ġsent ences
PASS WORD
ĠA lex
File Name
Ġn ine
Ġpse udo
æ ŀ
fort unately
read line
clean up
$ _{
Z Z
ĊČĠĠĠĠĠĠĠĠĠ Ġ
å Į
Ġre in
man age
Ñ ħ
ON T
ĠÐ½ Ð°
13 9
ĠM igration
Ġhe ating
Ġhe p
Ġdomin ant
Â ¡
ut s
l f
P redict
Ġun iversal
v d
ĠAuth ors
iter ation
EN V
ĠCOPY RIGHT
M a
A m
Lo op
IT S
Ġdoub t
Ġr ng
g h
Ġtoken izer
Ġpriv ile
no v
ilo so
ĠDef ine
Ġcor pus
ĠC ross
s ites
ĠE D
â Ĺ
Ġmodel ing
ic ago
Ġtrans mitted
ĠMat rix
) `
T hat
Ġtermin ation
Ġdown stream
Ġse ctor
Ġcool ing
Ġisol ates
ob ar
ĠB et
Ġpers ist
ament e
irc raft
N H
ben chmark
list ener
Ġmat hemat
z h
he ses
Al low
abstract method
it ers
G ame
ĠPa ul
ĠT ri
pred s
ĠJ ob
ĠPro perty
Ġroot s
Ġp aint
Dec imal
L ER
Ġsitu ations
ĠR out
Â ķ
ĠS un
Ġx range
ĠSpec ial
Ġsess ions
o ct
iz ard
0 27
ĠT itle
Ġmur der
^{ +
Ġt il
Ġsc anning
O D
assert AlmostEqual
Ġal igned
ĠAfric a
CLI ENT
Ġ ĠĠĠĠĠĠĠĠĊĊĠ
Ġf Ã¶r
ad v
ĠJust ice
Ġform ats
19 91
voc ation
ran ges
Ġcop ied
W IN
ĠG ets
mon ths
Ġmanufact uring
f h
dec imal
clo sure
let es
u j
ve h
Ġintro duction
le ting
Ġ ĠĠĠĠĠĠĠĠĠĠĠĠĠĠĠĠĠĠĠĠĠĠĠĠĠĠĠĠĠĠĠĠĠĠĠĠĠĠĠĠĠĠĠĠĠĠĠĠĠĠĠĠĠĠĠĠĠĠĠĠĠĠĠĠĠĠĠĠĠĠĠĠĠĠĠĠĠĠĠĠĠĠĠĠĠĠĠĠĠĠĠĠĠĠĠĠĠĠĊĠ
Ġsequ ential
Ġdetermin es
Ġf its
Ġas p
Ġcon sequences
b es
in place
Ġ è
F UN
Ġparticip ant
Ġs un
Ġmot if
p aper
Ġex cellent
I mp
C redentials
me ans
ant i
integr ation
C md
in ventory
Ġcent ers
ĊČĠĠĠĠĠĠĠĠĠĠ Ġ
Ġd anger
ĠU sed
Ġ ĠĠĠĠĠĠĠĠĠĠĠĠĊĠĠ
Ġch unks
W ill
b osity
c mp
plic ations
prec ation
ĠT ag
ĠD em
Ġd p
25 4
over lap
dim ensions
Ġt urb
Ġrandom ized
for all
37 5
P F
Ġperman ent
LI ED
or o
ain s
ĠIn vention
ĠV irtual
B ased
Ġsp ring
The se
ĠInit ialize
ĊĠĠĠĠĠĠĠĠĠĠĠĠĠĠĠĠĠĠĠĠĠĠĠĠĠĠĠĠĠĠĠĠĠĠĠĠĠĠĠĠĠĠĠĠĠĠĠĠĠĠĠĠĠĠĠĠĠĠĠĠĠĠĠĠĠĠĠĠĠĠĠĠĠĠĠĠĠĠĠĠĠĠĠĠĠĠĠĠĠĠĠĠĠĠĠĠĠĠĠĠĠĠĠĠĠĠĠĠĠĠĠĠĠĠĠĠ Ġ
Ġro utes
Trans port
Ġcort ex
Ġasymp tot
TR AN
) ^{-
ĠB al
ĠInter net
Ġinter fer
Ġw rapped
ob ic
ro i
ĠS ET
DO C
ĠWIT H
Ġiter able
Ġcoron ary
Ġel ig
ĠOff ice
ĠM ex
M IS
lo p
An aly
N ONE
Event s
Ġe g
AR G
ent h
M ESS
en za
sl ant
DE LETE
Ġdimension al
Ġcal ib
a que
class ification
lo v
C enter
Ġcondition al
v v
Ġt ill
Ġinhib ited
ĠM ust
å Ģ
r nn
ak a
on omy
ĠP K
Ġemploy er
o mp
key words
D est
Ġmod ifications
é Ĺ
2 32
Ġ ud
Ġappe als
ay lor
A nt
æľ ī
"] ]
TE MPL
w ind
ĠPro f
ol in
Ġmark s
Ġver ified
Ġb ridge
20 5
reat ment
sv g
cre ts
Ġ1 35
/ âĪĴ
Ġinitial ized
e led
ik i
Ġclo sure
Ġpharma co
Ġfac ilities
Ġoper ated
Ġ-------- ----
sec ure
Ġgeneral ized
e se
Ġoxid ative
ĠÎ ´
cy cl
Ġres in
Â Ĩ
ĠLoc ation
ip ients
Ġgrow n
L ike
Ġb es
Â Ķ
Ex perim
14 8
Ġarrange ment
Ġcontact s
dat as
li as
T ABLE
15 6
=_ ("
obj s
O VA
Ġsol ar
Ġhypert ension
} `
Ġ ĠĠĠĠĠĠĠĠĠĠĠĠĠĠĠĠĠĠĠĠĠĠĠĠĠĠĠĠĠĠĠĠĠĠĠĠĠĠĠĠĠĠĠĠĠĠĠĠĠĠĠĠĠĠĠĠĠĠĠĠĠĠĠĠĠĠĠĠĠĠĠĠĠĠĠĠĠĠĠĠĠĠĠĠĠĠĠĠĠĠĠĠĠĠĠĠĠĠĠĊĠ
do es
Ġprotect ive
Ġdis ability
, *
Ġl st
ĠS A
we ep
Ġf re
ph al
Ġaggreg ate
Ġfor ced
ĠD AM
H H
Ġ ĠĠĠĠĠĠĠĠĠĊĊĠ
gather ed
Ġcoun ty
Ġfail ing
x ce
it ches
Ġ ë
Pro gram
icip ants
d as
ĠJ er
ĠL and
IS H
Ġdis advan
Ġar ranged
ĊČĠĠĠĠĠĠĠĠĠĠĠ Ġ
C ircuit
Ġpos session
are n
(" _
Ġa id
Ġpract ices
15 4
tick s
ĠL ike
Batch Norm
add on
mis c
Ġsh o
ig an
S B
Ġnan op
ĊĠĠĠĠĠĠĠĠĠĠĠĠĠĠĠĠĠĠĠĠĠĠĠĠĠĠĠĠĠĠĠĠĠĠĠĠĠĠĠĠĠĠĠĠĠĠĠĠĠĠĠĠĠĠĠĠĠĠĠĠĠĠĠĠĠĠĠĠĠĠĠĠĠĠĠĠĠĠĠĠĠĠĠĠĠĠĠĠĠĠĠĠĠĠĠĠĠĠĠĠĠĠĠĠĠĠĠĠĠĠĠĠĠĠĠĠĠ Ġ
arg max
ĠIter able
Ġve c
Ġelectro des
Ġsil icon
or b
rece ive
lock ed
Ġsc ience
Ġ ĠĠĠĠĠĠĠĠĠĠĠĠĠĊĠĠ
ss ue
Ġun pack
co verage
Ġbound aries
L V
An alysis
ĠT E
Ġ10 7
Â ²
i ant
Ġple a
Ġselect ive
Ġfacilit ate
r isk
Ġ19 87
Ġoptim ize
Ġch ance
top ics
In tegr
t aneous
OUT PUT
ap on
Ġproport ional
se x
row th
ĠE s
Ġup stream
Ġ{ :
chi at
---------------- ----
d ial
' %
ĠG old
Ġsim ulated
ol ine
Ġst ick
atell ite
ĠS ingle
Ġaccept able
Ġj s
Ġir radi
Pl ace
ĠE C
ran ce
Ġexp ensive
Ġst ores
ir th
Ġconst itute
it ance
Th anks
em ia
Ġin duces
dash board
Ġprob abilities
ro se
ĠOR DER
tx id
ag ers
R ound
Ġme l
p ic
T M
Ġis che
ct rl
exec utor
ĠNever theless
qu et
sess ions
ĠDes pite
contain ing
æį ®
s nap
=[ ]
V ari
ĠFlor ida
Ġp m
ĠVir gin
Ġlog ical
ra ps
æĺ ¯
Ġ ĠĠĠĠĠĠĠĠĠĠĠĠĠĠĠĠĠĠĠĠĠĠĠĠĠĠĠĠĠĠĠĠĠĠĠĠĠĠĠĠĠĠĠĠĠĠĠĠĠĠĠĠĠĠĠĠĠĠĠĠĠĠĠĠĠĠĠĠĠĠĠĠĠĠĠĠĠĠĠĠĠĠĠĠĠĠĠĠĠĠĠĠĠĠĠĠĠĠĠĠĊĠ
{} )
ĠReg ister
Ġt b
) ^{\
br as
el astic
D ig
Inst all
ap is
Ġk om
Ġc utoff
a ver
Ġm ild
sc ape
Per mission
Ġpen alty
Evalu ate
ĠM RI
Ġwar rant
Ġj et
Ġlong itudinal
h df
ut ch
ĠR ound
or ry
ĊĠĠĠĠĠĠĠĠĠĠĠĠĠĠĠĠĠĠĠĠĠĠĠĠĠĠĠĠĠĠĠĠĠĠĠĠĠĠĠĠĠĠĠĠĠĠĠĠĠĠĠĠĠĠĠĠĠĠĠĠĠĠĠĠĠĠĠĠĠĠĠĠĠĠĠĠĠĠĠĠĠĠĠĠĠĠĠĠĠĠĠĠĠĠĠĠĠĠĠĠĠĠĠĠĠĠĠĠĠĠĠĠĠĠĠĠĠĠ Ġ
Ġm ilitary
i ations
AM L
F ree
on ucle
T ry
work ing
ĠH en
ab ling
) *-
Ġspect ros
19 88
Ġw alk
is ol
OR DER
T hen
. ".
id ad
py torch
me tic
ic ation
("" )
Ġz eros
hy d
s py
Met ric
Ġin voice
ĠAl tern
Ġprelim inary
il ip
inf os
ut ures
ĠL LC
Pro to
U ns
P lan
Cond ition
ĠCO URT
ĠCol l
Ġtri p
ĠS yn
Ġco mo
By Id
SU B
HO ME
ard ing
Ġ ĠĠĠĠĠĠĠĠĠĠĊĊĠ
Ġâ Ķ
xi ety
ĠT ABLE
P lay
Ġ ĠĠĠĠĠĠĠĠĠĠĠĠĠĠĊĠĠ
ĠAfric an
ogene ity
k v
th ird
x ef
l v
Ġpre cisely
') (
Ġt gt
Ġ ĠĠĠĠĠĊĠĠĠĠĠĠĠ
ĠO k
Ġref lected
16 4
Ġdys function
s ix
ĠI FN
ENG TH
ĠL y
ĠA TP
Ġrel ig
normal ized
Ġb lot
Ġpsy ch
Ġst ations
Ġcon served
] ",
xf c
ash ion
15 3
Ġc ited
Ġc ampaign
)} {\
de sk
Med ia
CP U
incre ment
book s
ĠT V
* \
Ġsh ot
ynam ics
AT OR
Pol ler
20 9
Ġvill age
lo m
Ġscript s
xb f
Do uble
eq n
. ).
By te
Ġann ual
Ġdelay ed
Ġinit i
in her
Ġserial izers
Ġmach ines
" %
Ġme ant
Ġdr ink
Ġb s
am an
ap or
ĠF ed
ĠID s
ey e
ĠA pi
Ġg ray
Ġ ĠĠĠĠĠĠĠĠĠĠĠĠĠĠĠĠĠĠĠĠĠĠĠĠĠĠĠĠĠĠĠĠĠĠĠĠĠĠĠĠĠĠĠĠĠĠĠĠĠĠĠĠĠĠĠĠĠĠĠĠĠĠĠĠĠĠĠĠĠĠĠĠĠĠĠĠĠĠĠĠĠĠĠĠĠĠĠĠĠĠĠĠĠĠĠĠĠĠĠĠĠĊĠ
ĠM s
IC AL
re start
ĠC ard
iped ia
m ill
2 30
Ġconver ter
Run ning
Ġreli ability
Ġe psilon
Ġmy ocard
Ġinf ect
ĠÐ ·
Ġ' ':
AR GET
Ã¼ r
r ng
Ġpro pose
Ġcon current
Ġs and
pl ate
: (
Ġdown loaded
ĠÎ¼ g
Th ree
Ġ' '.
D b
ĠLO GGER
Ġfra gments
Ġt ur
Ġ19 86
at iv
M G
( ",
N ull
J S
mark down
. \[[@
è¡ ¨
Ġad i
X R
Ġeffect iveness
Ġex clusive
in son
ĠC ivil
, $
ĠLib rary
in ated
Ġjud icial
N EL
ĠST ATE
b ridge
an cing
ĠE S
Î ¸
ac iÃ³n
Ġvacc ine
ĊĠĠĠĠĠĠĠĠĠĠĠĠĠĠĠĠĠĠĠĠĠĠĠĠĠĠĠĠĠĠĠĠĠĠĠĠĠĠĠĠĠĠĠĠĠĠĠĠĠĠĠĠĠĠĠĠĠĠĠĠĠĠĠĠĠĠĠĠĠĠĠĠĠĠĠĠĠĠĠĠĠĠĠĠĠĠĠĠĠĠĠĠĠĠĠĠĠĠĠĠĠĠĠĠĠĠĠĠĠĠĠĠĠĠĠĠĠĠĠ Ġ
dt uple
ĠJ ones
45 6
E qu
ĠFL AGS
Ġ ĠĠĠĠĠĠĠĠĠĠĠĠĠĠĠÂł
fl uid
~ \
ĠGener ator
H I
ĠC ert
Ġfat ty
Ġactiv ate
at omic
Ġn itrogen
Ġth or
B LOCK
Ġelectron s
Ġspecim ens
Log in
Ġwas hed
Ġwhen ever
Ġse cretion
; ">
v y
Ġn args
Ġ19 85
tri p
ent y
ĠTe am
inst alled
ĠRes pon
Ġoccur ring
o OO
Ġf loating
an ish
Ġpept ides
Ġtox icity
n utrients
Ġg ar
ov a
Ġparticip ate
T imer
In v
Ġdesc ending
ad apt
(' [
ĠRes erved
Ġprincip les
Ġ ĠĠĠĠĠĠĠĠĠĠĠĊĊĠ
40 3
Ã¡ n
We ight
([ (
Ġprov iders
__ ))
) _
Ġmock er
Ġequal ly
ific ates
Ġ ĠĠĠĠĠĠĠĠĠĠĠĠĠĠĠĊĠĠ
Ġt d
Ġfilter ing
Ġenhance ment
Ġhand led
ç ½
}$ -
Y ear
Ġphys ics
Ġep ide
Ġle sion
Ġcan vas
ual ity
pol ym
token izer
19 9
TIME OUT
Ġcluster ing
op sy
ĠEV ENT
ĠWill iams
ä¸ Ń
Se lected
19 89
14 6
li um
CHE MA
Ġte ams
L iving
sub st
in el
c ro
F inally
d z
Ä ĩ
p rom
Ġ ĠĠĠĠĠĠĠĠĠĠĠĠĠĠĠĠĠĠĠĠĠĠĠĠĠĠĠĠĠĠĠĠĠĠĠĠĠĠĠĠĠĠĠĠĠĠĠĠĠĠĠĠĠĠĠĠĠĠĠĠĠĠĠĠĠĠĠĠĠĠĠĠĠĠĠĠĠĠĠĠĠĠĠĠĠĠĠĠĠĠĠĠĠĠĠĠĠĠĠĠĠĠĊĠ
C AP
ĠCl uster
ir ical
ĠC B
pro mpt
in ator
format ter
Y S
19 86
form er
Ġmet all
ĠC u
Ġtrans ient
Mult iple
Ġphot on
() ['
Â ĭ
Ġmorph ology
se gments
Ġsup pression
ĠQ ue
ĠCour se
Ġneut ron
int o
Ñ Ĩ
Ġg ir
trans ition
document s
Ġc t
) >
ĠIg G
u u
Ġisol ation
ĊĠĠĠĠĠĠĠĠĠĠĠĠĠĠĠĠĠĠĠĠĠĠĠĠĠĠĠĠĠĠĠĠĠĠĠĠĠĠĠĠĠĠĠĠĠĠĠĠĠĠĠĠĠĠĠĠĠĠĠĠĠĠĠĠĠĠĠĠĠĠĠĠĠĠĠĠĠĠĠĠĠĠĠĠĠĠĠĠĠĠĠĠĠĠĠĠĠĠĠĠĠĠĠĠĠĠĠĠĠĠĠĠĠĠĠĠĠĠĠĠ Ġ
ĠAn aly
Ġl s
Ġge o
callback s
Ġdim s
Ġpres crib
Ġdisp ersion
0 26
Ġr pc
c x
w an
Ä Ľ
Pro te
n ome
Ġc ube
ĊČĠĠĠĠĠĠĠĠĠĠĠĠ Ġ
os er
Ġaff inity
ĠL ow
RE T
ĠCon d
Ġinvas ion
DES CRIPT
Comp ute
F ROM
ĠT or
Ġf ung
Ġwh atever
ĠDict ionary
Ġ gest
ml ink
len ame
Ġillustr ated
Lib rary
Ġw er
i em
Ġle aving
Ġresid ue
log o
x p
), (
Ġcomm unities
Ġre dsh
Ġmask s
"" ,
Ġdig its
Ã Ł
16 9
). \
il bert
do ctype
Ñ İ
Ġder ive
Ġcomp eting
32 5
c z
Ä ±
Ġw aves
Ġdis missed
å ¯
it ored
Ġmacroph ages
ĠB ig
Ġbra cket
van ia
Â ħ
ĠM il
list en
Ġ1 36
ob servation
ĠÃ ¥
Ġvalid ator
Ġmedi ated
O oo
Ġ ĠĠĠĠĠĠĠĠĠĠĠĠĊĊĠ
æ Ŀ
pi res
C opyright
u los
ĠLine ar
VER T
Ġstand ing
ĠB utton
LE FT
Ġ1 44
æĸ ĩ
Ġpop ulated
ree k
Al ter
on or
os ite
b rain
domain s
18 8
ĠÐ ¼
Ġ ĠĠĠĠĠĠĠĠĠĠĠĠĠĠĠĠĠĠĠĠĠĠĠĠĠĠĠĠĠĠĠĠĠĠĠĠĠĠĠĠĠĠĠĠĠĠĠĠĠĠĠĠĠĠĠĠĠĠĠĠĠĠĠĠĠĠĠĠĠĠĠĠĠĠĠĠĠĠĠĠĠĠĠĠĠĠĠĠĠĠĠĠĠĠĠĠĠĠĠĠĠĠĠĊĠ
has is
Ġr h
An im
her ent
x df
xf d
Ex port
Ġide as
ĠS end
Ġpanel s
Ġd rain
å ½
j et
Ġmut ants
Ġ ĠĠĠĠĠĠĠĠĠĠĠĠĠĠĠĠĊĠĠ
B ound
olog ic
ĠB ot
ĠIn tegr
Id entity
Gener ic
ĠJ ose
osome s
dig it
comm od
m v
Str ategy
TER N
Ġtrack s
Ġsome what
Ġadjust ment
T ON
Ġoff ers
ĊĠĠĠĠĠĠĠĠĠĠĠĠĠĠĠĠĠĠĠĠĠĠĠĠĠĠĠĠĠĠĠĠĠĠĠĠĠĠĠĠĠĠĠĠĠĠĠĠĠĠĠĠĠĠĠĠĠĠĠĠĠĠĠĠĠĠĠĠĠĠĠĠĠĠĠĠĠĠĠĠĠĠĠĠĠĠĠĠĠĠĠĠĠĠĠĠĠĠĠĠĠĠĠĠĠĠĠĠĠĠĠĠĠĠĠĠĠĠĠĠĠ Ġ
RES ULT
Ġchain s
Add itional
Re al
Ġexec utable
aw a
p gen
2 10
map per
Ġconsider able
stat istics
ĠP S
Ġcarry ing
ĠRel ated
Ġsee king
sl ash
Ġc ro
Ġy ellow
em ale
ĠC up
ib ilities
hold ers
Ġr ating
Dist ribution
Ġ19 70
ĠH A
parent s
Ġdist urb
Ġaggreg ation
Ġlig and
Ġl ie
Ax is
Ġh az
Ġc amp
Ġmod ulation
u h
19 87
rag ma
Ġcoll ision
qu it
ole sc
Ġown ed
Ġt p
ino is
Ġi i
ì Ŀ
23 4
Ġr id
rup tion
Ġres ist
B OT
Cur sor
Ġtarget ing
Ġco ating
ĠE U
Ġam ended
ĠT w
ke w
G iven
20 8
ĠS en
Ġenco ur
Ġbank ruptcy
fra ct
18 7
Ġdis plays
fra ppe
C ard
Ġretrie ved
W ord
ĠAns ible
Ġquestion naire
o zy
Ġqual ified
Ser ial
ĠTh read
Ġass umptions
ĠEx pression
Ġgreat ly
14 9
ma ch
Ġir re
treat ment
och astic
Ġun f
pro of
N G
set Up
DE L
Ġt ight
Â Ń
Ġ-------- ------
hentic ate
T D
ffic iency
Ð¾Ð ¼
func s
ĠLIMIT ED
ser ve
sp ot
Sh ort
en ium
rup ted
Ġrecur sive
ĠF IX
Ġcomput ational
Ġcomp etition
man aged
"] ))
() ])
Ġ ĠĠĠĠĠĠĠĠĠĠĠĠĠĊĊĠ
Ġtun nel
map sto
Ġflex ible
Ġpl anning
Ġdist ribute
Ġres ol
ĠL ee
}} =
display style
}, $$
ĠQt Core
Ġ ĠĠĠĠĠĠĠĠĠĠĠĠĠĠĠĠĠĠĠĠĠĠĠĠĠĠĠĠĠĠĠĠĠĠĠĠĠĠĠĠĠĠĠĠĠĠĠĠĠĠĠĠĠĠĠĠĠĠĠĠĠĠĠĠĠĠĠĠĠĠĠĠĠĠĠĠĠĠĠĠĠĠĠĠĠĠĠĠĠĠĠĠĠĠĠĠĠĠĠĠĠĠĠĠĊĠ
ĠM L
16 6
ĠPar ty
Ġchole sterol
ĠF actor
ĠS il
ĠP op
IE W
id ase
Ġmedic ation
Ġw ish
Top ic
cour t
sess ment
iter ations
kele ton
ĠC M
Ġ ]{}
query set
Ġpro ton
ĠL ife
Ġme lan
ĠF re
ynt hesis
t as
ĠC are
lin eno
ĊĠĠĠĠĠĠĠĠĠĠĠĠĠĠĠĠĠĠĠĠĠĠĠĠĠĠĠĠĠĠĠĠĠĠĠĠĠĠĠĠĠĠĠĠĠĠĠĠĠĠĠĠĠĠĠĠĠĠĠĠĠĠĠĠĠĠĠĠĠĠĠĠĠĠĠĠĠĠĠĠĠĠĠĠĠĠĠĠĠĠĠĠĠĠĠĠĠĠĠĠĠĠĠĠĠĠĠĠĠĠĠĠĠĠĠĠĠĠĠĠĠĠ Ġ
ĠStud y
Ġturn s
Ġstr at
Ġregion al
rif ug
_ -
tain s
ific ant
n om
Ġexpress ing
Ġin k
i ol
ĠR oman
s un
sche mas
Ġpur ified
Ġcont ro
Ġf reedom
(' .')
Ġpl ugins
W ID
Ġbound ing
ĠBl ue
Ġob esity
S ql
y an
Ġran ging
Ġag o
Ġt au
4 50
ĠG C
R Y
Ġlocal ized
ĠInterest ingly
Ġdeli ver
15 8
Ġ ĠĠĠĠĠĠĠĠĠĠĠĠĠĠĠĠĠĊĠĠ
Ġdefic iency
ĠC V
dig its
ĠJ r
io u
save fig
Ġnan o
ĠB MI
Ġco uple
ĠTh ird
Ġ1 37
19 5
Ġpo se
Ġp itch
u ity
S lot
** .
19 85
Pi peline
Ġmemb ranes
ĠIMP LIED
T G
ĠD a
Ġsent encing
provision ing
Ġschool s
(' {
Ð¸ Ñı
ge bras
Sup port
Ġst ained
Ġown ership
Ġsett lement
Ġemer gency
post gres
ĠGe orge
:: -
ĠSup port
Ġb p
Ġconcern ed
Hel p
ĠS kip
ĠE nsure
g m
Ġpers pective
Tra cker
16 7
A MPLES
á ŀ
ĠSte p
ir us
subplot s
Ġ ĠĠĠĠĠĠĠĠĠĠĠĠĠĠĊĊĠ
h p
Ġan tagon
Ġ ĠĠĠĠĠĠĠĠĠĠĠĠĠĠĠĠĠĠĠĠĠĠĠĠĠĠĠĠĠĠĠĠĠĠĠĠĠĠĠĠĠĠĠĠĠĠĠĠĠĠĠĠĠĠĠĠĠĠĠĠĠĠĠĠĠĠĠĠĠĠĠĠĠĠĠĠĠĠĠĠĠĠĠĠĠĠĠĠĠĠĠĠĠĠĠĠĠĠĠĠĠĠĠĠĠĊĠ
20 7
Ġcon sp
sp atial
` ):
Â ı
c ategorical
ne ed
c um
ÐµÐ ¼
l apping
be at
s al
Ġab dom
x cc
contin ue
Ġ19 84
Ġtra its
o auth
ĠM ont
Ġload s
ĠCon text
Ðµ Ð»
Ġabsor b
vari ants
ne e
Ġord inary
en de
Ġauthor ized
id ine
Ġm unic
us band
k an
Ġrecur rence
st or
Ġe en
Ġselect or
Ġalle le
dict s
d v
Ġ ----
ĊĠĠĠĠĠĠĠĠĠĠĠĠĠĠĠĠĠĠĠĠĠĠĠĠĠĠĠĠĠĠĠĠĠĠĠĠĠĠĠĠĠĠĠĠĠĠĠĠĠĠĠĠĠĠĠĠĠĠĠĠĠĠĠĠĠĠĠĠĠĠĠĠĠĠĠĠĠĠĠĠĠĠĠĠĠĠĠĠĠĠĠĠĠĠĠĠĠĠĠĠĠĠĠĠĠĠĠĠĠĠĠĠĠĠĠĠĠĠĠĠĠĠĠ Ġ
Ġ' :
Ġden ial
Ġfa ith
Ġt ape
ĠO lymp
ch allenge
Ġintr insic
Ġhelp ful
oth ers
red uc
Name space
pe g
Ġqu ark
M AC
Com ment
b ell
D ense
}} }_
mo ves
NA MES
ĠA x
util ities
w ant
B N
ĠM ad
uns igned
Ġstim uli
Ġgl u
Ġcharacter ization
a ug
ear ning
Ġ ĊĊĠĠĠ
Ġdist ort
Ġminim ize
w p
ĠR F
Ġ[{ '
n v
s ink
author ized
train er
f q
response s
it als
Ġcon vex
x ia
attach ment
* \<
Ġdecor ator
mark up
def s
Ġ ĊĠĠĠĠĠĠĠĠĠĠĠĠĠĠĠĠĠĠĠ
ĠT own
ĠT yp
Ġ$ .
th an
tot ox
ĠAn g
Ġn as
ĠVer ify
Ġ19 2
Ġd ont
copy right
Ġper ox
Ġfluctu ations
SER VICE
Ġasc ending
Ġgra phene
Ġ ĠĠĠĠĠĠĠĠĠĠĠĠĠĠĠĠÂł
Ġpre trained
Ġ ĠĠĠĠĠĠĊĠĠĠĠĠĠĠ
Ġs ac
Det ail
Ġ ĠĠĠĠĠĠĠĠĠĠĠĠĠĠĠĠĠĠĊĠĠ
Joh n
Ġgen otype
sa mpler
read lines
Group s
Mon itor
C ross
lab eled
Ġhome assistant
necess ary
ON G
lect ric
Bo ok
22 2
ĠR ES
Cle an
pre p
ĠS top
ĠOh io
h or
ĠKE Y
Ġreg ulated
ĠE p
TH ON
, [
UR N
Ġspecify ing
Ġl ies
Î± Î¹
Ġ( <
ID S
dig est
17 6
Me asure
P ut
Ġho les
? "
boot strap
Ġatt ributed
Ġcytok ines
ĠSt orage
Ġsl ug
IT ION
0 28
h m
Ġ ĠĠĠĠĠĠĠĠĠĠĠĠĠĠĠĠĠĠĠĠĠĠĠĠĠĠĠĠĠĠĠĠĠĠĠĠĠĠĠĠĠĠĠĠĠĠĠĠĠĠĠĠĠĠĠĠĠĠĠĠĠĠĠĠĠĠĠĠĠĠĠĠĠĠĠĠĠĠĠĠĠĠĠĠĠĠĠĠĠĠĠĠĠĠĠĠĠĠĠĠĠĠĠĠĠĠĊĠ
arg o
xc f
ch r
Ġ ĠĠĠĠĠĠĠĠĠĠĠĠĠĠĠĊĊĠ
p aste
ĠMat hemat
ĠCell s
23 5
Ġparticip ation
14 2
ĠSc ientific
ort ic
Ġincub ation
Ġa er
../ ../
pon ent
iat ric
Ġhom ogeneous
Set up
candid ate
al ter
ve locity
ĠÂ Ĺ
Ġ' =',
19 84
Exec ution
Ġmedic ine
v ote
Ġmot ions
sh op
Ġfit ted
Ġsub mission
xf b
ĊĠĠĠĠĠĠĠĠĠĠĠĠĠĠĠĠĠĠĠĠĠĠĠĠĠĠĠĠĠĠĠĠĠĠĠĠĠĠĠĠĠĠĠĠĠĠĠĠĠĠĠĠĠĠĠĠĠĠĠĠĠĠĠĠĠĠĠĠĠĠĠĠĠĠĠĠĠĠĠĠĠĠĠĠĠĠĠĠĠĠĠĠĠĠĠĠĠĠĠĠĠĠĠĠĠĠĠĠĠĠĠĠĠĠĠĠĠĠĠĠĠĠĠĠ Ġ
w ho
čĊĠĠĠĠ čĊĠĠĠ
al ive
Ä ĵ
to ggle
Ġad olesc
Ġd ic
un a
comple ted
ĠS N
Ġmand atory
Sup er
ĠThe ir
Ġtra jectory
}} }(
Ġcur vature
I m
Ġinitial ization
war m
Ġsust ained
ĠM B
\ ](
Ġp asses
AL S
Ġencounter ed
Ġ ĠĠĠĠĊ
Ġplan es
Ġinsert ion
ĠSer vices
pt o
Ġ! [
Con stant
ac ion
Ġdetect ing
ĠJo urnal
Ġ ^{
check ed
Ġass ist
Ġ$$ {\
Process or
M ay
B en
Ġqual itative
ĠCar ol
Ġ2 24
ĠSc ott
An not
Ġimpair ment
ĠV an
Ġwit nesses
Ġbook s
we bsite
n py
E s
Ġimpro per
Ġp ron
Ġgo als
ãģ ®
Ġh air
Ġsubstr ates
ä ¼
F ixed
Ġconnect or
Ġ& ',
Ġbran ches
Ġembed dings
Ġspon taneous
yl vania
ĠS ta
Ġw at
ĠSever al
ĠL ast
ĠJ son
um or
Â ĥ
sh utdown
map ped
Ġcontinu ation
Name d
Ġaff idav
ĠL ight
32 6
ph ag
ĠG ET
â ¬
Â ĩ
ik a
el d
Ġreco vered
plot s
Ġconsist ency
Ġgen us
Ġ ĠĠĠĠĠĠĠĠĠĠĠĠĠĠĠĠĠĠĠĊĠĠ
Qt Gui
Ġbiom ark
ost ics
Ġ ĠĊĠĠĠĠĠĠĠĠĠĠĠ
Ġr gb
om ics
id en
ho ma
)) ?
Ġ ĠĠĠĠĠĠĠĠĠĠĠĠĠĠĠĠĠĠĠĠĠĠĠĠĠĠĠĠĠĠĠĠĠĠĠĠĠĠĠĠĠĠĠĠĠĠĠĠĠĠĠĠĠĠĠĠĠĠĠĠĠĠĠĠĠĠĠĠĠĠĠĠĠĠĠĠĠĠĠĠĠĠĠĠĠĠĠĠĠĠĠĠĠĠĠĠĠĠĠĠĠĠĠĠĠĠĠĊĠ
th ick
Ġbu y
: [
pro duction
Ġinitial izer
og ens
Ġ ĠĠĠĠĠĠĠĠĠĠĠĠĠĠĠĠĊĊĠ
Ġfig ures
={ },
ĠV o
Ġe co
ole c
G M
.[ ]{
Ġhab it
3 50
13 1
ĊČĠĠĠĠĠĠĠĠĠĠĠĠĠ Ġ
! =
ĠFor ce
Ġphenomen on
Fail ure
Ġlist ener
v ised
Ġimpro ving
Ġz e
Ġimpo ssible
ism atch
Ġcon vey
Ġper ception
Ġac comp
tick er
ĠC amb
m iddle
pro t
cre ator
Ġsk ills
equal s
T B
Com m
ĠSt ream
F ire
Ġr uling
Ġin ferred
ä» ¶
00 10
start ed
cont iguous
Â ī
Ġlog ged
ph abet
Ġper me
re es
2 33
sql ite
ĠRec ord
Ġfund ing
Ġt ang
to gether
Ġscal ed
q q
Ġgrav ity
Re lease
reg istration
typ ing
cy tes
Ġexpect ation
Ġd Ã©
Ġin ventory
ĠD im
Ġpro gramming
(_ ('
ĠCh urch
S ta
scrib er
Ġviol ated
od ot
Ġflow s
omorph ic
Ġman ifold
Pri vate
ri ve
Ġ/ =
D r
ou ch
Ġpredict ive
ĠOper ation
bu y
[" _
Ġfeed ing
Ġre member
Ġk g
LA Y
if ul
ĠG ene
Ġpi lot
v ault
ĠD er
Ġali ases
æ İ
le ter
Ï Ĩ
B ank
$ ;
Ġcomp iled
ĠÃ Ĳ
u ce
Ġl isp
DU LE
or ption
Ġgroup ed
dif ference
bound ary
Ġne ck
Ġcorrect ed
ĠT B
crit ical
ĠNa N
ĠB us
cons ider
Ġsc r
pro be
Ġbu ff
rot ate
Ġst ead
ĠTH IS
Ġlo ops
Ġw ound
Ġb odies
im gs
D ay
Ġaw arded
Ġcoll agen
Ġp lotted
ar ound
c and
r ust
Ġult imately
Des c
us al
Ġinhib it
over flow
a cl
Ġd c
ĠP ur
20 3
Ġ ĠĠĠĠĠĠĠĠĠĠĠĠĠĠĠĠĠĊĊĠ
17 2
Ġe yes
Ġm k
Ġ ĠĠĠĠĠĠĠĠĠĠĠĠĠĠĠĠĠĠĠĠĠĠĠĠĠĠĠĠĠĠĠĠĠĠĠĠĠĠĠĠĠĠĠĠĠĠĠĠĠĠĠĠĠĠĠĠĠĠĠĠĠĠĠĠĠĠĠĠĠĠĠĠĠĠĠĠĠĠĠĠĠĠĠĠĠĠĠĠĠĠĠĠĠĠĠĠĠĠĠĠĠĠĠĠĠĠĠĠĊĠ
ĠS TR
Â Ł
oo oo
ĠA ward
Ġf an
; "
Ġdisput e
button s
Ġg un
Ġad hesion
Ġanaly sed
ot ion
aw are
Ġd ns
) }}
ce an
ĠM apping
Ġ ĠĠĠĠĠĠĠĠĠĠĠĠĠĠĠĠĠĠĠĠĊĠĠ
St atic
Ġse at
y ml
Ġin coming
ĠIn s
ĊĠĠĠĠĠĠĠĠĠĠĠĠĠĠĠĠĠĠĠĠĠĠĠĠĠĠĠĠĠĠĠĠĠĠĠĠĠĠĠĠĠĠĠĠĠĠĠĠĠĠĠĠĠĠĠĠĠĠĠĠĠĠĠĠĠĠĠĠĠĠĠĠĠĠĠĠĠĠĠĠĠĠĠĠĠĠĠĠĠĠĠĠĠĠĠĠĠĠĠĠĠĠĠĠĠĠĠĠĠĠĠĠĠĠĠĠĠĠĠĠĠĠĠĠĠ Ġ
ĠPer mission
ĠP Y
Ġlat ent
Ġcon crete
phys ical
ĠValidation Error
se ason
x be
os copic
Ġ" ":
fin ish
\ #
Ġ.. ..
ogen esis
ĠB oston
C EL
Ġfact ual
h op
Ġvar ied
th ere
Ġinhib itory
A UT
Ġmov ie
Ġsp inal
Ġbas al
v lan
Ġnucle i
Ġum a
&= &
ĠR a
pop ulation
Q R
xa e
trace back
B us
orient ation
d raft
38 6
"> <
Ġread ily
Ġret ro
Ġbe aring
IC K
Ġalleg ations
Ġextra cellular
Ġdecl ine
sen ger
Ġblock ed
Ġrec ipient
Ġtele phone
PRO C
Ġpers istent
ĠAff ero
ali ases
ĠC E
st yles
Ġdri vers
R untime
ĊĠĠĠĠĠĠĠĠĠĠĠĠ ĊĠĠĠĠĠĠĠ
Ġd ensities
Ġd ilation
leg acy
Ġi k
xa a
Ġm aternal
Ġhar vest
Ġsol ved
Ġneur onal
Ġ.. .,
ÃŃ a
Ġad vert
pie ce
Ġsha ft
Ġdocument ed
x ec
17 9
ĠL C
Ġhand les
da emon
Ġo ct
id ae
ĠAl low
ĠPo ssible
Ġcent re
re pos
Ġa ircraft
SE CRE
Ġcyto plas
Ġpay ments
x de
T x
Ġpro state
18 5
ĠS ocial
ĠS ix
am ide
ĠS oc
16 3
Ġso ck
è¡ Į
ot er
19 4
Ġapproxim ate
us ive
ĠL E
st mt
ĠI r
l if
Ġimport s
min or
T OP
aggreg ate
ns ylvania
res olved
ED IT
AM S
Ġto t
Ġcap s
Ġ( `
Ġ' $
ĠCon f
mo graphy
M Y
et her
relations hip
Ġf ault
Ġpass age
Ġprospect ive
7 00
gree ment
Ġ1 39
Ġrel ating
q r
=" /
Ġi gn
represent ation
Ġ} ;
Ġ ĠĠĠĠĠĠĠĠĠĠĠĠĠĠĠĠĠĠĊĊĠ
ĠB efore
Pro gress
Ġrespon dent
fra gment
Ġ/ *
Ġp our
Options Define
ri age
20 6
Ġg uest
ĊĠĠĠĠĠĠĠĠĠĠĠĠĠĠĠĠĠĠĠĠĠĠĠĠĠĠĠĠĠĠĠĠĠĠĠĠĠĠĠĠĠĠĠĠĠĠĠĠĠĠĠĠĠĠĠĠĠĠĠĠĠĠĠĠĠĠĠĠĠĠĠĠĠĠĠĠĠĠĠĠĠĠĠĠĠĠĠĠĠĠĠĠĠĠĠĠĠĠĠĠĠĠĠĠĠĠĠĠĠĠĠĠĠĠĠĠĠĠĠĠĠĠĠĠĠĠ Ġ
Ġex clusion
Ċĉĉĉĉ ĉĉĉĉ
Ġinflu enced
Ġ ĠĠĠĠĠĠĠĠĠĠĠĠĠĠĠĠĠĠĠĠĠĠĠĠĠĠĠĠĠĠĠĠĠĠĠĠĠĠĠĠĠĠĠĠĠĠĠĠĠĠĠĠĠĠĠĠĠĠĠĠĠĠĠĠĠĠĠĠĠĠĠĠĠĠĠĠĠĠĠĠĠĠĠĠĠĠĠĠĠĠĠĠĠĠĠĠĠĠĠĠĠĠĠĠĠĠĠĠĠĊĠ
Ġlocal e
ĠIO Error
ĠSet tings
Con struct
ĠVis ual
set attr
reg ions
Gener ate
ĠB ox
Î¹ Îº
ĠVirgin ia
Ġreve al
en ess
U UID
on to
Ġpro ps
Ġfont size
Ġacknow led
sh aped
Ġpow ers
read able
ĠCh icago
Ġguaran te
ult ural
Ġmar ried
Ġ ĠĠĠĠĠĠĠĠĠĠĠĠĠĠĠĠĠĠĠĠĠĊĠĠ
Ġresearch ers
ĠÎ¼ m
L ENGTH
Ġre porter
Ġlimit ing
~~~~~~~~ ~~~~~~~~
ab y
Ġspe ak
ĠG it
ol i
roph y
ask a
Ġre current
Ġcit iz
` ")
ick et
2 12
Ġan ce
}} ^{\
Ġf id
Ġhe mat
ĠMan agement
Ġin n
st on
ĠT ree
Ġs phere
Struct ure
u o
ph oto
ext ended
Ġ' (
Ġmass ive
Ġp apers
0 32
Ġreg ulations
anc ies
it elist
Ġd ip
rit is
Min imum
T ags
f ixtures
ĠH a
st ub
Ġc umulative
Ġ ################################
percent age
Ġtri vial
S N
æķ° æį®
Ġeng aged
Ho ok
P ACK
NO WN
t gt
Ġy oun
ĠTh er
30 4
ill ar
ĠM el
evalu ation
st a
g iven
w al
\| _{
Coun ter
RO Poller
Ġgu ild
ĠAn ge
ĠÎ ³
ĠA ri
Ġtrigger ed
cl onal
ĠJ OIN
Ġs aving
elect ric
Ġe tt
e in
ĠSystem s
Ġde dic
et ary
qu oting
Ġfl ush
S core
m usic
Ġthe ories
il lo
system s
ĠEN D
r ates
Per iod
l ie
ĠSci ences
Ġther ap
ĠArt icle
Ġ ĠĠĠĠĠĠĠĠĠĠĠĠĠĠĠĠĠĠĠĊĊĠ
bo ost
Ġrecogn ize
Ġari se
Ġun clear
de ad
network s
mot ion
ĠL imit
Ġenable s
ĠE ducation
Ġmon key
h ab
ct ypes
F our
Ġbr ush
Ġre construct
fact s
Ġ ĠĠĠĠĠĠĠĠĠĠĠĠĠĠĠĠĠĠĠĠĠĠĠĠĠĠĠĠĠĠĠĠĠĠĠĠĠĠĠĠĠĠĠĠĠĠĠĠĠĠĠĠĠĠĠĠĠĠĠĠĠĠĠĠĠĠĠĠĠĠĠĠĠĠĠĠĠĠĠĠĠĠĠĠĠĠĠĠĠĠĠĠĠĠĠĠĠĠĠĠĠĠĠĠĠĠĠĠĠĠĊĠ
([ -
b ow
ĠA UTH
~ -
FIL ES
ĠS K
Not es
C ost
40 5
Ġaccess ible
åĽ ŀ
Ġh ide
is y
num s
con version
ĠC amp
Ġne o
L ight
iter al
Ġfavor able
: =
ĠF und
Ġi st
Ġsche duled
17 4
Ġ19 81
xf a
Ġcent rifug
AB C
con g
EX P
match ing
line width
xb b
ĊĠĠĠĠĠĠĠĠĠĠĠĠĠĠĠĠĠĠĠĠĠĠĠĠĠĠĠĠĠĠĠĠĠĠĠĠĠĠĠĠĠĠĠĠĠĠĠĠĠĠĠĠĠĠĠĠĠĠĠĠĠĠĠĠĠĠĠĠĠĠĠĠĠĠĠĠĠĠĠĠĠĠĠĠĠĠĠĠĠĠĠĠĠĠĠĠĠĠĠĠĠĠĠĠĠĠĠĠĠĠĠĠĠĠĠĠĠĠĠĠĠĠĠĠĠĠĠ Ġ
Ġa u
Ġk illed
Ġext ending
Ġ ĠĠĠĠĠĠĠĠĠĠĠĠĠĠĠĠĠÂł
Ġqu asi
(" {
Ġview ed
RA Y
)$ -
Ġc wd
im show
pos als
Ġhel ps
in ference
č ĊĠĠĠĠĠĠĠĠĠ
Ð¾ ÑĤ
SE TT
std in
MESS AGE
ug ar
de hy
XXXX XXXX
Ġ ĠĠĠĠĠĠĠĠĠĠĠĠĠĠĠĠĠĠĠĠĠĠĊĠĠ
Ġaff ili
x db
xe b
Ġvol unt
Ġpot ent
)) [
([ ],
Ġover rid
66 66
w ers
napsh ots
av age
ceut ical
18 4
ise n
ĠS phinx
is a
ish ment
W est
split lines
ur ated
17 8
ĠM ur
un o
ĠB C
xb d
Ġc ord
ĠM en
connect or
sub scribe
H ome
Ġval u
ĠArm y
Ġdraw ing
/ ')
ĠA ge
Ġchrom at
A ns
C apt
i pe
pro files
d ll
Ġmat ters
Ġretain ed
Validation Error
Ġdebt or
MS G
Ġpos sess
AR S
Ġo v
Ġemot ional
c df
0 29
Ġthous ands
ak i
ĠE ll
utc now
in dependent
ama zon
19 80
LO B
Ġtre ating
Ġfra ctions
Ġre ar
MET HO
ro gram
get cwd
In ternal
Ġtopo logical
Check ed
c raft
Id x
ĠN D
Ġapparent ly
Ġal location
L ow
assertIs None
tra ction
Ã¤ Ã¤
Ġ ĠĠĠĠĠĠĠĠĠĠĠĠĠĠĠĠĠĠĠĠĊĊĠ
ĠP ay
ĠG ame
Ġcall er
Ġdis placement
inf ected
m ime
... ')
Ġdat abases
C OR
Ġl azy
Ġc nt
ĠG ood
m r
A ST
pars ers
ar Xiv
ide l
z A
b log
ĠMart in
ment e
ĠS V
o ids
ĊČĠĠĠĠĠĠĠĠĠĠĠĠĠĠ Ġ
ĠH as
24 5
last ic
small caps
Ġ ĠĠĠĠĠĠĠĠĠĠĠĠĠĠĠĠĠĠĠĠĠĠĠĠĠĠĠĠĠĠĠĠĠĠĠĠĠĠĠĠĠĠĠĠĠĠĠĠĠĠĠĠĠĠĠĠĠĠĠĠĠĠĠĠĠĠĠĠĠĠĠĠĠĠĠĠĠĠĠĠĠĠĠĠĠĠĠĠĠĠĠĠĠĠĠĠĠĠĠĠĠĠĠĠĠĠĠĠĠĠĠĊĠ
Ġup dating
kele tal
SC s
ÐµÐ ´
g ar
Ġexc itation
Ġnot ify
ĠPol icy
Ġcr ash
Ġinter ior
ba seline
Ġaff ine
ws gi
b ulk
de scribe
ĠD ie
Lo ok
ar se
> ')
Ġn ice
ĠCol lection
on ing
CM D
D iff
ĠLI ABILITY
n ick
Ġdef e
ific ial
scal ing
ĠC G
Appe llant
14 1
ip pet
ĠW ell
M s
Ġ ure
å Ĩ
Ġv ote
Ġsm art
S CHEMA
L F
33 3
inter pre
Ġband width
ĊĠĠĠĠĠĠĠĠĠĠĠĠĠĠĠĠĠĠĠĠĠĠĠĠĠĠĠĠĠĠĠĠĠĠĠĠĠĠĠĠĠĠĠĠĠĠĠĠĠĠĠĠĠĠĠĠĠĠĠĠĠĠĠĠĠĠĠĠĠĠĠĠĠĠĠĠĠĠĠĠĠĠĠĠĠĠĠĠĠĠĠĠĠĠĠĠĠĠĠĠĠĠĠĠĠĠĠĠĠĠĠĠĠĠĠĠĠĠĠĠĠĠĠĠĠĠĠĠ Ġ
ĠIll inois
Ġsup posed
ĠF ake
Ġn c
'] ],
Ġst ub
Cont ents
ĠIndex Error
h box
Ġbi os
SECRE T
==================== ==
qu eries
cal endar
C ancel
Ġpri mer
he ast
ne ur
Ġgu ard
ucl ide
Ġret ros
clean ed
19 7
ĠSp ace
comb o
)/( (-
Ġmaint aining
ĠForm at
Ġpl ug
Ġtrans parent
b ounded
SH A
Ġpro xim
ĠT om
}{ {\
============ ==
DE V
t if
Ġpoint ed
A CTION
Ġ ĠĠĠĠĠĠĠĠĠĠĠĠĠĠĠĠĠĠĠĠĠĠĠĊĠĠ
v p
xb c
ig e
on a
}$ )
g is
Ġm ysql
Ġto l
Ġref lection
track ing
Ġpr inter
up y
re fer
P open
Z ero
ç §
Ġhash lib
, (
Ġt an
ess or
Ġbehavi ors
Ġgly co
Ġ ĠĠĠĠĠĠĠĠĠĠĠĠĠĠĠĠĠĠĠĠĠĊĊĠ
Ġa que
Ġimprove ments
b la
Ġst er
2 80
ĠS ol
Ġdon or
Ġepisode s
xe e
ri o
âĢĿ ,
IN SERT
Ġstrict ly
id ential
xc b
m irror
Ġform ulation
Ġar ising
ĠPO ST
Ġcar ds
Ġg rand
Ġdirect or
DE VICE
ĠId ent
g w
S creen
Ġ ĠĠĠĠĠĊ
co lour
w rong
ĠJ e
gra ded
Ġ| =
gra v
redu ction
pl ast
Ġb ow
un gs
!! !!
> %
C hat
Ġcomprehen sive
Ġmetast asis
To String
Ġevalu ating
Ġc erv
F LO
Ġreview s
pro cesses
Ġsc roll
Ġ ĠĠĠĠĠĠĠĠĠĠĠĠĠĠĠĠĠĠĠĠĠĠĠĠĠĠĠĠĠĠĠĠĠĠĠĠĠĠĠĠĠĠĠĠĠĠĠĠĠĠĠĠĠĠĠĠĠĠĠĠĠĠĠĠĠĠĠĠĠĠĠĠĠĠĠĠĠĠĠĠĠĠĠĠĠĠĠĠĠĠĠĠĠĠĠĠĠĠĠĠĠĠĠĠĠĠĠĠĠĠĠĠĊĠ
m ixed
Ġnew s
check er
ĠMe asure
xa f
Ġdi verse
Ġimp aired
ä ¹
g ative
%% %%
Ġhead s
ĠB re
LEV EL
36 5
ĠE valu
FA IL
ĠIn stance
Ġden oted
umer ic
. +
ĠAb stract
Ġli po
ĊĠĠĠĠĠĠĠĠĠĠĠĠĠĠĠĠĠĠĠĠĠĠĠĠĠĠĠĠĠĠĠĠĠĠĠĠĠĠĠĠĠĠĠĠĠĠĠĠĠĠĠĠĠĠĠĠĠĠĠĠĠĠĠĠĠĠĠĠĠĠĠĠĠĠĠĠĠĠĠĠĠĠĠĠĠĠĠĠĠĠĠĠĠĠĠĠĠĠĠĠĠĠĠĠĠĠĠĠĠĠĠĠĠĠĠĠĠĠĠĠĠĠĠĠĠĠĠĠĠ Ġ
Ġextract s
aut iful
ĠBo ok
Ġc able
HEAD ER
cept or
Ġversion added
Ġ8 00
er ance
R untimeError
Ġstim ulus
) ](#
ĠÃ ¨
P AGE
ĠL D
] )))
Ġpl ans
x dd
ĠE ffect
Ġthere in
ac ific
ĠG l
L anguage
D en
O k
19 83
id ents
ĠH ill
x ad
ĠP an
[' _
order ing
Ġoptim ized
Ġprob able
experim ental
Ġres istant
pre tty
Ġaffect ing
idx s
l ated
Ġ ĠĠĠĠĠĠĠĠĠĠĠĠĠĠĠĠĠĠĠĠĠĠĊĊĠ
Ġbon ds
Ġ ĠĠĠĠĠĠĠĊĠĠĠĠĠĠĠ
Ġkey board
SU CCESS
She et
ust ic
pol icies
qu es
Ġdel imiter
ĠF inal
bid ity
ĠChar les
ĠAustral ian
Ġrot ate
Ġ ĠĠĠĠĠĠĠĠĠĠĠĠĠĠĠĠĠĠĠĠĠĠĠĠĊĠĠ
it ives
CA SE
av ailability
ĠC as
f ocus
quest ions
æ Ń
Ġcomp ressed
Ġvessel s
19 6
Ġparticip ated
Ġn ick
18 9
å ¾
Ġsatisf ying
Con tact
ch rome
Ass ert
pt ide
Contain s
| _{
Ġch ars
Ġclean up
Ġan xiety
c isco
cred it
Ï į
ta ched
ĠCh ief
^ [
Ġox idation
un te
ĠP E
h ma
ĠDes ign
Ġexpl oration
Â Ĳ
** :
ĠY our
ĠD I
Ġpre ference
ĠM em
ĠFour ier
sw agger
Ġbenef icial
Ġexc it
x ab
} &
________________ ________________
2 11
non zero
==================== =
Ġconven ient
Ġneighbor hood
Ġt ru
# ------------------------------------------------------------------------
V ec
_ "
Ġ ĠĠĠĠĠĠĠĠĠĠĠĠĠĠĠĠĠĠĠĠĠĠĠĠĠĠĠĠĠĠĠĠĠĠĠĠĠĠĠĠĠĠĠĠĠĠĠĠĠĠĠĠĠĠĠĠĠĠĠĠĠĠĠĠĠĠĠĠĠĠĠĠĠĠĠĠĠĠĠĠĠĠĠĠĠĠĠĠĠĠĠĠĠĠĠĠĠĠĠĠĠĠĠĠĠĠĠĠĠĠĠĠĠĊĠ
b rowse
ĠR ay
PL AY
ĠTe le
res ume
ance ll
neighb ors
w heel
Ġse a
Ġvir uses
Ġund ert
s Type
q c
Ġt ort
s uc
ĠIP v
Ġco okie
all ing
ĊĠĠĠĠĠĠĠĠĠĠĠĠĠĠĠĠĠĠĠĠĠĠĠĠĠĠĠĠĠĠĠĠĠĠĠĠĠĠĠĠĠĠĠĠĠĠĠĠĠĠĠĠĠĠĠĠĠĠĠĠĠĠĠĠĠĠĠĠĠĠĠĠĠĠĠĠĠĠĠĠĠĠĠĠĠĠĠĠĠĠĠĠĠĠĠĠĠĠĠĠĠĠĠĠĠĠĠĠĠĠĠĠĠĠĠĠĠĠĠĠĠĠĠĠĠĠĠĠĠĠ Ġ
Ġ2 40
Ġrender ing
Ġsk ill
Ð°Ð º
ur t
ID s
b ic
p ast
ĠA LL
3 20
ĠN C
Ġf ashion
g d
N M
Ġ3 60
W orld
ĊČĠĠĠĠĠĠĠĠĠĠĠĠĠĠĠ Ġ
iv ated
Ġ ĠĠĠĠĠĠĠĠĠĠĠĠĠĠĠĠĠĠĠĠĠĠĠĊĊĠ
P ubl
Ġ ,\
do or
=' /
Ġq s
Ġres er
K D
Ġfew er
Un der
PI O
PRO JECT
ĠCon stant
form ing
Ã ħ
x da
Ġann ounced
Ġhe ard
ra vel
Ġc DNA
ĠAssert ionError
assertIs Not
Ġwest ern
Ġreg ulate
min ute
Ġpro long
Ġprovision ing
acc um
ĠH istory
ĠPen nsylvania
E lements
Ġcan cers
Ġrec ruit
23 1
Ġover come
Ġm ime
Ġpropag ation
Pro p
div ision
ĠStud ies
Ġac commod
Ġcover ing
Ġ ĠĠĠĠĠĠĠĠĠĠĠĠĠĠĠĠĠĠĠĠĠĠĠĠĠĊĠĠ
ĠS ing
TE MP
Ġdesign ated
Pos itive
ĠIsl and
W D
ir ty
Ġhealth care
V O
po camp
ric hed
Ġp Ã¥
prob ability
Ġ19 82
Ġco variance
]- [@
ĠRo yal
Al so
Ġ1 21
('/ ')
ĠÎ¼ M
Ġde scriptor
Ġbehavior al
Ġsp end
cons ist
A WS
big r
Ġ ĠĠĠĠĠĠĠĠĠĠĠĠĠĠĠĠĠĠĠĠĠĠĠĠĠĠĠĠĠĠĠĠĠĠĠĠĠĠĠĠĠĠĠĠĠĠĠĠĠĠĠĠĠĠĠĠĠĠĠĠĠĠĠĠĠĠĠĠĠĠĠĠĠĠĠĠĠĠĠĠĠĠĠĠĠĠĠĠĠĠĠĠĠĠĠĠĠĠĠĠĠĠĠĠĠĠĠĠĠĠĠĠĠĠĊĠ
ĠGu ide
ĠR OS
)\ \
Ġsw ap
rm tree
Ġ[{ "
Ġch apter
roll ers
ĠF low
Ġvis ited
du ctions
Ġaut os
er ed
ch ip
ud f
g old
v able
ĠMult iple
rich ment
a Ã§Ã£o
Init ialize
Ġlif etime
B G
Ġ-------- -------
ro utes
Ġsuscept ibility
B s
} )$.
Ġfluores cent
ic i
F s
]) ),
xb a
ĠBra zil
can onical
n am
c atch
am ous
sh ips
Ġop posed
Ġ ĠĠĠĠĠĠĠĠĠĠĠĠĠĠĠĠĠĠĠĠĠĠĠĠĊĊĠ
Ġsk y
Ġeth anol
F ilename
N ORM
=" {
Ġc map
ĠD at
ĊĠĠĠĠĠĠĠĠĠĠĠĠĠĠĠĠĠĠĠĠĠĠĠĠĠĠĠĠĠĠĠĠĠĠĠĠĠĠĠĠĠĠĠĠĠĠĠĠĠĠĠĠĠĠĠĠĠĠĠĠĠĠĠĠĠĠĠĠĠĠĠĠĠĠĠĠĠĠĠĠĠĠĠĠĠĠĠĠĠĠĠĠĠĠĠĠĠĠĠĠĠĠĠĠĠĠĠĠĠĠĠĠĠĠĠĠĠĠĠĠĠĠĠĠĠĠĠĠĠĠĠ Ġ
Ġphys ician
Ġconsist ed
ĠF isher
Ġg er
ĠP os
ass igned
}} )$
Ġcor poration
Ġform atter
Ġa imed
pk l
ĠSum mary
Ġlo an
ĠMot ion
w av
ĠA le
ĠL in
E stim
B and
Ġf arm
s ale
M c
filename s
^ ](#
T ARGET
ID E
Ġ" `
depend s
Ġaccur ately
ar o
ens ing
ĠF loat
Ġb igger
Ġsup pressed
Ġplace bo
ĠFIX ME
Ġex tr
Ġ[ $
ĠS ize
Ġres ize
et ag
re le
Ġten ant
Ġstrong er
Ġga stric
osp itals
glob als
reason able
Ġsusp ension
(' ',
ĠL ayer
64 0
we alth
assertAll Close
Ġhere by
Ġtrans verse
Ġcommunic ations
yl ation
lik ely
Ãµ es
d ifferent
Ġun used
ĠU RI
C trl
ĠG rid
Ġprevent ing
Ġ4 09
c g
an th
Ġconflict s
r us
in ic
j p
Ġcalcul ating
Ĩ Ĵ
Ġle mma
Ġtox ic
Ġac ade
s low
f und
Ġprom ising
sig moid
w rapped
bra ck
åŃ Ĺ
22 9
ec y
30 5
ĠC t
now ledge
ĠSecret ary
ron s
ul ators
Object s
Ed ge
Ġ1 38
Ã¡ s
Ġscen arios
Ġ ĠĠĠĠĠĠĠĠĠĠĠĠĠĠĠĠĠĠĠĠĠĠĠĠĠĠĊĠĠ
Main Window
000 6
ma v
ĠH ost
big l
Ġen semble
Ġend ogenous
rict ion
Ġdisclo sure
script style
Ġdis charg
Å Ļ
Ġret ention
Ġr ub
Ġ ĠĠĠĠĠĠĠĠĠĠĠĠĠĠĠĠĠĠĠĠĠĠĠĠĠĠĠĠĠĠĠĠĠĠĠĠĠĠĠĠĠĠĠĠĠĠĠĠĠĠĠĠĠĠĠĠĠĠĠĠĠĠĠĠĠĠĠĠĠĠĠĠĠĠĠĠĠĠĠĠĠĠĠĠĠĠĠĠĠĠĠĠĠĠĠĠĠĠĠĠĠĠĠĠĠĠĠĠĠĠĠĠĠĠĠĊĠ
Ġ ĠĠĠĠĠĠĠĠĠĠĠĠĠĠĠĠĠĠĠĠĠĠĠĠĠĊĊĠ
ion ic
ĠL ag
Ġanaly tical
b idden
built in
Ð°Ð »
ĠR ow
id ade
Ġh ap
re load
Ġb or
IB UT
xe a
3 80
od al
Ġt vm
e ah
Ġcy clo
ĊČĠĠĠĠĠĠĠĠĠĠĠĠĠĠĠĠ Ġ
Ġ0 1
ri ers
__( *
Ġ$ |\
Con verter
Ġh or
Fe ed
ĠB es
f riend
Ġan est
26 5
ĠS Y
P air
ens us
ĠCl inical
g red
l ined
w at
Process ing
us p
od d
Ġdist al
ĠF ull
ĠH an
Ġ ĠĠĠĠĠĠĠĠĠĠĠĠĠĠĠĠĠĠÂł
ĠM T
Ġre dis
local s
i y
ĊĠĠĠĠĠĠĠĠĠĠĠĠĠĠĠĠĠĠĠĠĠĠĠĠĠĠĠĠĠĠĠĠĠĠĠĠĠĠĠĠĠĠĠĠĠĠĠĠĠĠĠĠĠĠĠĠĠĠĠĠĠĠĠĠĠĠĠĠĠĠĠĠĠĠĠĠĠĠĠĠĠĠĠĠĠĠĠĠĠĠĠĠĠĠĠĠĠĠĠĠĠĠĠĠĠĠĠĠĠĠĠĠĠĠĠĠĠĠĠĠĠĠĠĠĠĠĠĠĠĠĠĠ Ġ
B IN
m its
Ġb ag
D uring
ĠPRO VID
ĠR PC
Ġill ness
sc enario
ĠCurrent ly
Ġtrans istor
== "
lo mer
fact ors
C ENT
Ġt ex
ĠS ymbol
Ġkeep ing
Dep end
Ġt etra
cl ients
ig ate
Ġconst itu
s uggest
F oo
ĠKing dom
pt ime
y t
Ġb b
, ,
++ )
}_{ {\
Ċ ĊĠĠĠĠĠĠĠĠ
(' ')
ĠT i
rie ve
$ ),
al one
NO DE
Ġk new
t ls
) +\
der iv
He alth
Ġ ĊĊĠĠĠĠĠĠĠ
Ġmil k
Ġconnect ivity
32 7
ST EM
Ġin testinal
Ġser ves
R ENT
So ftware
ob acter
Char acter
Ġg c
f its
Ġprejud ice
Ġwall s
24 8
Ġ1 55
= ",
Ġequal ity
L T
Ġaw s
DEF INE
Ġspec ifies
xc d
Ġhorm one
Ġdemonstr ates
Ġexcess ive
60 5
c ial
Ġcomp artment
Ġagree ments
30 6
Ġmethyl ation
im b
trans actions
ĠS S
ict or
ĠG O
Ġ ĠĠĠĠĠĠĠĠĠĠĠĠĠĠĠĠĠĠĠĠĠĠĠĠĠĠĊĊĠ
ĠTrain ing
Ġprim ers
Ġ ĠĠĠĠĠĠĠĠĠĠĠĠĠĠĠĠĠĠĠĠĠĠĠĠĠĠĠĊĠĠ
Ġ ĠĠĠĠĠĠĠĠĠĠĠĠĠĠĠĠĠĠĠĠĠĠĠĠĠĠĠĠĠĠĠĠĠĠĠĠĠĠĠĠĠĠĠĠĠĠĠĠĠĠĠĠĠĠĠĠĠĠĠĠĠĠĠĠĠĠĠĠĠĠĠĠĠĠĠĠĠĠĠĠĠĠĠĠĠĠĠĠĠĠĠĠĠĠĠĠĠĠĠĠĠĠĠĠĠĠĠĠĠĠĠĠĠĠĠĠĊĠ
L IMIT
Ġco vers
Ġadapt ive
Ġtran scripts
gu ard
ç ī
Ġl l
Ġex emp
Ġshif ts
min ation
Ġsole ly
> /
Ġflu or
hydro xy
WIT H
ist o
Ġcap ability
Ġnot ion
tr ust
) ~
Ġcontain ers
Ċĉĉ Ċĉ
Ġrecommend ations
In sert
Ġshe ar
check sum
g f
ĠV E
Ġefficient ly
T ri
inter p
sc aled
======== =
S UPPORT
et t
15 1
ens is
P ress
\* ](#
RE E
ME DI
Tr igger
ĊĠĠĠĠĠĠĠĠĠĠĠĠĠĠĠĠĠĠĠĠĠĠĠĠĠĠĠĠĠĠĠĠĠĠĠĠĠĠĠĠĠĠĠĠĠĠĠĠĠĠĠĠĠĠĠĠĠĠĠĠĠĠĠĠĠĠĠĠĠĠĠĠĠĠĠĠĠĠĠĠĠĠĠĠĠĠĠĠĠĠĠĠĠĠĠĠĠĠĠĠĠĠĠĠĠĠĠĠĠĠĠĠĠĠĠĠĠĠĠĠĠĠĠĠĠĠĠĠĠĠĠĠĠ Ġ
^{ *
ĠCan cer
Ġappoint ed
s uit
Â ¦
Ow ner
ĠY oung
0 37
ne ut
ĠFe ature
xd c
ĠA re
ĠB on
================================ ================
cal cul
Ġmon itored
ĠG r
Ġd rag
) {\
ph ot
Ġst ochastic
Ġpast e
Ġ"/ "
ca ption
Ġl act
=" %
or acle
Ġi mplements
Ġsuffer ed
P ad
30 8
at ile
ĊČĠĠĠĠĠĠĠĠĠĠĠĠĠĠĠĠĠ Ġ
Ġ ĠĠĠĠĠĠĊ
Cert ificate
Â ª
F inal
Ġb ron
pr ising
onal d
p th
Ġw t
pl aces
Ġxml ns
use um
c annot
Â Ļ
Ġs ul
Ġc er
Ġuniform ly
re ction
Ġcon sensus
Ġn Ã£o
ad apter
ac char
Ġsetup tools
neighb or
Ġtear Down
d os
ĠEx change
end o
Ġcy totox
tt s
re con
ĠM AP
Ġt on
con verter
Ġrespons ibility
] },
\ {\
Ġinf ants
Ġappell ate
Ġb os
g ain
Ġart ist
ĠSw ed
Ġle x
ĠIN TO
op ic
Ġ ĠĠĠĠĠĠĠĠĠĠĠĠĠĠĠĠĠĠĠĠĠĠĠĠĠĠĠĠĠĠĠĠĠĠĠĠĠĠĠĠĠĠĠĠĠĠĠĠĠĠĠĠĠĠĠĠĠĠĠĠĠĠĠĠĠĠĠĠĠĠĠĠĠĠĠĠĠĠĠĠĠĠĠĠĠĠĠĠĠĠĠĠĠĠĠĠĠĠĠĠĠĠĠĠĠĠĠĠĠĠĠĠĠĠĠĠĠĊĠ
Rep ository
bu ff
ozy g
it us
]) [
new s
it ize
polym ers
K S
er ry
Ġro uting
000 7
Ġ ĠĠĠĠĠĠĠĠĠĠĠĠĠĠĠĠĠĠĠĠĠĠĠĠĠĠĠĊĊĠ
Ġ ĠĠĠĠĠĠĠĠĠĠĠĠĠĠĠĠĠĠĠĠĠĠĠĠĠĠĠĠĊĠĠ
Ġcataly st
M ARK
'] }
Z one
Ġrecomb inant
Ġrec ru
Ġprec ip
Ġ1 45
Ġphosph ate
Ġsp acing
aj ax
f rozen
con omic
Ġlist en
Author ization
ĠW ood
- ,
track ed
22 8
64 7
ĠDe bt
loc s
ĠP IL
transform er
Ġaff irmed
f ect
ĠB est
Ġg p
Ġs nap
Ġst reams
Ġsay ing
ĠS k
off sets
Ġventric ular
Ġge ometric
ĠC OL
ĠM E
S ensor
B ind
tot ype
ans as
~ .
ob serv
ĊĠĠĠĠ ĊĠĠĠĠĠĠĠ
16 2
ob il
E lect
ĠRo ad
dispatch er
CE PT
ĠLe vel
ad i
Ġbre ach
Ġhist or
b as
Ġl y
" ',
Ġda ma
Ġap art
def initions
Ġtech nologies
Ġcrit ic
17 1
atal og
IL L
B a
ĊĠĠĠĠĠĠĠĠĠĠĠĠĠĠĠĠĠĠĠĠĠĠĠĠĠĠĠĠĠĠĠĠĠĠĠĠĠĠĠĠĠĠĠĠĠĠĠĠĠĠĠĠĠĠĠĠĠĠĠĠĠĠĠĠĠĠĠĠĠĠĠĠĠĠĠĠĠĠĠĠĠĠĠĠĠĠĠĠĠĠĠĠĠĠĠĠĠĠĠĠĠĠĠĠĠĠĠĠĠĠĠĠĠĠĠĠĠĠĠĠĠĠĠĠĠĠĠĠĠĠĠĠĠĠ Ġ
Ġm im
Re ce
ĠP DF
A ge
az ine
Ġtri ple
Ġaque ous
ĠM us
replic a
Ġant ioxid
ia z
Ġmulti processing
Train ing
5 000
Ġser ving
Ġur ban
ĠO ption
Ġc ros
Ġw oman
]] ):
Ġcallback s
ĠM AC
Ġassert ion
Ġg pu
fil ing
A W
WI SE
n est
< ?
C LO
Ġdro pped
ĊČĠĠĠĠĠĠĠĠĠĠĠĠĠĠĠĠĠĠ Ġ
K it
ĠMed ia
Ġneighb ors
Ġ ĠĠĠĠĠĠĠĠĠĠĠĠĠĠĠĠĠĠĠĠĠĠĠĠĠĠĠĠĊĊĠ
Ġintegr ity
HAND LER
c is
view er
Ġeigen values
D one
\ !
: #
e ma
call able
C ent
am er
FIEL D
E p
an es
f ib
Ġassert s
v ine
Ġneglig ence
lev ance
19 82
res idual
od b
ĠM g
QU E
Ġ ĠĠĠĠĠĠĠĠĠĠĠĠĠĠĠĠĠĠĠĠĠĠĠĠĠĠĠĠĠĠĠĠĠĠĠĠĠĠĠĠĠĠĠĠĠĠĠĠĠĠĠĠĠĠĠĠĠĠĠĠĠĠĠĠĠĠĠĠĠĠĠĠĠĠĠĠĠĠĠĠĠĠĠĠĠĠĠĠĠĠĠĠĠĠĠĠĠĠĠĠĠĠĠĠĠĠĠĠĠĠĠĠĠĠĠĠĠĠĊĠ
=" @
Ġhep atic
B UT
pro jection
)) $
ĠE very
=" \
- {
may be
ĠA ust
Ã© n
second ary
UN IT
spec ified
co vered
x ca
Ġs lices
itt i
Ġ1 67
Ñ Ī
Â ³
Ġdoct rine
ĠAss ume
Ġs z
ĠD ig
h ape
OP EN
Bu cket
ise ase
), $$
Ġare n
oh ist
pp at
ãĢ ģ
0 40
car bon
is i
Ġ ĠĠĠĠĠĠĠĠĠĠĠĠĠĠĠĠĠĠĠĠĠĠĠĠĠĠĠĠĠĊĠĠ
B AD
le e
ĠC SV
,\ ,\
Ġdes ktop
å ¸
st reams
index er
MO DULE
remain ing
an ied
ole cular
Ġle ase
d w
De cl
Ġper ceived
ĠTensor Flow
TEMPL ATE
I H
_ =
D on
Ġin dict
ft p
Child ren
ĠP ubl
liter al
le et
Ġpro position
d frac
p db
M N
Ġembod iment
' >
& #
depend ence
Ġ( âĪĴ
er ation
temp orary
ym metry
ĠVal ues
is cal
en z
Ġl ap
Ġvul ner
ĠD ifferent
ss a
G PU
å® ļ
fin ite
dehy de
Ġ\ '
fol io
Ġdiet ary
æ Ģ
Ġpart itions
Ġclin ically
Ġ ĠĠĠĠĠĠĠĠĠĠĠĠĠĠĠĠĠĠĠĠĠĠĠĠĠĠĠĠĠĊĊĠ
Al ert
Ù Ħ
). ](
Ġo h
rad io
Ġang io
æ Ķ
0 34
* ),
32 4
get text
Ġrepl acing
Ġs ongs
åı ¯
Â Ŀ
ĊĠĠĠĠĠĠĠĠĠĠĠĠĠĠĠĠĠĠĠĠĠĠĠĠĠĠĠĠĠĠĠĠĠĠĠĠĠĠĠĠĠĠĠĠĠĠĠĠĠĠĠĠĠĠĠĠĠĠĠĠĠĠĠĠĠĠĠĠĠĠĠĠĠĠĠĠĠĠĠĠĠĠĠĠĠĠĠĠĠĠĠĠĠĠĠĠĠĠĠĠĠĠĠĠĠĠĠĠĠĠĠĠĠĠĠĠĠĠĠĠĠĠĠĠĠĠĠĠĠĠĠĠĠĠĠ Ġ
spl its
Ġpro st
Se cret
uc id
$ ^
Ġsearch ing
[ ]{
0 39
Ġcere bral
Ġin consistent
v n
Ġl um
Ġrel ies
0 35
Ġfet al
Ġden ying
ĠPre vious
+ ',
y ellow
x iv
Ġ ĠĠĠĠĠĠĠĠĠĠĠĠĠĠĠĠĠĠĠĠĠĠĠĠĠĠĠĠĠĠĠĠĠĠĠĠĠĠĠĠĠĠĠĠĠĠĠĠĠĠĠĠĠĠĠĠĠĠĠĠĠĠĠĠĠĠĠĠĠĠĠĠĠĠĠĠĠĠĠĠĠĠĠĠĠĠĠĠĠĠĠĠĠĠĠĠĠĠĠĠĠĠĠĠĠĠĠĠĠĠĠĠĠĠĠĠĠĠĠĊĠ
Ġde pri
v endor
ĠOffic er
im als
Ġp run
Ġad apter
yl im
] })
sub mission
ame tric
st ick
ĠCol umb
C AN
Ġloc us
G ate
ĠM usic
Ġshould n
D er
Ġenc ryption
D isk
Ġcyl inder
Â Ĭ
ĠAg ain
tensor flow
- $
mer ged
Max imum
ĠS am
L ines
r hs
ĠP H
ile y
ab i
ĊČĠĠĠĠĠĠĠĠĠĠĠĠĠĠĠĠĠĠĠ Ġ
oll ary
ĠExt ra
ro ut
}{ (
ĠM aterial
ub ble
Ġref used
s ound
g ran
Ġg astro
CON NE
Pri or
V IEW
AR E
cur s
Ġend points
on line
Ch ain
assertAll Equal
gen ome
ĠCarol ina
24 7
gra ds
hol ding
g un
tri vial
! --
f ly
sh ot
Ġpen et
co d
get value
ĠC e
r ison
Ġinit iated
ER R
CU DA
Ġkin etic
S cope
W C
g rant
om ers
to matic
Re present
S ide
Ġampl ification
B ra
S ING
Ġ ĠĠĠĠĠĠĠĠĠĠĠĠĠĠĠĠĠĠĠĠĠĠĠĠĠĠĠĠĠĠĊĠĠ
ĠN H
ĠIn cre
b ac
Ġ} ),
un ary
ĠSto re
ĠI M
Ġsc oring
AT URE
c ards
up ported
2 60
Ġcompos itions
Ġgener ators
Ġaccording ly
y cin
é Ļ
Ġkin ds
Ġpre determined
Ð ¹
IN IT
ow a
Fe atures
ĠF ace
ms rest
Ñ Ĭ
ĠA ud
`` `
Ġsub tract
3 01
ĠGe org
gl u
aut hentication
R D
Ġorth ogonal
ĠStud ent
Ġdecl ar
0000 000
Reg istry
Ġ ĠĠĠĠĠĠĠĠĠĠĠĠĠĠĠĠĠĠĠĠĠĠĠĠĠĠĠĠĠĠĊĊĠ
mon d
? )
Ġpse ud
Ġ19 79
Ġhelp ers
Ġ( ),
IN DEX
x o
ĠR ange
Not Exist
Ġpat ches
Ġr ho
ĊĠĠĠĠĠĠĠĠĠĠĠĠĠĠĠĠĠĠĠĠĠĠĠĠĠĠĠĠĠĠĠĠĠĠĠĠĠĠĠĠĠĠĠĠĠĠĠĠĠĠĠĠĠĠĠĠĠĠĠĠĠĠĠĠĠĠĠĠĠĠĠĠĠĠĠĠĠĠĠĠĠĠĠĠĠĠĠĠĠĠĠĠĠĠĠĠĠĠĠĠĠĠĠĠĠĠĠĠĠĠĠĠĠĠĠĠĠĠĠĠĠĠĠĠĠĠĠĠĠĠĠĠĠĠĠĠ Ġ
Ġlist ing
Ġbeh alf
M ON
Ġdeep copy
dis connect
Ġy east
ĠEx p
R a
od s
Ġb ash
G re
Ġpack ets
ĠL os
æ Į
Select or
ĠPetition er
Ġtransf ected
Ġvo or
Ġda ughter
ĠLes ser
Ġimplic ations
ul ent
Ġlearn ed
Ġ ĠĠĠĠĠĠĠĠĠĠĠĠĠĠĠĠĠĠĠĠĠĠĠĠĠĠĠĠĠĠĠĠĠĠĠĠĠĠĠĠĠĠĠĠĠĠĠĠĠĠĠĠĠĠĠĠĠĠĠĠĠĠĠĠĠĠĠĠĠĠĠĠĠĠĠĠĠĠĠĠĠĠĠĠĠĠĠĠĠĠĠĠĠĠĠĠĠĠĠĠĠĠĠĠĠĠĠĠĠĠĠĠĠĠĠĠĠĠĠĠĊĠ
pre load
Âļ ÂĦ
######################################################################## #######
ans ible
Ġunder go
C r
ed y
Ġre mand
w ire
crypt o
R P
Ġprob le
Ġalter ations
ĠS SL
uclide an
åĲ į
lene ck
ĠItal y
ch dir
b ran
d ue
Ġc ategorical
L AN
=' ')
^{ {\
Mag icMock
19 3
ĠAP PE
Ġf ifth
ĠH OLDER
long rightarrow
Ġdis posed
Ġqu ot
Ġn utr
Ġro d
ecy cle
Ġcol le
' /
F ace
OL D
ĠA greement
Ġvit amin
ĠSH ALL
sc ales
Ġno vo
ĠUn icode
Q uestion
ĠSpec ifies
le ave
zo om
an de
ĠIn ternal
xx x
Ġ1 75
Ġmyocard ial
sub s
pro fit
Ġv a
Ġo u
Ġpres erved
_ ()
B in
Îµ Î¹
Ġsc ra
ĠA gent
Ġj np
Ġanim ation
ĠQ gs
Ġexperi ences
Ġvi ability
Q A
for ced
ic ated
ĠF act
Ġarg v
Ġen ded
con tour
Ġun defined
Ġso up
En coding
Ġassume s
d ater
Ġplas mid
Al ign
Ġtransl ated
åĢ ¼
Ġ ĠĠĠĠĠĠĠĠĠĠĠĠĠĠĠĠĠĠĠĠĠĠĠĠĠĠĠĠĠĠĠĊĊĠ
Ġsynt hesized
ĠMax imum
Or gan
čĊĉĉ ĉĉ
æ ³
Sc ene
18 6
Ġtime ly
ĠL ake
è¯ ·
pot ential
Not ification
Ġex ert
]] ]
Ġfore st
remo ved
al ways
LE T
Ġ ĠĠĠĠĠĠĠĠĠĠĠĠĠĠĠĠĠĠĠĠĠĠĠĠĠĠĠĠĠĠĠĊĠĠ
Ġprogn osis
ĠE uro
Ġnucle otide
sy mp
Ġse iz
Ġspher ical
S ync
ent e
Ġd ome
ject ories
() {
åĪ Ĩ
M esh
ĠG tk
Ġexplo red
al gebra
- )
23 8
ĊĠĠĠĠĠĠĠĠĠĠĠĠĠĠĠĠĠĠĠĠĠĠĠĠĠĠĠĠĠĠĠĠĠĠĠĠĠĠĠĠĠĠĠĠĠĠĠĠĠĠĠĠĠĠĠĠĠĠĠĠĠĠĠĠĠĠĠĠĠĠĠĠĠĠĠĠĠĠĠĠĠĠĠĠĠĠĠĠĠĠĠĠĠĠĠĠĠĠĠĠĠĠĠĠĠĠĠĠĠĠĠĠĠĠĠĠĠĠĠĠĠĠĠĠĠĠĠĠĠĠĠĠĠĠĠĠĠ Ġ
Ġ-------------------------------- ------------------------
Ġ1 70
ĊČĠĠĠĠĠĠĠĠĠĠĠĠĠĠĠĠĠĠĠĠ Ġ
Ġh ub
æĪ Ĳ
-+-+ -+-+
Ġris ks
Ġin complete
sol ved
j j
Ġsub sets
Ġas king
ĠE nergy
W in
ĠH arr
Ġhist orical
g id
ĠG re
dis crimin
Ġdi abetic
) -\
Ġaver aged
em y
ĠATT R
ĠL en
Ġf ixture
N ER
Ġst oring
qu iry
ĠWAR NING
Ġact u
Ed itor
Ġbe coming
Ġdo g
az ione
å ·
ĠReg ion
as hes
ĠT ool
Ġ ĠĠĠĠĠĠĠĠĠĠĠĠĠĠĠĠĠĠĠĠĠĠĠĠĠĠĠĠĠĠĠĠĠĠĠĠĠĠĠĠĠĠĠĠĠĠĠĠĠĠĠĠĠĠĠĠĠĠĠĠĠĠĠĠĠĠĠĠĠĠĠĠĠĠĠĠĠĠĠĠĠĠĠĠĠĠĠĠĠĠĠĠĠĠĠĠĠĠĠĠĠĠĠĠĠĠĠĠĠĠĠĠĠĠĠĠĠĠĠĠĠĊĠ
Ġprov en
Ġw aste
Ġbuilt in
Ġinter net
Ġcon test
Ġ19 78
++++ ++++
Ġcap abilities
Ġinit iation
Ġreach ing
dir ty
Ġl ag
') ):
Av ailable
Ġmin i
mat plotlib
L ES
ĠM ET
CH O
Ġcort ical
icip ant
assertIsNot None
Ġnanop articles
mod ify
ĠDis play
Ġpsy chiat
Å Ľ
Ġimmun o
o y
Ġpow der
Ġperson nel
Ġstation ary
Ġel der
ET HER
ĠC ast
Ġc ash
Ġun us
Ġp ragma
ator ies
ĠB SD
control s
ĠSh ort
Ġ ĠĠĠĠĠĠĠĊ
Ġphys icians
Ġun signed
it an
Ġr m
Ġh usband
Ġ ĠĠĠĠĠĠĠĠĠĠĠĠĠĠĠĠĠĠĠÂł
ian o
enc ryption
Ġsubst itution
Ġ ĠĠĠĠĠĠĠĠĠĠĠĠĠĠĠĠĠĠĠĠĠĠĠĠĠĠĠĠĠĠĠĠĊĊĠ
} >
ch lor
Ġorbit al
am ino
Ġcor por
Ġro spy
Ġw et
Ġe arn
r er
ĠM P
ĠÃ ħ
pl er
Ġexhib its
ĠString IO
Ġtw enty
Ġtri es
__ ["
Ġchallen ging
Ġtum our
ul as
Ġrece ives
Ø ±
Exec ute
Ġperform s
ĠâĢľ [
ĠN Y
WID TH
Down load
Ġsup pose
Ġread only
Ġtransform ations
Ġdynam ical
Ġstead y
Ġliter al
ĠPl ace
Re set
Ġobj ection
OPT IONS
Ġ{ :.
ron tal
28 8
30 2
Ġtri m
Ġgrav it
Ġreg im
ĊĠĠĠĠĠĠĠĠĠĠĠĠĠĠĠĠĠĠĠĠĠĠĠĠĠĠĠĠĠĠĠĠĠĠĠĠĠĠĠĠĠĠĠĠĠĠĠĠĠĠĠĠĠĠĠĠĠĠĠĠĠĠĠĠĠĠĠĠĠĠĠĠĠĠĠĠĠĠĠĠĠĠĠĠĠĠĠĠĠĠĠĠĠĠĠĠĠĠĠĠĠĠĠĠĠĠĠĠĠĠĠĠĠĠĠĠĠĠĠĠĠĠĠĠĠĠĠĠĠĠĠĠĠĠĠĠĠĠ Ġ
C AT
[ _
ĠM iller
graph ics
int ent
FA I
Ġ ĠĠĠĠĠĠĠĠĠĠĠĠĠĠĠĠĠĠĠĠĠĠĠĠĠĠĠĠĠĠĠĠĊĠĠ
Ġprosec ution
G Y
Ġmicro scope
el come
Ġpositive ly
Ġm ature
iter able
Ġnat urally
K T
Th us
Ġaccomp anied
ĠJack son
g if
32 1
ĠW in
tit les
Ġconvict ed
Ġw orse
Ġve get
dat aloader
Ġver ification
Ġz u
it one
Ġcy tos
iqu it
ig ens
st ers
ern at
Ġexpon ent
ĠER ROR
ĠW ater
Ġac company
Ġcust ody
Ġinstrument s
N L
Ġcal endar
Ġd om
ĠK ar
o e
x l
ĠCan adian
čĊĉĉ ĉĉĉĉ
re tries
ĠExt ract
gress ive
and ra
Ġcryst all
Ġauthor ization
igh ter
as a
tick et
ĠConst itution
Ġ ĠĠĠĠĠĠĠĠĠĠĠĠĠĠĠĠĠĠĠĠĠĠĠĠĠĠĠĠĠĠĠĠĠĠĠĠĠĠĠĠĠĠĠĠĠĠĠĠĠĠĠĠĠĠĠĠĠĠĠĠĠĠĠĠĠĠĠĠĠĠĠĠĠĠĠĠĠĠĠĠĠĠĠĠĠĠĠĠĠĠĠĠĠĠĠĠĠĠĠĠĠĠĠĠĠĠĠĠĠĠĠĠĠĠĠĠĠĠĠĠĠĠĊĠ
Ġclin ic
ĠVariable s
Http Response
gr p
ĠR ules
Ġw ood
ĠP eter
cc cc
Red irect
Exec utor
at on
ĠN T
2 15
split ext
Spe ed
Ġdecl aration
p ure
b ec
Ġre pos
Ġ ery
retri eve
chem ical
Ġtermin ated
Ġ ĠĠĠĠĠĠĠĠĠĠĠĠĠĠĠĠĠĠĠĠĠĠĠĠĠĠĠĠĠĠĠĠĠĊĊĠ
Ġhist ogram
C AD
ĊČĠĠĠĠĠĠĠĠĠĠĠĠĠĠĠĠĠĠĠĠĠ Ġ
tod o
Ġb tn
Ġs r
v out
ĥ ½
cut s
ä ¾
prop ag
ar co
loc ator
22 7
Ġs am
Ġcontinuous ly
Ġc u
Ġpro j
ĠT re
Ġdifficult ies
IN VALID
23 9
() `
16 1
EN AME
ill ance
Ġh over
ll er
pc bi
Ġsh oot
Ġsort ing
ĠCamb ridge
Ġle ader
ro gen
inter net
B ecause
IN S
åħ ¥
v ac
Ġgly ph
Ġhip pocamp
Ġâī ¤
Mo use
AAAA AAAA
Ġin sp
al tern
ĠM atch
ĠSouth ern
moment um
Ġc ru
Ġtext ure
Ġob st
ĠEnt ity
W rit
Ġbat ches
Ġl d
do o
mp ool
Sw itch
ĠWil son
Ġ ĠĠĠĠĠĠĠĠĠĠĠĠĠĠĠĠĠĠĠĠĠĠĠĠĠĠĠĠĠĠĠĠĠĊĠĠ
up t
Ġun e
A U
Ġsh aring
åľ ¨
Ġg s
Ġca ption
ar ct
ĠGener ic
ĠCo mpl
v ae
prote ct
Ġexec utor
contin uous
Ġf ly
d aily
Ġplace holder
Ġpsycho logical
ĠRich ard
att entions
ĠStat istical
Ġindu strial
ĊĠĠĠĠĠĠĠĠĠĠĠĠĠĠĠĠĠĠĠĠĠĠĠĠĠĠĠĠĠĠĠĠĠĠĠĠĠĠĠĠĠĠĠĠĠĠĠĠĠĠĠĠĠĠĠĠĠĠĠĠĠĠĠĠĠĠĠĠĠĠĠĠĠĠĠĠĠĠĠĠĠĠĠĠĠĠĠĠĠĠĠĠĠĠĠĠĠĠĠĠĠĠĠĠĠĠĠĠĠĠĠĠĠĠĠĠĠĠĠĠĠĠĠĠĠĠĠĠĠĠĠĠĠĠĠĠĠĠĠ Ġ
ma int
p itch
un link
Ġinf il
ad ir
CAC HE
smo oth
pixel s
Ġanaly tic
Ġtranscription al
set Level
cor pus
17 3
ĠR ight
Ġrestrict ions
K O
i q
Ġvalu able
duplic ate
] ')
regular izer
Ġp ra
pe x
Ġfl ight
Ġ ĠĠĠĠĠĠĠĠĠĠĠĠĠĠĠĠĠĠĠĠĠĠĠĠĠĠĠĠĠĠĠĠĠĠĊĊĠ
]^ ,
Ġcorre ctions
Ġ ĠĠĠĠĠĠĠĠĠĠĠĠĠĠĠĠĠĠĠĠĠĠĠĠĠĠĠĠĠĠĠĠĠĠĠĠĠĠĠĠĠĠĠĠĠĠĠĠĠĠĠĠĠĠĠĠĠĠĠĠĠĠĠĠĠĠĠĠĠĠĠĠĠĠĠĠĠĠĠĠĠĠĠĠĠĠĠĠĠĠĠĠĠĠĠĠĠĠĠĠĠĠĠĠĠĠĠĠĠĠĠĠĠĠĠĠĠĠĠĠĠĠĠĊĠ
AL LOW
ĠA WS
con cept
lle es
ro ve
def er
ĠPro file
h abil
Ġre use
âĪ Ĺ
clus ively
SO URCE
m ongo
Ġbo ost
Â £
t id
Ġ0 9
T IM
Ġindividual ly
Ġwon der
Ġdedic ated
veh icle
30 7
ĠSet up
Ph ase
Ġtransplant ation
\ )
ĠN i
å ¹
con ver
Ġfall s
ira cy
Ġun changed
Ġre active
)) \
t abs
:") {
Ġfall back
ho ver
is c
Ġ Ã¤
ict ures
ĠS cal
ĠDav is
ĠL PS
UT C
Ġacceler ation
29 5
34 5
ival ent
Ġenforce ment
Ġyoun ger
čĊĠĠĠĠĠĠĠĠ čĊĠĠĠĠĠĠĠ
con tra
ĠM ut
0 50
Ġdis appe
Ġ ĊĠĠĠĠĠ
ĠB rief
Ġ1 48
f loating
ick ing
ĠR EST
)) ),
at en
N B
ĠFl ask
Ġurl s
Ġb n
//////// ////////
ĊĠ Ċ
ĠSup plementary
ĠMan ager
Ġ ĠĠĠĠĊĠĠĠ
Ġcut ting
Ġcycl ic
Ġed iting
Ġreal m
Ġreflect s
is nan
25 7
Ġ ĠĠĠĠĠĠĠĠĠĠĠĠĠĠĠĠĠĠĠĠĠĠĠĠĠĠĠĠĠĠĠĠĠĠĊĠĠ
ĠD ES
ĠR ail
b boxes
ĊČĠĠĠĠĠĠĠĠĠĠĠĠĠĠĠĠĠĠĠĠĠĠ Ġ
ĠPhys ics
ĠR h
stri des
LAB EL
Ġad vice
Ġerr one
Ġfe et
IG H
Ġlit igation
ĠAppend ix
Ġ_ (
l ights
Ġb udget
ĠT aylor
Ġmulti plic
Ã© e
Ġf f
Ġtri angle
ID ENT
pub key
IS ING
Ð ³
ma zon
22 3
an chors
ĠOver all
è ´
eth yl
Ġm c
è ¾
ĠR ock
Ġk i
se ver
Rem ote
Ġphy logen
Ġ ĠĠĠĠĠĠĠĠĠĠĠĠĠĠĠĠĠĠĠĠĠĠĠĠĠĠĠĠĠĠĠĠĠĠĠĊĊĠ
G a
]) ]
no va
ĠCONTR ACT
Ġfibro blast
st ory
ord an
P ars
Ġline width
27 0
ĠS ite
Ġequal s
ens ation
Ġl hs
E ach
ĠH ard
S al
lat itude
Ġ ĠĠĊĠĠĠĠĠĠĠĠĠĠĠ
it ure
ĠS pect
K L
Ñ ī
ĠAN OVA
ĠW ord
ĠE mail
ĠW ait
comp arison
29 3
Ġro ck
ĠF ifth
In f
grad ients
log ically
ĊĠĠĠĠĠĠĠĠĠĠĠĠĠĠĠĠĠĠĠĠĠĠĠĠĠĠĠĠĠĠĠĠĠĠĠĠĠĠĠĠĠĠĠĠĠĠĠĠĠĠĠĠĠĠĠĠĠĠĠĠĠĠĠĠĠĠĠĠĠĠĠĠĠĠĠĠĠĠĠĠĠĠĠĠĠĠĠĠĠĠĠĠĠĠĠĠĠĠĠĠĠĠĠĠĠĠĠĠĠĠĠĠĠĠĠĠĠĠĠĠĠĠĠĠĠĠĠĠĠĠĠĠĠĠĠĠĠĠĠĠ Ġ
23 7
ĠE urop
ren ds
B ool
ĊĠĠĠĠĠĠĠĠĠĠĠĠĠĠĠĠ ĊĠĠĠĠĠĠĠĠĠĠĠĠĠĠĠ
ab b
Frame work
Ġ ĠĠĠĠĠĠĠĠĠĠĠĠĠĠĠĠĠĠĠĠĠĠĠĠĠĠĠĠĠĠĠĠĠĠĠĠĠĠĠĠĠĠĠĠĠĠĠĠĠĠĠĠĠĠĠĠĠĠĠĠĠĠĠĠĠĠĠĠĠĠĠĠĠĠĠĠĠĠĠĠĠĠĠĠĠĠĠĠĠĠĠĠĠĠĠĠĠĠĠĠĠĠĠĠĠĠĠĠĠĠĠĠĠĠĠĠĠĠĠĠĠĠĠĠĊĠ
b j
D V
al bum
ĠRad io
Optim izer
$ :
ĠS EM
4 80
Â ©
Ġsco red
Ġexp enses
Ġ. $$
CH AR
27 5
Ġcerv ical
h g
Ġc ategor
01 01
ic ide
w ing
__ :
Q Size
Ġneg ot
K ind
f id
Le g
ĠDAM AGES
P en
sc ious
(( (
num er
per formance
Ġplatform s
Ġra b
art ist
press ure
Ġan is
Ġany way
mut ations
e ur
thumb nail
Ġrepro duce
sect s
Q Q
={} ):
ĠP V
Ġeduc ational
ak y
H V
ox el
n os
Up load
Ġa io
ĠÃ ¦
ĠT ax
Ġinvas ive
g uest
vent h
Ġspect rome
2 14
ĠOrgan ization
Ġtra ces
orne ys
Ġalk yl
Ġ ĠĠĠĠĠĠĠĠĠĠĠĠĠĠĠĠĠĠĠĠĠĠĠĠĠĠĠĠĠĠĠĠĠĠĠĊĠĠ
ob last
b ond
fore ign
Ð¾Ð ³
ĠSt ar
object ive
36 8
Ġindic ation
Ġ'{} '
Ġsh ares
Ad am
ĠIN CLUDING
18 1
Ġ ĠĠĠĠĠĠĠĠĠĠĠĠĠĠĠĠĠĠĠĠĠĠĠĠĠĠĠĠĠĠĠĠĠĠĠĠĊĊĠ
Bo ard
ĠF O
return code
EM ENT
Ġag g
Ġbuild ings
Ġshif ted
request ed
Ġoff sets
ch t
Ġemp irical
indic ator
'] =
Ġcos mo
Y P
mb le
Ġ19 75
Ġarter ial
BU ILD
ĠN R
F IN
ĊĠĠĠĠĠĠĠĠĠĠĠĠĠĠĠĠĠĠĠĠĠĠĠĠĠĠĠĠĠĠĠĠĠĠĠĠĠĠĠĠĠĠĠĠĠĠĠĠĠĠĠĠĠĠĠĠĠĠĠĠĠĠĠĠĠĠĠĠĠĠĠĠĠĠĠĠĠĠĠĠĠĠĠĠĠĠĠĠĠĠĠĠĠĠĠĠĠĠĠĠĠĠĠĠĠĠĠĠĠĠĠĠĠĠĠĠĠĠĠĠĠĠĠĠĠĠĠĠĠĠĠĠĠĠĠĠĠĠĠĠĠ Ġ
Ġh older
Ġcontin ues
u de
Ġrelax ation
ĠAcade my
hist ogram
24 4
MO D
Ġf if
Ġde script
Ġs g
ock er
)) *
Ġbi opsy
vir uses
ĊČĠĠĠĠĠĠĠĠĠĠĠĠĠĠĠĠĠĠĠĠĠĠĠ Ġ
ĠTest Case
LOC AL
F it
Ġsche mes
Ġa mm
m us
Ġ ĠĠĠĠĠĠĠĠĠĠĠĠĠĠĠĠĠĠĠĠĠĠĠĠĠĠĠĠĠĠĠĠĠĠĠĠĠĠĠĠĠĠĠĠĠĠĠĠĠĠĠĠĠĠĠĠĠĠĠĠĠĠĠĠĠĠĠĠĠĠĠĠĠĠĠĠĠĠĠĠĠĠĠĠĠĠĠĠĠĠĠĠĠĠĠĠĠĠĠĠĠĠĠĠĠĠĠĠĠĠĠĠĠĠĠĠĠĠĠĠĠĠĠĠĠĊĠ
ĠM rs
Ġch i
Ġant enna
E B
orph ic
Ġ1 65
L at
or bit
+ --------
ĠU til
Ġposition al
Ġmalign ant
ĠM it
NE W
Ġcomb ining
19 81
coordin ate
' ")
t uples
ĠF uture
25 2
S an
Ġvar ies
ĠS W
F ake
Ġ20 4
wit ness
ĠJ aco
Ġposition ed
Ġk an
ul der
rece iver
ĠH aw
c map
l ane
d ry
emp loyee
im its
und o
ap ters
report s
ĠM ove
at tack
Ġres idence
L ANG
Ġne on
( ("
Ġpotential s
b ach
ig s
Ġsegment ation
Ġclean ing
Ã¤ Âº
45 67
Ù ħ
S parse
cho ose
DAT AB
Ġorgan ized
Ġk er
Ġfl av
__ ),
ĠS F
B undle
Ġ ĠĠĠĠĠĠĠĠĠĠĠĠĠĠĠĠĠĠĠĠĠĠĠĠĠĠĠĠĠĠĠĠĠĠĠĠĠĊĊĠ
Ġhe av
Ġrefer enced
Ġd ans
Ġsil ver
Ġrespond ents
comp ressed
da pt
V IS
H F
LIN K
Ġt ension
ĠEX PRESS
Ġredsh ift
el le
contain ers
Ġcontent ion
ĠPROVID ED
Ġbg color
Ġshe ets
Ġres c
Ġhierarch y
Ã ´
bra ce
ĠSt udio
ĠCall back
H ar
Ġde coded
Ġ ĠĠĠĠĠĠĠĠĠĠĠĠĠĠĠĠĠĠĠĠĠĠĠĠĠĠĠĠĠĠĠĠĠĠĠĠĊĠĠ
Ġ% %
Token izer
serial izers
Ġl ay
18 2
Ġquad ratic
T ools
Ġpost s
âķĲâķĲ âķĲâķĲ
Ġh ospitals
ĠVol ume
out ine
. *,
decor ators
---------------- -----
Ġresid ents
T i
ĊĠĠĠĠĠĠĠĠĠĠĠĠĠĠĠĠĠĠĠĠĠĠĠĠĠĠĠĠĠĠĠĠĠĠĠĠĠĠĠĠĠĠĠĠĠĠĠĠĠĠĠĠĠĠĠĠĠĠĠĠĠĠĠĠĠĠĠĠĠĠĠĠĠĠĠĠĠĠĠĠĠĠĠĠĠĠĠĠĠĠĠĠĠĠĠĠĠĠĠĠĠĠĠĠĠĠĠĠĠĠĠĠĠĠĠĠĠĠĠĠĠĠĠĠĠĠĠĠĠĠĠĠĠĠĠĠĠĠĠĠĠĠ Ġ
data class
Ġa i
ow ski
P t
D N
Ġ âĢī
tri angle
, %
ĠHand le
xf ord
mp i
p icture
(? :
inter section
IC S
ĠE arth
part itions
lo red
render er
ĠW is
Ġre name
Ġste el
f ive
Ġcop per
Ġk a
D istance
opath y
ĠE M
Ġf erm
Ġmembers hip
ch ing
Ġtop ics
Ġcyl ind
train able
Ġbreak ing
é ¢
ament o
ĠT urn
Ġpack ed
Ġcheck sum
Ġari ses
ĠCont in
ĠB ell
ĠCom ment
play list
ĠI i
Ġsplit ting
ic ates
Ġon going
ig a
af ka
Ġperturb ation
9 00
Ġge om
ero id
Ġhundred s
Prob lem
lem ma
Ġ ĠĠĠĠĠĠĠĠĠĠĠĠĠĠĠĠĠĠĠĠĠĠĠĠĠĠĠĠĠĠĠĠĠĠĠĠĠĠĠĠĠĠĠĠĠĠĠĠĠĠĠĠĠĠĠĠĠĠĠĠĠĠĠĠĠĠĠĠĠĠĠĠĠĠĠĠĠĠĠĠĠĠĠĠĠĠĠĠĠĠĠĠĠĠĠĠĠĠĠĠĠĠĠĠĠĠĠĠĠĠĠĠĠĠĠĠĠĠĠĠĠĠĠĠĠĠĊĠ
Ġbright ness
loc ities
limit ed
Does NotExist
C AL
^* $
ĠMex ico
ĠÐ ±
reg ression
ĊČĠĠĠĠĠĠĠĠĠĠĠĠĠĠĠĠĠĠĠĠĠĠĠĠ Ġ
he ld
it ched
Ġb old
ĠIn lineKeyboard
ur is
ĠC at
MP LE
ĠÏĦ Î·
32 8
Ġincreasing ly
2 16
Ġ` {
Ġ[ ("
und ant
fe ats
{ {{\
55 5
b ash
ld ap
Ġf ocal
Ġdoc string
M ath
Ġ ĠĠĠĠĠĠĠĠĠĠĠĠĠĠĠĠĠĠĠĠĠĠĠĠĠĠĠĠĠĠĠĠĠĠĠĠĠĠĊĊĠ
Ġ ĠĠĠĠĠĠĠĠĠĠĠĠĠĠĠĠĠĠĠĠÂł
Ġp unct
ig o
29 4
Ġfamil iar
Ġpredict or
j d
^ .
Ġr ural
Ġpower ful
Ð½ Ñĭ
b ag
M ULT
C ES
Work er
end ers
Ġc redential
d og
Ġfit ness
Ġ ĠâĢī
Exists Error
spect rum
ĠA BC
Ġpri mitive
Ġ ĠĠâĢī
/ ?
Sim ilar
ĠOr ig
Ġ$ ^{
Ġm ismatch
Ġconven ience
al and
tr ical
Ġdie lectric
Ġconsist ently
Ġar th
med ium
ca ine
feed back
FL AG
Ġdis ks
22 22
e u
Ã¤ t
Ġ ĠĠĠĠĠĠĠĠĠĠĠĠĠĠĠĠĠĠĠĠĠĠĠĠĠĠĠĠĠĠĠĠĠĠĠĠĠĊĠĠ
Ġclean ed
ĠSign al
ul ence
Ġad hes
Float Tensor
squ ared
pl astic
æ ±
\ %
Ġd ps
mac ro
ĠQ uestion
Ġsal ine
ĠAnd roid
30 3
('. /
Ġconf usion
Ġcont amin
Ġpar ad
S uite
ne arest
]{} .
Ġcat heter
ĠB R
Ġass ault
ll ants
NORM AL
urn ament
Ġconcept s
Label s
18 3
Ġther mo
post s
Ġph rase
ge on
ar ner
Ġpancre atic
ort ex
Ġfract ure
Ġl b
č ĊĠĠĠĠĠĠĠĠĠĠĠĠ
dete ctor
Ġtransform er
t iny
ĠLI ABLE
ĠA verage
è¿ Ķ
ĠE P
Ġcomp rom
cl amp
A verage
Ġelig ible
(- \
li ament
NU MBER
Ġcon servation
Ġf g
Ġel ong
pl aced
T ip
P ixel
Ġboot strap
ĠCl sType
Ġin voke
Ġdis agree
ade qu
)) **
number ed
mov ie
} )$,
ĠG UI
initial ized
Ġpro gen
ĠT GF
isk it
Ġcon e
S tage
'] ).
Ġ20 2
Ġ ĠĠĠĠĠĠĠĠĠĠĠĠĠĠĠĠĠĠĠĠĠĠĠĠĠĠĠĠĠĠĠĠĠĠĠĠĠĠĠĊĊĠ
Ġ4 03
am os
Ġenter ing
EE E
ĠD A
Ġconfig s
ins pect
Ġ ĠĠĠĠĠĠĠĠĠĠĠĠĠĠĠĠĠĠĠĠĠĠĠĠĠĠĠĠĠĠĠĠĠĠĠĠĠĠĠĠĠĠĠĠĠĠĠĠĠĠĠĠĠĠĠĠĠĠĠĠĠĠĠĠĠĠĠĠĠĠĠĠĠĠĠĠĠĠĠĠĠĠĠĠĠĠĠĠĠĠĠĠĠĠĠĠĠĠĠĠĠĠĠĠĠĠĠĠĠĠĠĠĠĠĠĠĠĠĠĠĠĠĠĠĠĠĠĊĠ
ĠWH ETHER
SETT INGS
Ł ¥
Ġquant ified
ĠComp onent
re ferences
ĠNor thern
Ġele vation
Ġf ru
Ġfair ly
ill in
Ġsc aff
a ugment
ĊĠĠĠĠĠĠĠĠĠĠĠĠĠĠĠĠĠĠĠĠĠĠĠĠĠĠĠĠĠĠĠĠĠĠĠĠĠĠĠĠĠĠĠĠĠĠĠĠĠĠĠĠĠĠĠĠĠĠĠĠĠĠĠĠĠĠĠĠĠĠĠĠĠĠĠĠĠĠĠĠĠĠĠĠĠĠĠĠĠĠĠĠĠĠĠĠĠĠĠĠĠĠĠĠĠĠĠĠĠĠĠĠĠĠĠĠĠĠĠĠĠĠĠĠĠĠĠĠĠĠĠĠĠĠĠĠĠĠĠĠĠĠĠ Ġ
ĠC ategory
Ġp ys
ĠM C
Pl atform
K H
Ġleg acy
Ï İ
ĠAR ISING
x lim
ig gs
collect or
ĠW rit
Ġimp ly
Ġdiscus sions
ĠEX AMPLES
DI CT
X i
LI B
ro uting
Ġ19 77
sign als
Â İ
ĠX XX
E rr
P ON
Ġelimin ate
ĠEnt ry
ACC ESS
Ġrot ating
ĠRed ist
Ġne c
Fig ures
Be gin
read s
~ /
Ġvocab ulary
30 9
ĠS L
Ġ19 76
^^ ^^
id le
Ġl icensed
Ġsummar ized
f u
Ġend ing
ke e
Ð¸ Ðµ
v art
ens hot
plot ly
Ġ\ +
ĠT a
Ġabdom inal
mo ving
S can
> {
Ġdevelopment al
Ġcharacter ize
Ġreve als
print ln
Ġhel lo
Wh ere
B io
ĠR GB
ĊČĠĠĠĠĠĠĠĠĠĠĠĠĠĠĠĠĠĠĠĠĠĠĠĠĠ Ġ
roph ic
ĠMedic ine
ĠCre ates
Ġun iverse
Ġ ĠĠĠĠĠĠĠĠĠĠĠĠĠĠĠĠĠĠĠĠĠĠĠĠĠĠĠĠĠĠĠĠĠĠĠĠĠĠĊĠĠ
hen yl
3 12
Ġax ial
âł Ģ
le ad
F n
he lium
Ġar ms
struct ures
Bl ack
ores cence
ĠSh ape
b w
DE P
c irq
Ġsepar ator
Ġconver ting
ĠSD K
Ġprevent s
ãĥ ¼
Ġmor ning
ĠB ill
I ZE
Temp orary
Ġ[' -
v iz
Ġt c
01 23
register ed
Ġdict ion
ĠB L
iel ded
32 9
Sp in
d ut
Ġdismiss al
b x
Ġ ĠĠĠĠĠĠĠĠĠĠĠĠĠĠĠĠĠĠĠĠĠĠĠĠĠĠĠĠĠĠĠĠĠĠĠĠĠĠĠĠĊĊĠ
t ub
ll ing
check out
b ob
ĠB ert
ĠUs age
Row s
Ġinter active
sh ire
ct ime
Ġatt end
success ful
P B
k r
Ġdec ades
Ġwe ather
Ġnav igation
Ġsl ide
Ġs d
Ġclo ser
n z
Ġfl avor
ĠC SS
Ġamb ient
ADDR ESS
Ġmer its
Ġde aling
Ġdebug ging
ĊĠĠĠĠĠĠĠĠĠĠĠĠĠĠĠĠĠĠĠĠĠĠĠĠĠĠĠĠĠĠĠĠĠĠĠĠĠĠĠĠĠĠĠĠĠĠĠĠĠĠĠĠĠĠĠĠĠĠĠĠĠĠĠĠĠĠĠĠĠĠĠĠĠĠĠĠĠĠĠĠĠĠĠĠĠĠĠĠĠĠĠĠĠĠĠĠĠĠĠĠĠĠĠĠĠĠĠĠĠĠĠĠĠĠĠĠĠĠĠĠĠĠĠĠĠĠĠĠĠĠĠĠĠĠĠĠĠĠĠĠĠĠĠĠ Ġ
tan h
Ġcon cur
Ġv ag
Ġoccas ion
b ecause
il m
åĪ °
cut aneous
rec ip
A ctions
Ġur ine
ĠSTAT ES
W M
Sche dule
Ġe os
PRO TO
ĠTech nologies
Ġab c
Ġdepos ited
Ver tex
press ive
Ġast hma
P ush
(" {}
ĠN um
ĠV ideo
Ġ\ ~
ve e
Ġimp er
igh th
Ġrough ly
ms gs
Ġ ĠĠĠĠĠĠĠĠĠĠĠĠĠĠĠĠĠĠĠĠĠĠĠĠĠĠĠĠĠĠĠĠĠĠĠĠĠĠĠĠĠĠĠĠĠĠĠĠĠĠĠĠĠĠĠĠĠĠĠĠĠĠĠĠĠĠĠĠĠĠĠĠĠĠĠĠĠĠĠĠĠĠĠĠĠĠĠĠĠĠĠĠĠĠĠĠĠĠĠĠĠĠĠĠĠĠĠĠĠĠĠĠĠĠĠĠĠĠĠĠĠĠĠĠĠĠĠĠĊĠ
=\ "
Ġparent al
. âĢĻ
ime ter
R ot
Ð¾Ð ±
pat ches
Ġin tact
Ġdoct est
ĠP lay
ĠSNP s
lo mb
ĠPy Qt
c redential
or ial
Ġinvestig ations
ĠPro cedure
ĠB P
port ion
á ´
Ġ ath
Ñģ Ðº
Ġn i
Ġprob es
ĠIn vest
O s
T HE
ĠKey word
= .
Ġr x
Ġsear ched
ĠBy tes
Ġpolynomial s
OB JECT
Ġk b
22 6
P laintiff
Ġmethod ology
z ones
emp hasis
k le
29 8
è ¦
Ġre aches
Ġadapt ation
ne eded
Ġg ui
Ġsuggest ion
Ġsi mplify
bold math
or ous
van ced
Ġh ack
Ġbelong ing
Ġ ĠĠĠĠĠĠĠĠĠĠĠĠĠĠĠĠĠĠĠĠĠĠĠĠĠĠĠĠĠĠĠĠĠĠĠĠĠĠĠĊĠĠ
Ġ ĠĠĠĠĠĠĠĠĠĠĠĠĠĠĠĠĠĠĠĠĠĠĠĠĠĠĠĠĠĠĠĠĠĠĠĠĠĠĠĠĠĊĊĠ
Ġc ss
Ġ ĠĠĠĠĠĠĠĠĊ
Ġh its
uz zy
re action
AT H
ĠOTHER WISE
ĠPack age
Ġun necessary
Ġmag ic
Ġdisco ver
Ġrel ied
Ġcl imate
Ġto do
Cre ates
RE AM
p nt
Ġcommit tee
H g
skip If
ĊĠĠĠĠĠĠĠĠĠĠĠĠĠĠĠĠĠĠĠĠĠĠĠĠĠĠĠĠĠĠĠĠĠĠĠĠĠĠĠĠĠĠĠĠĠĠĠĠĠĠĠĠĠĠĠĠĠĠĠĠĠĠĠĠĠĠĠĠĠĠĠĠĠĠĠĠĠĠĠĠĠĠĠĠĠĠĠĠĠĠĠĠĠĠĠĠĠĠĠĠĠĠĠĠĠĠĠĠĠĠĠĠĠĠĠĠĠĠĠĠĠĠĠĠĠĠĠĠĠĠĠĠĠĠĠĠĠĠĠĠĠĠĠĠĠ Ġ
Ġsql ite
K K
M aster
y our
Ġdir s
ĠDo main
ad am
ĠJose ph
Ġpres er
âĢ ĺ
Ġpre process
ar xiv
Res ources
Ġassert ed
000 8
m obile
Ġmult ip
ĠN P
40 6
. (
ĠSp anish
Ġv ast
= ("
Ġexec uting
Alter Field
Ġvis its
ĠM ode
fl ash
Ġ% }
M u
Ġphot ograph
co cc
([ ('
ĠT ORT
b right
U AL
Ġ1 78
ĠCl ub
ðŁ Ķ
ag ain
D Q
E PS
Ġd end
Ġn erv
co co
Ġalgebra ic
Ġel li
Re arrange
Ġmove ments
ĠQ ueue
}_{ -
Ġ1 69
ĠRec ords
iot a
Ġco res
Start ing
Ġst yles
tt l
Ġ{} ))
Ġcaus al
bal ancer
ĠCh apter
Ġn t
Ġal g
Ġe in
Ġasymptot ic
Ġbe ar
Ġfail ures
Ġname dtuple
om aly
Ġco il
ent a
< =
jo y
Ġcomb ust
Ġequival ence
ĠT enn
mt p
irection al
ise conds
Ġ ĠĠĠĠĠĠĠĠĠĠĠĠĠĠĠĠĠĠĠĠĠĠĠĠĠĠĠĠĠĠĠĠĠĠĠĠĠĠĠĠĠĠĠĠĠĠĠĠĠĠĠĠĠĠĠĠĠĠĠĠĠĠĠĠĠĠĠĠĠĠĠĠĠĠĠĠĠĠĠĠĠĠĠĠĠĠĠĠĠĠĠĠĠĠĠĠĠĠĠĠĠĠĠĠĠĠĠĠĠĠĠĠĠĠĠĠĠĠĠĠĠĠĠĠĠĠĠĠĠĊĠ
ad y
sc i
Ġseed s
ĠH ist
Ġc ant
el t
Ang le
av id
ĊČĠĠĠĠĠĠĠĠĠĠĠĠĠĠĠĠĠĠĠĠĠĠĠĠĠĠ Ġ
Ġd ors
b ol
Ġsup ernat
Ġst ere
Pri mary
Ġcount ing
ia e
ĠS PE
Ġstart up
itor ies
Ġsens ing
Ġm t
in te
Ġindic ators
l ens
ĠL ew
Ġjson ify
Ġd m
ĠA V
Ġdis cipl
Ġreg arded
Un less
Ġcom ma
on o
Ġpro ducer
Ġch urch
ĠCommon wealth
ĠS tack
Ġ ĠĠĠĠĠĠĠĠĠĠĠĠĠĠĠĠĠĠĠĠĠĠĠĠĠĠĠĠĠĠĠĠĠĠĠĠĠĠĠĠĠĠĊĊĠ
Ġhand lers
Ġvis ibility
: </
Ġelse where
Ġorgan izations
Ġk on
m icrosoft
Ġtra cker
ĠD ummy
Ġover rides
Ġ ĠĠĠĠĠĠĠĠĠĠĠĠĠĠĠĠĠĠĠĠĠĠĠĠĠĠĠĠĠĠĠĠĠĠĠĠĠĠĠĠĊĠĠ
r w
LA ST
Ġco v
ĠG FP
Ġan chors
ĊĠĠĠĠĠĠĠĠĠĠĠĠĠĠĠĠĠĠĠĠĠĠĠĠĠĠĠĠĠĠĠĠĠĠĠĠĠĠĠĠĠĠĠĠĠĠĠĠĠĠĠĠĠĠĠĠĠĠĠĠĠĠĠĠĠĠĠĠĠĠĠĠĠĠĠĠĠĠĠĠĠĠĠĠĠĠĠĠĠĠĠĠĠĠĠĠĠĠĠĠĠĠĠĠĠĠĠĠĠĠĠĠĠĠĠĠĠĠĠĠĠĠĠĠĠĠĠĠĠĠĠĠĠĠĠĠĠĠĠĠĠĠĠĠĠĠ Ġ
Ġprevent ed
25 3
Ġd ent
ĠK en
åı Ĥ
ira c
Å ¼
resourceGroup s
Û Į
Ġsub section
Ġepide m
[ {
Ġre section
19 79
1234 567
Ġv ision
Ġhand s
decor ator
Ġac cessed
icro bial
64 8
Ser vices
Ġhapp ened
Ġst retch
Com bo
ĠW at
Ġre actor
ĠF oo
33 7
us hed
de comp
T orch
Pro of
Ġsubst ituted
Ġestablish ing
ind ividual
ck pt
Ġ0 2
ĠS af
], \
Ġinj ured
ĠC hen
ĠPro tocol
mult iply
ĠK it
volume s
L ife
ĠL ED
ir it
F IG
l hs
Message Box
Ġcl amp
[ *
Ġil legal
Eng lish
Ġcytok ine
ĠP redict
t ility
Ġelder ly
appro pri
Ġo vari
Ġf ruit
For ward
Ġprox imal
19 70
Ġsuc ceed
G N
Ġstructure d
Ġpred icate
Ġt alk
Ġsa mpler
List Result
s ong
t ight
Ġattemp ting
Ð» Ð¸
he ta
re cipe
Ġover expression
po ster
ĠC r
Ġmult ic
m igration
OT E
Ġpathogen esis
ĠAn imal
Ġs ob
du al
ĠCoun ter
Ġda emon
Ġ ĠĠĠĠĠĠĠĠĠĠĠĠĠĠĠĠĠĠĠĠĠĠĠĠĠĠĠĠĠĠĠĠĠĠĠĠĠĠĠĠĠĠĠĊĊĠ
ID D
ĠCon tact
AP H
Ġfill ing
ĠMich igan
Sub ject
Ġ Ñĩ
Ġarch itect
ic ons
C amera
Ġskip ped
cos ity
Ġthresh olds
) ].
Ġp aired
sim ulation
Ġ ĠĠĠĠĠĠĠĠĠĠĠĠĠĠĠĠĠĠĠĠĠĠĠĠĠĠĠĠĠĠĠĠĠĠĠĠĠĠĠĠĠĠĠĠĠĠĠĠĠĠĠĠĠĠĠĠĠĠĠĠĠĠĠĠĠĠĠĠĠĠĠĠĠĠĠĠĠĠĠĠĠĠĠĠĠĠĠĠĠĠĠĠĠĠĠĠĠĠĠĠĠĠĠĠĠĠĠĠĠĠĠĠĠĠĠĠĠĠĠĠĠĠĠĠĠĠĠĠĠĠĊĠ
ĠY ear
il ateral
Ġdim in
measure ment
}. \
Ġcoll apse
A re
Ġlumin osity
ryst al
ĠN MR
ĠDE BUG
con sumer
separ ator
long itude
ĊĠĠĠĠĠĠĠĠĠĠĠĠĠĠĠĠĠĠĠĠĠĠĠĠĠĠĠĠĠĠĠĠĠĠĠĠĠĠĠĠĠĠĠĠĠĠĠĠĠĠĠĠĠĠĠĠĠĠĠĠĠĠĠĠĠĠĠĠĠĠĠĠĠĠĠĠĠĠĠĠĠĠĠĠĠĠĠĠĠĠĠĠĠĠĠĠĠĠĠĠĠĠĠĠĠĠĠĠĠĠĠĠĠĠĠĠĠĠĠĠĠĠĠĠĠĠĠĠĠĠĠĠĠĠĠĠĠĠĠĠĠĠĠĠĠĠĠ Ġ
Ġselect ing
Ġtherap ies
M IT
R ules
v r
\ }$.
ĠA A
Ġtermin ate
Ġtick et
ĠG reat
Ġobvious ly
comple tion
W hy
S IGN
(' {}
Ġ19 60
iffer ential
Test ing
Ġwe ar
" )))
pend icular
rit ic
) }_{
ap l
A lias
ad m
Un icode
Ġh r
Ġalloc ated
h um
sk ill
ç ¤
Ġ' \\
F amily
Ġprescrib ed
in ate
ĠF ar
RA W
Ġprogn ostic
D eter
Ġsol ving
Ġmathemat ical
Ġlock ed
hed ral
Ġhouse hold
sp acing
Ġm as
Ġtick s
ĠS olution
Ġh alo
Ġpo oled
ops is
32 3
Ġ ĠĠĠĠĠĠĠĠĠĠĠĠĠĠĠĠĠĠĠĠĠĠĠĠĠĠĠĠĠĠĠĠĠĠĠĠĠĠĠĠĠĊĠĠ
A ff
è¿Ķ åĽŀ
uit ar
ou cher
pl ural
ĠU SER
math op
ring e
o lo
Ġcertain ly
Ġinst ability
eder ation
Ġen richment
ĠN os
2 13
Ġ{} ),
** \
Ġfree ze
inst ein
S ever
a mpl
Ġa co
enc ia
R M
ç İ
â Ħ
H ist
ma king
Ġengine ering
> ")
stud y
ç ±
Ġ ĠĠĠĠĠĠĠĠĠĠĠĠĠĠĠĠĠĠĠĠĠĠĠĠĠĠĠĠĠĠĠĠĠĠĠĠĠĠĠĠĠĠĠĠĊĊĠ
w f
lik elihood
und les
Grad ient
on ents
Ġn ation
ol ling
ĠA CTION
RE EN
f wd
ĠRout e
pat ial
Ġf riends
Ġz ones
FLO AT
re ach
Ġproject ed
ĠTh anks
State ment
1111 1111
at able
Ġdo gs
} </
de b
å ī
ĠC ost
optim ize
L inux
x FF
=_ ('
0 36
19 1
duc ible
ĠIS O
F B
Ġe tag
Co ordin
model ing
ĠCent re
ĊĠĠĠĠĠĠĠĠĠĠĠĠĠĠĠĠĠĠĠĠĠĠĠĠĠĠĠĠĠĠĠĠĠĠĠĠĠĠĠĠĠĠĠĠĠĠĠĠĠĠĠĠĠĠĠĠĠĠĠĠĠĠĠĠĠĠĠĠĠĠĠĠĠĠĠĠĠĠĠĠĠĠĠĠĠĠĠĠĠĠĠĠĠĠĠĠĠĠĠĠĠĠĠĠĠĠĠĠĠĠĠĠĠĠĠĠĠĠĠĠĠĠĠĠĠĠĠĠĠĠĠĠĠĠĠĠĠĠĠĠĠĠĠĠĠĠĠĠ Ġ
Ġre levance
Ġconsider ations
Call able
end points
ĠDirect or
Ġexist ed
FAI LED
Ġ1 77
Ġter rit
tab lename
}}( {\
Go ogle
22 1
Ġag on
-------------------------------------------------------------------------------------------------------------------------------- --------------------------------------------------------------------------------------------------------------------------------
comb ine
ĠM aster
Dict ionary
Ġun ders
k h
25 9
D uration
t ically
Ġap ert
Ġzo om
can cers
Ġcarri ers
ak ed
Ġ ĠĠĠĠĠĠĠĠĠĠĠĠĠĠĠĠĠĠĠĠĠĠĠĠĠĠĠĠĠĠĠĠĠĠĠĠĠĠĠĠĠĠĠĠĠĠĠĠĠĠĠĠĠĠĠĠĠĠĠĠĠĠĠĠĠĠĠĠĠĠĠĠĠĠĠĠĠĠĠĠĠĠĠĠĠĠĠĠĠĠĠĠĠĠĠĠĠĠĠĠĠĠĠĠĠĠĠĠĠĠĠĠĠĠĠĠĠĠĠĠĠĠĠĠĠĠĠĠĠĠĠĊĠ
math it
Ġtmp dir
ĊČĠĠĠĠĠĠĠĠĠĠĠĠĠĠĠĠĠĠĠĠĠĠĠĠĠĠĠ Ġ
è ½
Ġult ras
vo ir
Ġst re
\ ;
Ġcenter ed
She ll
---------------- --
Ġrecruit ment
I FI
Ġd l
cal ib
ular ity
ĠAnd erson
Ġmetabol ites
Qt Widgets
Ġext ens
Ġ{} ).
Ġs ink
Ġelect ed
G H
C LE
Ġmod al
Ġte ach
Ġover lapping
ĠLabor atory
foot er
] ")
Ġ ĠĠĠĠĠĠĠĠĠĠĠĠĠĠĠĠĠĠĠĠĠÂł
Ġbeg ins
Ġequip ped
Equal s
serv ative
sec s
I OS
Ġstim ulated
ĠL V
Ġver te
F RA
ç½ ®
conj ug
et ies
Error s
Ġen velope
__ ',
T OR
sh adow
Ġd amp
ic an
} %
Ġp ts
cler osis
p ings
Ġfore cast
}) =
Ġbreak s
S ent
60 7
Ġspectros copy
! ",
c iting
A mount
x sd
Cle ar
ott u
us ions
Ġfib rosis
Ïģ Î¿
Ġbel ief
ĠL ab
pl ib
Ġ""" )
M r
Ġis omorphism
Ġ ĠĠĠĠĠĠĠĠĠĠĠĠĠĠĠĠĠĠĠĠĠĠĠĠĠĠĠĠĠĠĠĠĠĠĠĠĠĠĠĠĠĠĠĠĠĊĊĠ
Ġart ificial
i able
66 6
Ġprom inent
Ġ ĠĠĠĠĠĠĠĠĠĠĠĠĠĠĠĠĠĠĠĠĠĠĠĠĠĠĠĠĠĠĠĠĠĠĠĠĠĠĠĠĠĠĊĠĠ
Ġin gred
fil m
Ġqu bit
COMM AND
Ġun stable
M aterial
26 6
b z
Ġmult ivariate
Ġant icip
Ġbas ically
Ġcon formation
Ġlog istic
Ġconfirm ation
ĊĠĠĠĠĠĠĠĠĠĠĠĠĠĠĠĠĠĠĠĠĠĠĠĠĠĠĠĠĠĠĠĠĠĠĠĠĠĠĠĠĠĠĠĠĠĠĠĠĠĠĠĠĠĠĠĠĠĠĠĠĠĠĠĠĠĠĠĠĠĠĠĠĠĠĠĠĠĠĠĠĠĠĠĠĠĠĠĠĠĠĠĠĠĠĠĠĠĠĠĠĠĠĠĠĠĠĠĠĠĠĠĠĠĠĠĠĠĠĠĠĠĠĠĠĠĠĠĠĠĠĠĠĠĠĠĠĠĠĠĠĠĠĠĠĠĠĠĠĠ Ġ
Ġdifferent ly
Ġatt n
ĠAct ive
om atic
t ier
Ù Ĩ
Ġqu it
S ig
par a
23 6
Ġcontract s
b matrix
Ġbi ochemical
Ġq t
Ġconj unction
ĠItal ian
50 4
leq slant
è §
Ġqu i
less sim
ra ce
ĠSet ting
ĠF ac
č ĊĠĠĠĠĠĠĠĠĠĠĠĠĠĠĠĠĠĠĠĠĠĠĠĠĠĠĠĠĠĠĠ
ĠM M
Ġ ĠĠĠâĢī
im ize
Ġcontinu um
qu ot
Ġsign atures
fig size
ffect ed
Ġindex ed
Ġcons um
TE GER
Ġe ase
ĠChar acter
ĠF oot
Ġb la
Ġsuscept ible
ĠA st
Ġear th
pe ople
s ocial
Ġw ants
pick ing
sc ipy
Ġabnormal ities
Ġiter ate
ĠPh ase
y g
candid ates
ĠChrist ian
Ġk nee
25 8
ĠN K
Ġ ĠĠĠĠĠĠĠĠĠĠĠĠĠĠĠĠĠĠĠĠĠĠĠĠĠĠĠĠĠĠĠĠĠĠĠĠĠĠĠĠĠĠĠĠĠĠĠĠĠĠĠĠĠĠĠĠĠĠĠĠĠĠĠĠĠĠĠĠĠĠĠĠĠĠĠĠĠĠĠĠĠĠĠĠĠĠĠĠĠĠĠĠĠĠĠĠĠĠĠĠĠĠĠĠĠĠĠĠĠĠĠĠĠĠĠĠĠĠĠĠĠĠĠĠĠĠĠĠĠĠĠĠĊĠ
Ġble eding
" <
D s
un ing
Ġchromat ography
Ġtra uma
Ġli able
Ġorgan isms
AUT O
s lices
24 6
: ].
F M
ĠC opy
ĠB ob
mat ically
Ġgra in
Ġheter ogeneity
Ġinst itution
Ġsil ent
Ġ[ $\
mp eg
ĠZ n
Ġt ank
Ġpath ological
Ġsupplement ed
Ġdeform ation
Ġunder going
Ġ19 74
new axis
ĠApp ly
ç º
Ġre new
io let
Th er
Cons ider
aut os
S k
clip se
Ġet ree
Ġdat as
ĠD raw
Ċ ĊĠĠĠĠĠĠĠĠĠĠĠĠĠĠĠĠĠĠĠĠĠĠĠĠĠĠĠ
Ġf ounded
Box Layout
Ġast ro
64 4
cp us
ur llib
Ġra ster
ĠPi peline
D em
Ġd uct
bo ss
not ifications
syn tax
Per cent
th r
Ġw ires
Ġc el
ĠH u
Ġin oc
ĠS and
ĠO s
Ġlate x
at um
: ``
control led
ix map
Ġdesign s
Ġconduct ive
Ġ ĠĠĠĠĠĠĠĠĠĠĠĠĠĠĠĠĠĠĠĠĠĠĠĠĠĠĠĠĠĠĠĠĠĠĠĠĠĠĠĠĠĠĠĠĠĠĊĊĠ
Ġb ol
Ġhom olog
Ġen rolled
abol ic
ra c
ĠHe ad
Ġfeas ible
B TC
Ġur inary
Ġan a
Vis ible
per form
ĠW omen
Ġch r
ist an
b ars
Ġed ition
desk top
â £
Sur face
Ġ ĠĠĠĠĠĠĠĠĠĊ
Ġmi RNA
ĠThe ory
Ġsyn chronous
| _
Class ification
B i
A zure
Comp arison
Ġsyn aptic
N at
Ġr ings
emo ji
Ġ" ".
ON LY
pre process
33 5
19 76
ĠG od
ĊĠĠĠĠĠĠĠĠĠĠĠĠĠĠĠĠĠĠĠĠĠĠĠĠĠĠĠĠĠĠĠĠĠĠĠĠĠĠĠĠĠĠĠĠĠĠĠĠĠĠĠĠĠĠĠĠĠĠĠĠĠĠĠĠĠĠĠĠĠĠĠĠĠĠĠĠĠĠĠĠĠĠĠĠĠĠĠĠĠĠĠĠĠĠĠĠĠĠĠĠĠĠĠĠĠĠĠĠĠĠĠĠĠĠĠĠĠĠĠĠĠĠĠĠĠĠĠĠĠĠĠĠĠĠĠĠĠĠĠĠĠĠĠĠĠĠĠĠĠĠ Ġ
d g
Ġ ĠĠĠĠĠĠĠĠĠĠĠĠĠĠĠĠĠĠĠĠĠĠĠĠĠĠĠĠĠĠĠĠĠĠĠĠĠĠĠĠĠĠĠĊĠĠ
Ġg ang
ĠH ER
Ġfel t
Ġover night
Ġcataly tic
Ġconsp iracy
Ġlocal s
Ġinflu enza
qu ick
ĠAct ivity
B inding
24 9
0 21
Ġel apsed
00 15
c utoff
Ġatmosph ere
ĠC ath
az z
f lex
Ġb are
res olver
d ose
ĠLo ok
un ched
Ġun likely
Ġappreci ated
k ov
Ġqu arter
ĠD rop
w art
ĠC ro
Ġorg ans
Ġimplement ing
Ġtax es
í ķ
Ġam end
ne eds
Ġh params
Rem o
some thing
ĠJ un
Ġins ight
ĠVAL UES
ub b
ĠP HP
As set
fall back
T K
_ ):
Ġlook ed
c make
conf irmed
Ġenc rypted
ut ility
Ġ ĠĠĠĊĠĠĠĠĠĠĠĠĠĠĠ
Ġt ends
Ġm arrow
Ġstraight forward
Ġpresent ing
Ġb ath
topo logy
T LS
Ġint ellig
test er
Ġtit les
dis cord
Ġc hest
Ġf ert
Ġcustom ers
Ġlog arith
Ġsub type
40 8
CK ET
ĠEqu ation
Ġsust ain
Ġviol ence
Ġsat uration
Ġreal ized
Ġs park
ĠF ast
METHO D
28 5
Ġguaran tee
Ġcor ro
ĠU pon
Ġg ithub
note book
ĠD NS
Ġembry os
ĠTra ce
Ġ ĠĠĠĠĠĊĠĠĠ
crib e
Ġhelp ed
Ġr t
Ġre nt
et he
ad ic
Ġ ĠĠĠĠĠĠĠĠĠĠĠĠĠĠĠĠĠĠĠĠĠĠĠĠĠĠĠĠĠĠĠĠĠĠĠĠĠĠĠĠĠĠĠĠĠĠĠĠĠĠĠĠĠĠĠĠĠĠĠĠĠĠĠĠĠĠĠĠĠĠĠĠĠĠĠĠĠĠĠĠĠĠĠĠĠĠĠĠĠĠĠĠĠĠĠĠĠĠĠĠĠĠĠĠĠĠĠĠĠĠĠĠĠĠĠĠĠĠĠĠĠĠĠĠĠĠĠĠĠĠĠĠĠĊĠ
Ġcurrent s
ĠF C
real path
ex tras
cs r
Ġb an
be an
tt le
Îº B
Ġ$ ,
Ġlegisl ative
Ġgen u
ĠPer iod
> (
Ġge ome
RO P
Ġ> ',
ot or
multi plier
Bl ue
ĠIn du
Br ush
Ġ ĠĠĠĠĠĠĠĠĠĠĠĠĠĠĠĠĠĠĠĠĠĠĠĠĠĠĠĠĠĠĠĠĠĠĠĠĠĠĠĠĠĠĠĠĠĠĠĊĊĠ
Ġmam mal
Ġ---------------- ---
De v
Ġaffidav it
Ġmis sion
d L
c ad
ĠS em
tain ed
Ġr Ã©
ĠZe aland
Ġneed le
flow s
n ik
Ġl ives
N K
alle y
50 5
Ġneur on
Ġsub unit
Ġpl anned
Ġlo ci
lo pen
x ls
ĠT reatment
Ġglob als
bucket s
Ġmarg inal
ĠC RE
ame l
z es
tx n
J an
V S
n ical
ĠG rand
Ġx p
Ġ ĊĠĠĠĠĠĠĠĠĠĠĠĠĠĠĠĠĠĠĠĠĠĠĠ
inter est
ar ity
ĠPar is
fetch all
ard en
ĠV ER
Ġpneum onia
claim er
Ġreason ing
ĠK o
Ġst reet
9999 9999
Ġact in
non ce
Ġneut roph
CHAN NEL
ĠC ri
ex plicit
R B
Ġp ing
ot ential
Ġ ĠĠĠĠĠĠĠĠĠĠĠĠĠĠĠĠĠĠĠĠĠĠĠĠĠĠĠĠĠĠĠĠĠĠĠĠĠĠĠĠĠĠĠĠĊĠĠ
ĠK om
Ġaccept s
. '''
deli very
ĠV ari
ĠR ose
Ġaccompany ing
Ġcon stru
Ġy eah
ok u
ĠM emory
on nx
Ġres ume
Ġauto phag
al go
Ġcare ful
re cent
Ġaltern ate
Ġro bb
Ġinv oked
b urn
Ġant im
Ġtw isted
ĠIs ra
Iter ation
Ġn il
ĠComm unity
27 4
Ġen riched
l bl
Ġl n
vis ions
Sign ature
ĠColumb ia
Ġs ociety
Ġdas hed
Ġultras ound
Ġantibiot ic
c itation
Con flict
Ġco caine
Ġcirc les
B IT
ic ious
otyp ic
C at
] $.
at ivity
Ġa ims
struct ured
author ization
Vis ual
ĠHOLDER S
Ġst ating
Ġgr pc
Â· Â·
Cur ve
Ġdiscrimin ator
19 78
Ġt rib
Ġag ing
ce ph
Te X
ĠSp ain
cocc us
mp s
ĊĠĠĠĠĠĠĠĠĠĠĠĠĠĠĠĠĠĠĠĠĠĠĠĠĠĠĠĠĠĠĠĠĠĠĠĠĠĠĠĠĠĠĠĠĠĠĠĠĠĠĠĠĠĠĠĠĠĠĠĠĠĠĠĠĠĠĠĠĠĠĠĠĠĠĠĠĠĠĠĠĠĠĠĠĠĠĠĠĠĠĠĠĠĠĠĠĠĠĠĠĠĠĠĠĠĠĠĠĠĠĠĠĠĠĠĠĠĠĠĠĠĠĠĠĠĠĠĠĠĠĠĠĠĠĠĠĠĠĠĠĠĠĠĠĠĠĠĠĠĠĠ Ġ
80 5
qu bits
Ġle pt
Ġmo ments
ĠMa jor
Ġnerv ous
it zer
Ġent ang
Ġab and
Ġtrain able
Ġ ĠĠĠĠĠĠĠĠĠĠĠĠĠĠĠĠĠĠĠĠĠĠĠĠĠĠĠĠĠĠĠĠĠĠĠĠĠĠĠĠĠĠĠĠĠĠĠĠĊĊĠ
Ġsi RNA
s it
Ġk o
mm ar
diag n
ract ice
Ġtemp or
CONT ENT
Ġto ggle
Ġmock ed
aint ies
Ġjust ice
amb le
ĠExt ension
Ġdiff ers
rom atic
Ġ2 20
Ġph iloso
Ġnear by
if ts
proto buf
Ġran ged
Ġhe ar
Ġf ight
Ge o
set Enabled
im uth
Ġb asket
Ġgran ting
Ġse al
format ted
Ġinteract ing
are t
Ġthe mes
Ġcollect ive
---------------- ---
34 4
34 7
UM ENT
Ġ ĠĠĠĠĠĠĠĠĠĠĠĠĠĠĠĠĠĠĠĠĠĠĠĠĠĠĠĠĠĠĠĠĠĠĠĠĠĠĠĠĠĠĠĠĠĠĠĠĠĠĠĠĠĠĠĠĠĠĠĠĠĠĠĠĠĠĠĠĠĠĠĠĠĠĠĠĠĠĠĠĠĠĠĠĠĠĠĠĠĠĠĠĠĠĠĠĠĠĠĠĠĠĠĠĠĠĠĠĠĠĠĠĠĠĠĠĠĠĠĠĠĠĠĠĠĠĠĠĠĠĠĠĠĠĊĠ
Ġsy nap
temp ts
Ġalbum s
ĠG rant
Ġmonth ly
Al gorithm
ot onic
Ġpromot ed
40 7
iline ar
Ġput ative
) ['
Ġsol uble
report ed
CI AL
est yle
Ġrespon ded
Ġstd in
Ġ. /
Ġto mography
Ġsim ulate
Ġra p
cor ners
Ġcontinu ing
Å «
ay a
Ġd ental
26 8
Ġby pass
ote ch
man ded
ĠI mplement
Ġacade mic
Ġprogress ive
res istant
Ġfunction ing
\ (
Ġpoly gon
ic ht
55 4
STAT IC
g age
writ ing
Ġrab bit
l ies
Ġme ter
ĠEn able
c gi
ther net
ĠâĢ ¢
Ġsec ured
av atar
dis covery
ven ous
Ġphot ons
De coder
Ġthink ing
= #
ĠKore a
Ġ19 73
arg types
= """
Ext ract
Â ĸ
lap se
Ġ ĠĠĠĠĠĠĠĠĠĠĠĠĠĠĠĠĠĠĠĠĠĠĠĠĠĠĠĠĠĠĠĠĠĠĠĠĠĠĠĠĠĠĠĠĠĊĠĠ
åĩ º
Ġdis count
ĠP B
Te am
Ġper mutation
Ġes cap
Ġed ited
Ġ'. '
i op
un n
velop ers
Ġp up
Ġqu otes
mark ets
j avascript
ĠCO MP
ĠA rea
Ġ ĠĠĠĠĠĠĠĠĠĠĠĠĠĠĠĠĠĠĠĠĠĠĠĠĠĠĠĠĠĠĠĠĠĠĠĠĠĠĠĠĠĠĠĠĠĠĠĠĠĊĊĠ
Ġan omal
ac s
cl f
as sembly
c ot
Ġcont amination
so ftware
ub es
Ġ19 72
config urations
ĊČĠĠĠĠĠĠĠĠĠĠĠĠĠĠĠĠĠĠĠĠĠĠĠĠĠĠĠĠ Ġ
K B
co okies
al ine
Ġsuggest ions
ĠCon ference
alk yl
ĊĠĠĠĠĠĠĠĠĠĠĠĠĠĠĠĠĠĠĠĠĠĠĠĠĠĠĠĠĠĠĠĠĠĠĠĠĠĠĠĠĠĠĠĠĠĠĠĠĠĠĠĠĠĠĠĠĠĠĠĠĠĠĠĠĠĠĠĠĠĠĠĠĠĠĠĠĠĠĠĠĠĠĠĠĠĠĠĠĠĠĠĠĠĠĠĠĠĠĠĠĠĠĠĠĠĠĠĠĠĠĠĠĠĠĠĠĠĠĠĠĠĠĠĠĠĠĠĠĠĠĠĠĠĠĠĠĠĠĠĠĠĠĠĠĠĠĠĠĠĠĠĠ Ġ
d it
ma gn
* ).
00 11
33 6
Ġcheck out
C u
Ġtra it
* /
ĠHttpResponse Error
ic ient
Ġprolong ed
Ġsen ds
env s
ĠG ar
(' ''
con da
Transform er
habil itation
Ġcontribut or
Ġdo ctor
ĠDe cl
al d
Ġinst itutions
prote ction
Ġdiscre p
AME TER
Ġvisual ization
. '.
Ġsh adow
Ġcar cin
65 4
Function s
Stat istical
Ph one
Ġ ĠĠĠĠâĢī
Ġlat ency
Ġon co
Ġ( {\
G r
Å ³
Ġp ause
Ġrig id
Add Field
? \
over write
Ġconduct ivity
Ä Ĺ
0 38
h params
sample d
f k
r ino
Â ¬
Ġsh arp
Ġtrunc ated
ç± »
et al
Ġh aven
df s
rel and
ĠMy SQL
Ġ ĠĠĠĠĠĠĠĠĠĠĠĠĠĠĠĠĠĠĠĠĠĠĠĠĠĠĠĠĠĠĠĠĠĠĠĠĠĠĠĠĠĠĠĠĠĠĠĠĠĠĠĠĠĠĠĠĠĠĠĠĠĠĠĠĠĠĠĠĠĠĠĠĠĠĠĠĠĠĠĠĠĠĠĠĠĠĠĠĠĠĠĠĠĠĠĠĠĠĠĠĠĠĠĠĠĠĠĠĠĠĠĠĠĠĠĠĠĠĠĠĠĠĠĠĠĠĠĠĠĠĠĠĠĠĠĊĠ
Ù Ī
lst m
F ast
ĠP layer
mag ic
Ġsubst ances
Ġmob ility
te mpl
ĠP osition
M RI
h ad
Ġ" @
60 8
Ġoptional ly
Ð°Ð ²
ĠIN C
Ġ Ø
ĠG P
en ant
vers al
ev idence
pri mitive
comb ined
ĠCommission er
Ġwidget s
Ġrel ate
Al ignment
Ġ ĠĠĠĠĠĠĠĠĠĠĠĠĠĠĠĠĠĠĠĠĠĠĠĠĠĠĠĠĠĠĠĠĠĠĠĠĠĠĠĠĠĠĠĠĠĠĠĠĠĠĊĊĠ
Ð¸ Ð¼
el ly
ĠDist ributed
ĠImm un
44 4
IS O
Ġeng age
ochem istry
Ð½ Ð°
D J
Ġ ĠĠĠĠĠĠĠĠĠĠĊ
Ġdemonstr ating
urn als
mit t
sym metric
D Y
section al
ĠE r
Ġs f
play ers
Trans fer
37 8
50 2
Ġappe llee
Ġrestore d
res id
ĊĠĠĠĠĠĠĠĠĠĠĠĠĠĠĠĠĠĠĠĠĠĠĠĠĠĠĠĠĠĠĠĠĠĠĠĠĠĠĠĠĠĠĠĠĠĠĠĠĠĠĠĠĠĠĠĠĠĠĠĠĠĠĠĠĠĠĠĠĠĠĠĠĠĠĠĠĠĠĠĠĠĠĠĠĠĠĠĠĠĠĠĠĠĠĠĠĠĠĠĠĠĠĠĠĠĠĠĠĠĠĠĠĠĠĠĠĠĠĠĠĠĠĠĠĠĠĠĠĠĠĠĠĠĠĠĠĠĠĠĠĠĠĠĠĠĠĠĠĠĠĠĠĠ Ġ
Ġspl its
phan tom
st roke
w orth
Ġ ĠĠĠĠĠĠĠĠĠĠĠĠĠĠĠĠĠĠĠĠĠĠĠĠĠĠĠĠĠĠĠĠĠĠĠĠĠĠĠĠĠĠĠĠĠĠĊĠĠ
Ġsym me
Ġsh op
c ause
direct ed
umn i
ar win
Ġs ud
Create Model
Ġins pection
tri m
Ġpoint ing
F etch
Ġautom ated
Ġutil ization
ĠS cript
ĠEx press
Ġ' @
ĠW L
Re ceived
Ġi x
e ce
contin uation
ab ove
ĠNat ural
black list
ot ides
Ġpro d
Ġbre ath
Ġme ss
Ġaux iliary
ĠR ussian
Ġcm ds
ab ort
Ġhydro ly
ĠR od
Ġle uk
P ick
Ġmi RNAs
Ġlack ing
Ġ------------------------------------------------------------------------ --
os ine
ĠN ature
criter ion
Ġsh rink
ĠM I
Ċĉĉĉĉ ĉĉĉ
ear ly
he art
d in
éĹ ´
}\ ,\
re call
âĸ ĳ
ĠBack ground
W atch
I mages
28 7
Ġo t
ĠL A
Ġm ine
Ġth yroid
29 7
" /
ĠCle an
** ).
product ive
ÂłÂłÂłÂłÂłÂłÂłÂł ÂłÂłÂłÂłÂłÂłÂłÂł
sur ance
ess ages
Ġpass ive
Ġantibiot ics
ĠI T
Ġampl itudes
Ġcl f
start ing
A ir
le ast
Ġp db
Ġpres ident
RO W
æ ģ
g uess
Par allel
}^ *
Ġ( ?
Ġfile system
j peg
Ġc irq
tag ged
ĠAppe al
track s
35 7
Ġf al
Ġdut ies
fin der
ck ing
ĠEast ern
Ġtro uble
ĠMon te
? ',
ĠProte in
sh all
sh ard
> [
k p
Ġ ĠĠĠĠĠĠĠĠĠĠĠĠĠĠĠĠĠĠĠĠĠĠĠĠĠĠĠĠĠĠĠĠĠĠĠĠĠĠĠĠĠĠĠĠĠĠĠĠĠĠĠĊĊĠ
pon ential
dis count
ĠAs ian
Ġc ot
sk u
auth ors
Ġnegative ly
ag ues
Ġ ĠĠĠĠĠĠĠĠĠĠĠĠĠĠĠĠĠĠĠĠĠĠÂł
Ġ ĠĠĠĠĠĠĠĠĠĠĠĠĠĠĠĠĠĠĠĠĠĠĠĠĠĠĠĠĠĠĠĠĠĠĠĠĠĠĠĠĠĠĠĠĠĠĠĠĠĠĠĠĠĠĠĠĠĠĠĠĠĠĠĠĠĠĠĠĠĠĠĠĠĠĠĠĠĠĠĠĠĠĠĠĠĠĠĠĠĠĠĠĠĠĠĠĠĠĠĠĠĠĠĠĠĠĠĠĠĠĠĠĠĠĠĠĠĠĠĠĠĠĠĠĠĠĠĠĠĠĠĠĠĠĠĠĊĠ
And roid
app ings
2 99
ĠS EC
ĠB as
Ġg ut
b ands
Ġovari an
vis ory
ĠPh ilip
sl ider
op ens
Ġcon versation
Ġlic enses
Ġal umin
Ġpolym ers
? ",
Ġguid ance
we eks
he ll
at re
an ine
44 3
Ġd ots
Ass ociation
p aid
Ġtub es
ĠUn fortunately
ĠResource NotFoundError
log out
ai ver
Ġc pp
ĠO ld
Ext ended
Ġag es
19 77
Ġpair wise
block ing
reduc ible
ER O
if olds
Ġb low
Ġre fract
PE G
Ġdynam ically
ĠF amily
ax y
¼ ï¸ı
Ġup loaded
ik o
Ġfe ar
Ġassess ing
ph arma
Ġb rown
33 4
Ġtotal ly
Ġpro pri
ĠLog ger
put y
ĠProv ince
Ġvol unte
m ir
Ã ĺ
Ġden y
Ġutil izing
hes ia
Ġadd itive
Ġ ĠĠĠĠĠĠĠĠĠĠĠĠĠĠĠĠĠĠĠĠĠĠĠĠĠĠĠĠĠĠĠĠĠĠĠĠĠĠĠĠĠĠĠĠĠĠĠĊĠĠ
Ġfrozen set
2 17
ĠFour th
ĊĠĠĠĠĠĠĠĠĠĠĠĠĠĠĠĠĠĠĠĠĠĠĠĠĠĠĠĠĠĠĠĠĠĠĠĠĠĠĠĠĠĠĠĠĠĠĠĠĠĠĠĠĠĠĠĠĠĠĠĠĠĠĠĠĠĠĠĠĠĠĠĠĠĠĠĠĠĠĠĠĠĠĠĠĠĠĠĠĠĠĠĠĠĠĠĠĠĠĠĠĠĠĠĠĠĠĠĠĠĠĠĠĠĠĠĠĠĠĠĠĠĠĠĠĠĠĠĠĠĠĠĠĠĠĠĠĠĠĠĠĠĠĠĠĠĠĠĠĠĠĠĠĠĠ Ġ
Ġdiss ip
Ġc uda
Ġmy e
act ed
Ġdetermin istic
ĠT S
Ġâ ĸ
;\ ;\
p urchase
Ġviol ations
fold ers
sen se
ĠAss oci
ĠR R
35 4
Ġthere after
27 6
Ġl ith
cl inical
Ġde coding
Ġf on
Ġconstruct s
âĹ ¼ï¸ı
pas sed
Ġrec ipients
ĠChang es
Ġsens ory
28 6
l it
Un expected
ĠJer sey
... "
Ġarbit ration
% "}
build ing
Ġpreced ing
Ġbro ther
Ġ[ %
70 7
ĠP ET
Ġcol lege
Ġn l
Cal led
Ġgravit ational
)[ (
Ġcompri sed
Ġag ric
ĠJud ges
Ġdev iations
y d
Ġv ideos
é ¡
ri eval
ĠT rial
Ġchar set
24 3
Ġevolution ary
G al
Ġsp ac
Ġsurve illance
Ġacknow ledge
J ava
ĠCon sole
ĠNot ice
Ġhaz ard
Ġ ĠĠĠĠĠĠĠĠĠĠĠĠĠĠĠĠĠĠĠĠĠĠĠĠĠĠĠĠĠĠĠĠĠĠĠĠĠĠĠĠĠĠĠĠĠĠĠĠĠĠĠĠĊĊĠ
- [
Ġformat ting
Ġh all
Ġam endment
meta class
rec ipient
ell er
, ...,
has hes
L B
Ġan c
Ġpred s
26 7
P DF
æ µ
Ġ_ {\
Ġ ĠĠĠĠĠĠĠĠĠĠĠĠĠĠĠĠĠĠĠĠĠĠĠĠĠĠĠĠĠĠĠĠĠĠĠĠĠĠĠĠĠĠĠĠĠĠĠĠĠĠĠĠĠĠĠĠĠĠĠĠĠĠĠĠĠĠĠĠĠĠĠĠĠĠĠĠĠĠĠĠĠĠĠĠĠĠĠĠĠĠĠĠĠĠĠĠĠĠĠĠĠĠĠĠĠĠĠĠĠĠĠĠĠĠĠĠĠĠĠĠĠĠĠĠĠĠĠĠĠĠĠĠĠĠĠĠĠĊĠ
48 5
25 1
Ġ---------------- -
37 9
Ġche mo
37 4
Ġte acher
AD MIN
Ġcare fully
Ġretros pective
Ġal lo
Ġworld wide
ul s
cs rf
Ġl p
IF Y
pe m
ct omy
Ġsh utdown
29 6
ĠI ran
on i
Ġcour ses
64 5
Ġdiction aries
Ġaccount ing
ox ide
Ġpr ices
ĠR ather
Î¹ Î±
act in
âĢĿ )
pare n
is in
ak s
aaaa aaaa
50 6
Ġve in
be low
Ġcont ributes
Ġconstra ined
Ġper pendicular
Ġbyte array
ĊĠĠĠĠĠĠĠĠĠĠĠĠĠĠĠĠĠĠĠĠĠĠĠĠĠĠĠĠĠĠĠĠĠĠĠĠĠĠĠĠĠĠĠĠĠĠĠĠĠĠĠĠĠĠĠĠĠĠĠĠĠĠĠĠĠĠĠĠĠĠĠĠĠĠĠĠĠĠĠĠĠĠĠĠĠĠĠĠĠĠĠĠĠĠĠĠĠĠĠĠĠĠĠĠĠĠĠĠĠĠĠĠĠĠĠĠĠĠĠĠĠĠĠĠĠĠĠĠĠĠĠĠĠĠĠĠĠĠĠĠĠĠĠĠĠĠĠĠĠĠĠĠĠĠĠ Ġ
ĠT X
empty set
Ġimport lib
is factory
Ġsum mer
Ġdee med
ĠB inary
ENS OR
Ch art
en umer
ĠT CP
B ert
O ct
33 9
View Set
Ġpo le
Render er
Mon th
f ault
3 000
Ġod ds
ra cle
At tach
Ġstandard ized
Lo ading
ie ve
CT ED
Ag greg
c if
U DE
28 9
ĠPro perties
USER NAME
b irth
ĠHen ry
Ġatta cks
Ġmeta static
St ates
st an
Ġprom otes
Ġcons umed
Ġmod er
Ġstudy ing
Ġ ĠĠĠĠĠĠĠĠĠĠĠĠĠĠĠĠĠĠĠĠĠĠĠĠĠĠĠĠĠĠĠĠĠĠĠĠĠĠĠĠĠĠĠĠĠĠĠĠĊĠĠ
aw ay
Ġs ched
Ġreg ulating
v tk
Ġutil ize
ĠCon tract
æ ¬
ĠWith out
68 6
H om
For ce
Ġ" \\
sub dir
Ġm iss
Ġgen otypes
pro x
Event Args
33 8
Sh ared
g ender
an sion
}$ ]{}
Ġaccept ance
ud nn
Con sole
ĠS at
ĠW all
ĠCon tain
Dim ension
Ġwa fer
Ġpop ulate
ĠTime stamp
Ġ ĠĠĠĠĠĠĠĠĠĠĠĠĠĠĠĠĠĠĠĠĠĠĠĠĠĠĠĠĠĠĠĠĠĠĠĠĠĠĠĠĠĠĠĠĠĠĠĠĠĠĠĠĠĊĊĠ
Ġconsider ably
Ġdir name
W W
24 2
res erved
int s
vol tage
UNK NOWN
Ġtra iling
Ġal gebras
if ace
Ġappell ants
de ll
Ġl am
ï¼ ī
le f
Ġinf ant
* ^*
cert ainties
aud it
TO DO
in ions
Ġpul ses
d ilation
ĠRec ently
Ġens ures
/ +
ĠPublic ation
Ġinher ited
ĠAltern atively
ri ft
Ġl ane
Ġ( .
t frac
04 5
Ġperm its
R aster
L AT
ĠT M
ĠB ow
Man agement
ç¤ º
uss ia
ï¼ Ī
Ġ{ }\
A udio
dist rict
Ġret ries
So up
Ġlo ve
Ġ'* '
Ġt t
Ġm ere
ĠR aw
Ġact ed
lat in
Drop out
ran ts
Ġfun ded
comp ression
Ġmap per
D jango
ĠP acific
K I
Ġ ĠĠĠĠĠĠĠĠĠĠĠĠĠĠĠĠĠĠĠĠĠĠĠĠĠĠĠĠĠĠĠĠĠĠĠĠĠĠĠĠĠĠĠĠĠĠĠĠĠĠĠĠĠĠĠĠĠĠĠĠĠĠĠĠĠĠĠĠĠĠĠĠĠĠĠĠĠĠĠĠĠĠĠĠĠĠĠĠĠĠĠĠĠĠĠĠĠĠĠĠĠĠĠĠĠĠĠĠĠĠĠĠĠĠĠĠĠĠĠĠĠĠĠĠĠĠĠĠĠĠĠĠĠĠĠĠĠĠĊĠ
import s
Ġhydro x
as pect
R ew
ÂłÂł Âł
ĠS her
Ġ1 31
S izer
Ġ3 50
C ast
an ic
Sc roll
Ġ""" ,
ĠChampion ship
ĠResource ExistsError
B lob
, :]
Ġoblig ation
s age
Ġi g
ts v
le ading
R G
rest ype
me ber
ĠH F
ĊĠĠĠĠĠĠĠĠĠĠĠĠĠĠĠĠĠĠĠĠĠĠĠĠĠĠĠĠĠĠĠĠĠĠĠĠĠĠĠĠĠĠĠĠĠĠĠĠĠĠĠĠĠĠĠĠĠĠĠĠĠĠĠĠĠĠĠĠĠĠĠĠĠĠĠĠĠĠĠĠĠĠĠĠĠĠĠĠĠĠĠĠĠĠĠĠĠĠĠĠĠĠĠĠĠĠĠĠĠĠĠĠĠĠĠĠĠĠĠĠĠĠĠĠĠĠĠĠĠĠĠĠĠĠĠĠĠĠĠĠĠĠĠĠĠĠĠĠĠĠĠĠĠĠĠĠ Ġ
Î¼ g
Ġth re
oc cur
ĠInter face
err no
a uc
Ġplan et
Ġf Ã¼r
Ġro i
27 7
WIN DO
ĠPar lament
S mall
DI ST
ic ol
ig ue
Look up
Ġf atal
Ġret val
ä¿ ¡
Ġin adequ
Ġelectro magnetic
Ġ ĠĠĠĠĠĠĠĠĠĠĠĊ
str ptime
44 8
ul p
as n
iot ic
ĠU UID
ĠT C
mot or
Ġsear ches
Ġremed y
ĠM MP
G it
ĠF ailed
Ġmicro bial
CO M
Ġde lla
ĠÂ§ Â§
Ġantioxid ant
:: ::
gre ater
Ġ ĠĠĠĠĠâĢī
H tml
se udo
40 9
ĠH CC
Ġ= ==
Ġreplic a
Resource Options
v pc
tre es
r one
ĠTh ose
Ġknow s
Ġ ĠĠĠĠĠĠĠĠĠĠĠĠĠĠĠĠĠĠĠĠĠĠĠĠĠĠĠĠĠĠĠĠĠĠĠĠĠĠĠĠĠĠĠĠĠĠĠĠĠĊĠĠ
assertNot Equal
Ð ¶
Ġe mitted
Ġtrans pose
ĠMemb er
Ġ`` '
cert s
Ġst rand
SE C
Ġgre y
ĠDe v
conf idence
Ġcount ed
Ġpoor ly
ĠL uc
IP S
Ġde lib
g pus
ĠM ask
Ġex clusively
ĠGeorg ia
i ating
Ġ ĠĠĠĠĠĠĠĠĠĠĠĠĠĠĠĠĠĠĠĠĠĠĠĠĠĠĠĠĠĠĠĠĠĠĠĠĠĠĠĠĠĠĠĠĠĠĠĠĠĠĠĠĠĠĊĊĠ
ĠO oO
qu ota
con flict
ä¸ ĭ
Ġprosec utor
fl avor
Ġconstit utes
ĠPri vate
em u
ro d
ut ative
k el
ĠP ool
h its
Ġdeter ior
Ġto ur
her lands
E v
orn ado
pro py
ST OP
oper ators
ĊĠĠĠĠĠĠĠĠĠĠĠĠĠĠĠĠĠĠĠĠĠĠĠĠĠĠĠĠĠĠĠĠĠĠĠĠĠĠĠĠĠĠĠĠĠĠĠĠĠĠĠĠĠĠĠĠĠĠĠĠĠĠĠĠĠĠĠĠĠĠĠĠĠĠĠĠĠĠĠĠĠĠĠĠĠĠĠĠĠĠĠĠĠĠĠĠĠĠĠĠĠĠĠĠĠĠĠĠĠĠĠĠĠĠĠĠĠĠĠĠĠĠĠĠĠĠĠĠĠĠĠĠĠĠĠĠĠĠĠĠĠĠĠĠĠĠĠĠĠĠĠĠĠĠĠĠĠ Ġ
Ġj ax
Ã§ Ãµes
è¦ ģ
Ġautom obile
ref lect
35 8
Ġassoci ate
Ġqu iet
Ġartifact s
Ġv ibration
is che
cor relation
Ġmeaning ful
Ġint ensive
ill ation
bra cket
Ġback bone
Ġdome stic
Ġpolymer ase
Ġnot iced
Ġsusp ended
ip ality
{ }\
jo ined
Ġsqu ares
Ġe mul
um ab
Ġwhere by
high light
Ġin effective
Stud y
âī ¥
F Par
ĠAnge les
V s
Ġrender er
ç Ń
l attice
google apis
Ġ ĠĠĠĠĠĠĠĠĠĠĠĠĠĠĠĠĠĠĠĠĠĠĠĠĠĠĠĠĠĠĠĠĠĠĠĠĠĠĠĠĠĠĠĠĠĠĠĠĠĠĠĠĠĠĠĠĠĠĠĠĠĠĠĠĠĠĠĠĠĠĠĠĠĠĠĠĠĠĠĠĠĠĠĠĠĠĠĠĠĠĠĠĠĠĠĠĠĠĠĠĠĠĠĠĠĠĠĠĠĠĠĠĠĠĠĠĠĠĠĠĠĠĠĠĠĠĠĠĠĠĠĠĠĠĠĠĠĠĠĊĠ
Ġthous and
Ġa fore
ĠT u
There fore
g ens
ÑĤ Ð¾
ĠDef inition
Ġclass ifiers
Ġg i
Ġpad ded
Ġplot ly
Ġirradi ation
Ġt ap
Ġcomp ly
Pre par
Ġinfect ious
Ġ2 10
Ġair flow
Cre ating
Ġlat itude
T CP
F ocus
M Q
Ġgood s
ST REAM
Ġ0 8
Ġ\* \*
40 2
ans wers
Ġcontribut ors
gt hen
Ġub iquit
lo ver
******************************** ********************************
ulo se
ĠSto ck
J ust
Ser ialize
Ġpath ogens
c ine
annot ate
head ing
po ssible
n ol
Å ĳ
it on
ĠN ON
ĠB O
Ġl ived
text ure
a is
Ġ ĠĠĠĠĠĠĠĠĠĠĠĠĠĠĠĠĠĠĠĠĠĠĠĠĠĠĠĠĠĠĠĠĠĠĠĠĠĠĠĠĠĠĠĠĠĠĠĠĠĠĠĠĠĠĠĊĊĠ
ss on
Ġwal king
S napshot
est imate
od i
Ġdama ged
Ġha em
Ġneighb our
check box
m ate
T N
ĠAr k
ai res
Ġin vert
me chan
x sl
* ',
y outube
mig rate
ĠA u
ail ing
aut henticated
Ġ ĠĠĠĠĠĠĠĠĠĠĠĠĠĠĠĠĠĠĠĠĠĠĠĠĠĠĠĠĠĠĠĠĠĠĠĠĠĠĠĠĠĠĠĠĠĠĠĠĠĠĊĠĠ
Ġdist inction
ĠD oc
ĠL ar
Ġtermin als
Ġ'_ '
}: {
ĠNe uro
Ġmin eral
pers ist
P atch
ĠL u
Sub Element
ĊĠĠĠĠĠĠĠĠĠĠĠĠĠĠĠĠĠĠĠĠĠĠĠĠĠĠĠĠĠĠĠĠĠĠĠĠĠĠĠĠĠĠĠĠĠĠĠĠĠĠĠĠĠĠĠĠĠĠĠĠĠĠĠĠĠĠĠĠĠĠĠĠĠĠĠĠĠĠĠĠĠĠĠĠĠĠĠĠĠĠĠĠĠĠĠĠĠĠĠĠĠĠĠĠĠĠĠĠĠĠĠĠĠĠĠĠĠĠĠĠĠĠĠĠĠĠĠĠĠĠĠĠĠĠĠĠĠĠĠĠĠĠĠĠĠĠĠĠĠĠĠĠĠĠĠĠĠĠ Ġ
comm end
Ġtor que
ĠSum mer
ub ottu
BUT TON
ĠC U
M ost
tra j
Ġs atellite
Ġsimpl ified
Ġreview ing
Ġmor bidity
Ġre m
in testinal
č ĊĠĠ
Ġ---------------- ----
qu in
ov ie
Ġs copes
Z ip
over set
D id
Ġst iff
Ġbl adder
Ġobser ver
ir k
Ġf ingerprint
ãĤ Ĵ
---------------- -
26 9
ĠB D
pu zzle
TR Y
iz z
ĠN M
enc rypt
oc he
az ole
f ork
bo ards
B LE
Ġ---------------- --
Ġc ry
Ġanalog ous
Ġtra jectories
ire ment
ĠS ent
Ġord in
ĠM id
T s
im o
String IO
sm art
kw ds
Ġbase name
iem ann
CS V
Ġin ert
in fra
ĠV ictor
v et
Ġ'. /
Ġatt ended
Ġun like
ĠS PD
ĠA SC
as hed
Ġleg it
ĠIn f
extract or
Ġ Ã¤r
Ġunus ual
ĠSer ial
Ġd ye
Ġre cipe
ĠPass word
Ġfore going
rop ical
Ġindict ment
oid al
sp end
Ġnote book
Ġgraph ics
Ġgenome s
Ġoper and
86 01
est abl
Ġ ĠĠĠĠĠĠĠĠĠĠĠĠĠĠĠĠĠĠĠĠĠĠĠĠĠĠĠĠĠĠĠĠĠĠĠĠĠĠĠĠĠĠĠĠĠĠĠĠĠĠĠĠĠĠĠĠĠĠĠĠĠĠĠĠĠĠĠĠĠĠĠĠĠĠĠĠĠĠĠĠĠĠĠĠĠĠĠĠĠĠĠĠĠĠĠĠĠĠĠĠĠĠĠĠĠĠĠĠĠĠĠĠĠĠĠĠĠĠĠĠĠĠĠĠĠĠĠĠĠĠĠĠĠĠĠĠĠĠĠĠĊĠ
ven ile
38 9
ĊĠĠĠĠĠĠĠĠĠĠĠĠĠĠĠĠĠĠĠĠĠĠĠĠĠĠĠĠĠĠĠĠĠĠĠĠĠĠĠĠĠĠĠĠĠĠĠĠĠĠĠĠĠĠĠĠĠĠĠĠĠĠĠĠĠĠĠĠĠĠĠĠĠĠĠĠĠĠĠĠĠĠĠĠĠĠĠĠĠĠĠĠĠĠĠĠĠĠĠĠĠĠĠĠĠĠĠĠĠĠĠĠĠĠĠĠĠĠĠĠĠĠĠĠĠĠĠĠĠĠĠĠĠĠĠĠĠĠĠĠĠĠĠĠĠĠĠĠĠĠĠĠĠĠĠĠĠĠĠ Ġ
ç» ĵ
ad en
US D
Ċ ĊĠĠĠĠĠĠĠĠĠĠ
ĠW ang
Ġpriv acy
Ġmonkey patch
ĠF ix
j query
Ġexp ense
Ġima gin
rog ate
Â ¢
V OL
50 8
St ar
ĠRespon dent
Ġ ĠĠĠĠĠĠĠĠĠĠĠĠĠĠĠĠĠĠĠĠĠĠĠĠĠĠĠĠĠĠĠĠĠĠĠĠĠĠĠĠĠĠĠĠĠĠĠĠĠĠĠĠĠĠĠĠĊĊĠ
Ġdomin ated
mi R
60 6
recur sive
& .
Ġfel ony
Ġin vent
Ġ[ _
E O
/{} /
Ġre load
Let t
ĠValid ate
interpol ate
ĠCONF IG
Ġmin us
Ġg y
Ġmorph ological
Ġtrig gers
Ġg ross
Ret ry
38 5
ĠU TC
dec ision
d rag
est ival
Ġst ands
Ġpre ferences
Ġdevelop ers
Ġsatisf action
Ġde g
sp awn
' <
ĠSt an
ĠFile s
ĠH art
PL C
ĠG ames
organ isms
Ġmus cles
Ġad herence
Ġnor thern
Ġ ĠĠĠĠĠĠĠĠĠĠĠĠĠĠĠĠĠĠĠĠĠĠĠĠĠĠĠĠĠĠĠĠĠĠĠĠĠĠĠĠĠĠĠĠĠĠĠĠĠĠĠĊĠĠ
Ġin quiry
00 20
Ġrect angle
ĠSur vey
Ġdep letion
Authentication Error
Dep th
compat ibility
Ġurl parse
X ml
E arly
ç ®
ff i
ish op
Ġun treated
ĠO l
29 0
Ġpre cursor
Ġel ucid
Ġn y
Ġs lower
ĠLo ss
Ġci pher
Filter s
ierarch y
publ isher
Ġstop ping
Ġhighlight ed
Ġsubst itute
Ġadd on
Ġr g
################################################################ ################
Ġpath ology
Ġstat utes
ĠSt atic
Ġgradu ally
Ġ1 64
Ġarbit r
Ġa o
Ġ ĠĠĠĠĠĠĠĠĠĠĠĠĠĠĠĠĠĠĠĠĠĠĠÂł
Ġadequ ately
ĊĠĠĠĠĠĠĠĠĠĠĠĠĠĠĠĠĠĠĠĠĠĠĠĠĠĠĠĠĠĠĠĠĠĠĠĠĠĠĠĠĠĠĠĠĠĠĠĠĠĠĠĠĠĠĠĠĠĠĠĠĠĠĠĠĠĠĠĠĠĠĠĠĠĠĠĠĠĠĠĠĠĠĠĠĠĠĠĠĠĠĠĠĠĠĠĠĠĠĠĠĠĠĠĠĠĠĠĠĠĠĠĠĠĠĠĠĠĠĠĠĠĠĠĠĠĠĠĠĠĠĠĠĠĠĠĠĠĠĠĠĠĠĠĠĠĠĠĠĠĠĠĠĠĠĠĠĠĠĠĠ Ġ
Ġ} {
Ġh abe
ab a
pr incipal
Ġpal ette
ĠDan iel
hydro gen
map pings
" ')
w l
ĠPo isson
Ġsoc io
Ġe urope
y ield
Ġinstall ing
Ġdri ft
pos ing
D IM
Ġmoun ting
80 8
Ġ ĠĠĠĠĠĠĠĠĠĠĠĠĠĠĠĠĠĠĠĠĠĠĠĠĠĠĠĠĠĠĠĠĠĠĠĠĠĠĠĠĠĠĠĠĠĠĠĠĠĠĠĠĠĠĠĠĠĠĠĠĠĠĠĠĠĠĠĠĠĠĠĠĠĠĠĠĠĠĠĠĠĠĠĠĠĠĠĠĠĠĠĠĠĠĠĠĠĠĠĠĠĠĠĠĠĠĠĠĠĠĠĠĠĠĠĠĠĠĠĠĠĠĠĠĠĠĠĠĠĠĠĠĠĠĠĠĠĠĠĠĠĊĠ
ÂĢ ÂĤ
Ġsc ient
Ġ ĠĠĠĠĠĠĠĠĠĠĠĠĠĠĠĠĠĠĠĠĠĠĠĠĠĠĠĠĠĠĠĠĠĠĠĠĠĠĠĠĠĠĠĠĠĠĠĠĠĠĠĠĠĠĠĠĠĊĊĠ
/( ?
im on
ĠM ill
FIL TER
Ġex on
Ġillustr ate
Ġve locities
. "),
( @
ĠCON NE
Ġcon ference
int ensity
Ġd h
Ġspe aker
. <
Ġprint f
} ).
T ASK
Ġplate let
ub ot
ins ide
Ġent re
ev t
le en
Ġcas p
Ġar rows
Ġdepict ed
n ie
Ġnew line
ÏĦ Î±
( .*
Ġerr no
Ġhar monic
path y
Ġbrief ly
Ġrecru ited
ĠIN TER
vis ibility
Ġl amp
Ġcontext s
ren ces
Part ition
sc ra
ĠM achine
PY THON
ĠK im
Ġcombust ion
loc ate
Ġvacc ination
Ġcon sequently
er ver
ĠT y
Ġimplic ated
mach ines
Ġh am
M aterials
Ġline arly
Ġtru ck
ac ry
ĠN av
LE MENT
oc c
ĠC art
Ġs id
Ġintegr ate
ĠTrans form
Cour se
L STM
ware house
ic ing
ct ic
19 75
: ]:
Ġclear ance
Ġjuris dict
$- $
34 8
Ġconcat en
" }\
Ġfraction al
60 4
ãģ Ħ
Ġp lotting
}, {
Ġri ver
Ġcontribut ing
vir us
to uch
ĠChild ren
ace ae
à ®
ĠP RE
Ġte eth
( (-
Ġ3 02
Ġrelig ious
27 8
G ot
] $,
Ġcolo red
Ġun certainties
ĠR ole
Ġdisplay ing
ĠExperim ent
Ġmulti plication
Ġnec rosis
S n
tra ffic
Ġ ĠĠĠĠĠĠĠĠĠĠĠĠĠĠĠĠĠĠĠĠĠĠĠĠĠĠĠĠĠĠĠĠĠĠĠĠĠĠĠĠĠĠĠĠĠĠĠĠĠĠĠĠĠĠĠĠĠĠĊĊĠ
ĠH ot
ome s
å ŀ
d an
it Ã©
Ġi ps
ĠL ore
38 8
ĊĠĠĠĠĠĠĠĠĠĠĠĠĠĠĠĠĠĠĠĠĠĠĠĠĠĠĠĠĠĠĠĠĠĠĠĠĠĠĠĠĠĠĠĠĠĠĠĠĠĠĠĠĠĠĠĠĠĠĠĠĠĠĠĠĠĠĠĠĠĠĠĠĠĠĠĠĠĠĠĠĠĠĠĠĠĠĠĠĠĠĠĠĠĠĠĠĠĠĠĠĠĠĠĠĠĠĠĠĠĠĠĠĠĠĠĠĠĠĠĠĠĠĠĠĠĠĠĠĠĠĠĠĠĠĠĠĠĠĠĠĠĠĠĠĠĠĠĠĠĠĠĠĠĠĠĠĠĠĠĠĠ Ġ
diag onal
be ing
Ġar Xiv
ra z
ĠM iddle
Ġ ĠĠĠĠĠĠĠĠĠĠĠĠĠĠĠĠĠĠĠĠĠĠĠĠĠĠĠĠĠĠĠĠĠĠĠĠĠĠĠĠĠĠĠĠĠĠĠĠĠĠĠĠĊĠĠ
atern ion
f lo
Ġun iversity
Ġnum s
G reen
ram id
Ġcult ural
comp uted
Ġhe aling
Ġlymph ocytes
ĠC X
2 19
ĠD AT
ĠT LR
ĠW S
}} }_{
Ġ ĠĠĠĠĠĠĠĠĠĠĠĠĠĠĠĠĠĠĠĠĠĠĠĠĠĠĠĠĠĠĠĠĠĠĠĠĠĠĠĠĠĠĠĠĠĠĠĠĠĠĠĠĠĠĠĠĠĠĠĠĠĠĠĠĠĠĠĠĠĠĠĠĠĠĠĠĠĠĠĠĠĠĠĠĠĠĠĠĠĠĠĠĠĠĠĠĠĠĠĠĠĠĠĠĠĠĠĠĠĠĠĠĠĠĠĠĠĠĠĠĠĠĠĠĠĠĠĠĠĠĠĠĠĠĠĠĠĠĠĠĠĠĊĠ
Sa mpler
39 5
ĠB ol
b k
j ump
de mic
80 4
U sed
over rides
Ġcompri se
Ġnon zero
Ġh orizon
I RED
æ ¯
ethe less
İ ·
ĠApp le
Ġpol ys
Ġg aps
sum mar
ĠL ock
T erm
Ġrepeated ly
æŀ ľ
= $
Ġbu ilds
ĠT ab
Ġbot t
Ġ Ä
ĠIn surance
V e
Ġindex ing
ĠCom mer
ĠA MP
Ġquant ification
27 9
D ynamic
Ġfriend ly
ĠAs ia
Ġ ĠĠĠĠĠĠĠĠĠĠĠĠĊ
LOB AL
Ġ ĠĠĠĠĠĠĊĠĠĠ
Ġchallen ged
l ar
assertNot In
st y
- {\
ik es
Ġs port
adjust ed
Ġjust ify
Ġ5 000
Ġatt orneys
99 8
i u
Ġwh itespace
Ġco ast
Ġs ounds
gly ph
Ġgenu ine
front end
K ernel
Ġsc ans
![ **
Ġcitiz ens
comp act
Ġcomplement ary
aff ine
EG IN
dis c
F OLDER
app y
Ġal arm
mo ji
ifi able
AA A
N I
ĊČĠĠĠĠĠĠĠĠĠĠĠĠĠĠĠĠĠĠĠĠĠĠĠĠĠĠĠĠĠ Ġ
77 7
QU ERY
æĸ °
ĠPri mary
el ve
', ),
Ġampl ified
Ġlig ands
Ġsimpl icity
ĊĠĠĠĠĠĠĠĠĠĠĠĠĠĠĠĠĠĠĠĠĠĠĠĠĠĠĠĠĠĠĠĠĠĠĠĠĠĠĠĠĠĠĠĠĠĠĠĠĠĠĠĠĠĠĠĠĠĠĠĠĠĠĠĠĠĠĠĠĠĠĠĠĠĠĠĠĠĠĠĠĠĠĠĠĠĠĠĠĠĠĠĠĠĠĠĠĠĠĠĠĠĠĠĠĠĠĠĠĠĠĠĠĠĠĠĠĠĠĠĠĠĠĠĠĠĠĠĠĠĠĠĠĠĠĠĠĠĠĠĠĠĠĠĠĠĠĠĠĠĠĠĠĠĠĠĠĠĠĠĠĠĠ Ġ
opt imal
Ġ ĠĠĠĠĠĠĠĠĠĠĠĠĠĠĠĠĠĠĠĠĠĠĠĠĠĠĠĠĠĠĠĠĠĠĠĠĠĠĠĠĠĠĠĠĠĠĠĠĠĠĠĠĠĠĠĠĠĠĠĊĊĠ
Ġinf usion
Ġge ar
ĠOpt im
( .
Ġin cur
Ġsub groups
J K
28 4
Ġproxim ity
Ġc ities
precation Warning
, [@
Ġle ague
Ġphen otypes
_{ {
Ġhom ology
ĠJ ew
I mm
Ġphys ically
Ġsus pect
35 6
F ill
r ings
des ired
dist ances
Custom er
Argument s
åıĤ æķ°
Ġen caps
Ġalle les
ĠEmp ty
period s
39 0
ĠS DS
Ġn em
ir ms
Ġs pre
n k
ĠCO MM
Ġtrans genic
ĠGe V
Ġsouth ern
| {\
Table s
Ġofficial s
Pol ling
Po inter
Ġdifferent ially
ĠTh rough
M ass
ĠB ios
open api
Ġpro gramm
Ġinter cept
Ġde but
re wards
cent ric
Ġvis cosity
Ġd ated
Scal ar
ith metic
ĠL at
`` :
redu ced
j wt
Ġ ĠĠĠĠĠĠĠĠĠĠĠĠĠĠĠĠĠĠĠĠĠĠĠĠĠĠĠĠĠĠĠĠĠĠĠĠĠĠĠĠĠĠĠĠĠĠĠĠĠĠĠĠĠĠĠĠĠĠĠĠĠĠĠĠĠĠĠĠĠĠĠĠĠĠĠĠĠĠĠĠĠĠĠĠĠĠĠĠĠĠĠĠĠĠĠĠĠĠĠĠĠĠĠĠĠĠĠĠĠĠĠĠĠĠĠĠĠĠĠĠĠĠĠĠĠĠĠĠĠĠĠĠĠĠĠĠĠĠĠĠĠĠĠĊĠ
ç ł
Ġdiff use
M al
in yl
Ġover view
B ur
+ $
Ġmut ual
Ġ ĠĠĠĠĠĠĠĠĠĠĠĠĠĠĠĠĠĠĠĠĠĠĠĠĠĠĠĠĠĠĠĠĠĠĠĠĠĠĠĠĠĠĠĠĠĠĠĠĠĠĠĠĠĊĠĠ
Rad io
Ġeng agement
B ranch
ulos is
Ġbiomark ers
ar ial
ë ĭ
it ary
Un ique
Ġde ps
Ġmer it
sen ter
Ġl yr
set item
Ġfor um
35 9
Ġchild hood
k al
Ġbin ds
Ġflatten ed
gl ut
Ġduplic ates
act ing
N av
po ols
Ġsur prising
S IM
ribut or
Ġt v
2 18
al ette
I mg
ann a
h dr
Ġdiag rams
Ġcoll isions
Ġ19 71
ch ant
Ġcoe ff
no op
Ġcross ing
Ġ* (
Uns upported
Ġdiver gence
Ġan onymous
| $
ĊĠĠĠĠĠĠĠĠĠĠĠĠĠĠĠĠĠĠĠĠĠĠĠĠĠĠĠĠĠĠĠĠĠĠĠĠĠĠĠĠĠĠĠĠĠĠĠĠĠĠĠĠĠĠĠĠĠĠĠĠĠĠĠĠĠĠĠĠĠĠĠĠĠĠĠĠĠĠĠĠĠĠĠĠĠĠĠĠĠĠĠĠĠĠĠĠĠĠĠĠĠĠĠĠĠĠĠĠĠĠĠĠĠĠĠĠĠĠĠĠĠĠĠĠĠĠĠĠĠĠĠĠĠĠĠĠĠĠĠĠĠĠĠĠĠĠĠĠĠĠĠĠĠĠĠĠĠĠĠĠĠĠĠ Ġ
ĠSub ject
gr u
bg p
pre f
Ġinter sect
s and
Ġest e
READ ME
ribut ors
Ġ ĠĠĠĠĠĠĠĠĠĠĠĠĠĠĠĠĠĠĠĠĠĠĠĠĠĠĠĠĠĠĠĠĠĠĠĠĠĠĠĠĠĠĠĠĠĠĠĠĠĠĠĠĠĠĠĠĠĠĠĠĊĊĠ
B oth
âĸ Ĵ
d up
Ġchlor ide
Ġimp rison
Ġv ault
ĠT ok
Ġg ym
Ġorient ed
un numbered
åŃ ĺ
vi ol
g rowth
ĠR en
Î¼ m
Ġs me
er k
st it
Ġdis solved
Ġcomput ers
Ver ify
Ġmanufact ure
ann o
Ġproced ural
Ġinf inity
tri als
LE ASE
B est
Comple te
sc re
Ġrule d
Ġor acle
Con clusion
åĪ Ĺ
fo obar
Ġph p
\ }\
gre y
wik ipedia
int ro
ĠLe ft
Ġse cre
D G
ĠIN PUT
an to
are house
vid ia
Ġinhib its
Ġpre f
am ents
Ġis land
Net Device
Ġdistingu ished
ĠIn fo
ç ¬
000 9
H ASH
V o
De code
Â Ľ
De leter
dist inct
ina fter
Ġop inions
å¯ ¹
ert o
in th
Ġ ĠĠĠĠĠĠĠĠĠĠĠĠĠĠĠĠĠĠĠĠĠĠĠĠĠĠĠĠĠĠĠĠĠĠĠĠĠĠĠĠĠĠĠĠĠĠĠĠĠĠĠĠĠĠĠĠĠĠĠĠĠĠĠĠĠĠĠĠĠĠĠĠĠĠĠĠĠĠĠĠĠĠĠĠĠĠĠĠĠĠĠĠĠĠĠĠĠĠĠĠĠĠĠĠĠĠĠĠĠĠĠĠĠĠĠĠĠĠĠĠĠĠĠĠĠĠĠĠĠĠĠĠĠĠĠĠĠĠĠĠĠĠĠĠĊĠ
li ers
Ġbar riers
Fra gment
---------------- -------
ĠS UB
Ġbil ateral
x r
cm ds
So ft
}) ^
Head ers
æģ ¯
Ġrot ational
ime thyl
Ġ'- '
duc ers
ach use
27 3
Add r
Ġ2 60
Ġtell s
g ons
_{ {{\
ĠCol lect
Ġgra ins
j an
Ġ ĠĠĠĠĠĠâĢī
Ġco vari
Ġafore mentioned
Col l
ĠO xford
39 6
) ==
Ġag ar
ĠG A
v pn
ĊĠĠĠĠĠĠĠĠĠĠĠĠĠĠĠĠĠĠĠĠĠĠĠĠĠĠĠĠĠĠĠĠĠĠĠĠĠĠĠĠĠĠĠĠĠĠĠĠĠĠĠĠĠĠĠĠĠĠĠĠĠĠĠĠĠĠĠĠĠĠĠĠĠĠĠĠĠĠĠĠĠĠĠĠĠĠĠĠĠĠĠĠĠĠĠĠĠĠĠĠĠĠĠĠĠĠĠĠĠĠĠĠĠĠĠĠĠĠĠĠĠĠĠĠĠĠĠĠĠĠĠĠĠĠĠĠĠĠĠĠĠĠĠĠĠĠĠĠĠĠĠĠĠĠĠĠĠĠĠĠĠĠĠĠ Ġ
predict ed
autiful Soup
Ġdis position
Ġsh ut
e os
Ġarri ved
Cal cul
Ġimp ose
Ġ ĠĠĠĠĠĠĠĠĠĠĠĠĠĠĠĠĠĠĠĠĠĠĠĠĠĠĠĠĠĠĠĠĠĠĠĠĠĠĠĠĠĠĠĠĠĠĠĠĠĠĠĠĠĠĊĠĠ
ig t
Ġt rends
ert ain
Ġdispatch er
M em
Ġn r
Ġoccup ied
RES O
Ġ ĠĠĠĠĠĠĠĠĠĠĠĠĠĠĠĠĠĠĠĠĠĠĠĠĠĠĠĠĠĠĠĠĠĠĠĠĠĠĠĠĠĠĠĠĠĠĠĠĠĠĠĠĠĠĠĠĠĠĠĠĠĊĊĠ
Ġproceed s
AB A
Ġb is
80 7
wh itelist
ER IC
s ively
50 7
ST OR
ĠP arent
vart heta
ĠFer mi
vis ited
ĠSche ma
j en
ĠF lu
EV T
ĠW ay
Ġinflu ences
3 30
dri ven
Cont in
ĠNe ither
Ġsem antic
24 1
test case
Ġpack aging
tr on
th row
ĠAppe llee
ri ent
mod ynamic
or and
37 7
os copy
Ġsee ks
Ġphot os
UR ES
Ġfer ro
38 7
ear son
Ġmetall ic
98 7
CUR RENT
achuse tts
am us
Ġex pired
In dic
b is
. {
= {\
Ġcon ject
Ġg on
h olds
ĠFI LE
Ġs orry
åŀ ĭ
ame d
Ġdash board
Ġret inal
ĠH i
WR ITE
ĠG M
Ġprob ation
aus s
r ically
Ġle ct
ĠComm unic
Ġlabel ing
Ġ[ \
')) .
ĠC AR
32 2
Ġh uge
S ESSION
poly gon
Access or
Ġsup ers
AG G
Ġqu oted
Ġch ampion
Ġle uke
ĠC LA
AC S
Ġpregn ant
log ged
ĊĠĠĠĠĠĠĠĠĠĠĠĠĠĠĠĠĠĠĠĠĠĠĠĠĠĠĠĠĠĠĠĠĠĠĠĠĠĠĠĠĠĠĠĠĠĠĠĠĠĠĠĠĠĠĠĠĠĠĠĠĠĠĠĠĠĠĠĠĠĠĠĠĠĠĠĠĠĠĠĠĠĠĠĠĠĠĠĠĠĠĠĠĠĠĠĠĠĠĠĠĠĠĠĠĠĠĠĠĠĠĠĠĠĠĠĠĠĠĠĠĠĠĠĠĠĠĠĠĠĠĠĠĠĠĠĠĠĠĠĠĠĠĠĠĠĠĠĠĠĠĠĠĠĠĠĠĠĠĠĠĠĠĠĠĠ Ġ
Ġin active
OR IZ
ul ip
ĠEngine ering
de grees
Ġpredomin antly
Sh ift
log ists
aff e
Ġg RPC
W O
ĠJ ul
ĠL earning
Ġdanger ous
od a
" %(
Ġbo vine
Ġ Ñĥ
ra ster
Ġguarante ed
ç Ĥ
Ġp kt
Ġstat istic
Ġauthor ities
Ġph on
3 15
am ond
Ass ign
---------------- ------
Ġdis claimer
C are
Ġr d
bu gs
Un its
Ġrecommend ation
Ġ ĠĠĠĠĠĠĠĠĠĠĠĠĠĠĠĠĠĠĠĠĠĠĠĠĠĠĠĠĠĠĠĠĠĠĠĠĠĠĠĠĠĠĠĠĠĠĠĠĠĠĠĠĠĠĠĠĠĠĠĠĠĠĠĠĠĠĠĠĠĠĠĠĠĠĠĠĠĠĠĠĠĠĠĠĠĠĠĠĠĠĠĠĠĠĠĠĠĠĠĠĠĠĠĠĠĠĠĠĠĠĠĠĠĠĠĠĠĠĠĠĠĠĠĠĠĠĠĠĠĠĠĠĠĠĠĠĠĠĠĠĠĠĠĠĠĊĠ
Ġv ic
Ġown ers
min i
Ġprogram me
Ġun ity
Ġextens ively
Ġ ĠĠĠĠĠĠĠĠĠĠĠĠĠĊ
t ap
co w
Ġaco ustic
"] =
Ġgran ts
Ġs ports
ĠÎ ½
Ġr hy
log ist
ga ussian
ĠB an
3 10
Re ason
=' %
ac quire
Ġadolesc ents
Ġoper ational
de mn
Ġantim icrobial
ag on
67 5
Ġad mit
Ġm n
Ġpromot ion
part icles
Ġmig rate
Ġ ĠĠĠĠĠĠĠĠĠĠĠĠĠĠĠĠĠĠĠĠĠĠĠĠĠĠĠĠĠĠĠĠĠĠĠĠĠĠĠĠĠĠĠĠĠĠĠĠĠĠĠĠĠĠĠĠĠĠĠĠĠĠĊĊĠ
ext ent
ci pher
ros ine
------------------------ ----
Ġv im
iss a
set Value
Ġcar box
ĠMin istry
ĠAut hentication
ĠHy per
Command s
ĠOpen API
pre processing
ACT IVE
ATION S
Ġrefer ring
Ġexperiment ally
el ian
ĠR P
Ġpromot ing
Ġn os
ĠH ash
s am
S pect
Ġte aching
comp ose
G ene
Ġy s
direct ories
l iography
Ġappe aring
Ġsurve ys
Ġ ]:
Ġqu ota
re play
S outh
04 4
rect al
Ġrece ipt
quis ite
To Many
ĠI m
inal ity
Ġinher ent
ad ium
Ġ ĊĠĠĠĠ
Ġdri ves
Ġ ĠĠĠĠĠĠĠĠĠĠĠĠĠĠĠĠĠĠĠĠĠĠĠĠĠĠĠĠĠĠĠĠĠĠĠĠĠĠĠĠĠĠĠĠĠĠĠĠĠĠĠĠĠĠĠĊĠĠ
R atio
Ġinst itutional
Ġnur ses
[ ::-
99 7
^ (
ĠA CT
ĠAss istant
memb ership
Ġme ters
E th
Ġx x
AL N
med ical
og lob
Ã¤ m
W all
B bb
Ġa h
Mod ified
Ġ ĠĠĠĠĠĠĠĠĠĠĠĠĠĠĠĠĠĠĠĠĠĠĠĠÂł
ations hip
âĸĪâĸĪ âĸĪâĸĪ
se b
Ġscre w
Ġelectro ph
AC H
P in
Ġac quire
valu ed
00 12
39 8
ĠJava Script
Ġdict s
upy ter
ĠURL s
è ĥ½
Ġh s
olec ules
Ġgover ned
Ġanaly zing
60 9
ENT RY
ĠF ood
trans formed
z t
ill us
Ð¾Ð ¹
Ġrecomb ination
C SS
ĊĠĠĠĠĠĠĠĠĠĠĠĠĠĠĠĠĠĠĠĠĠĠĠĠĠĠĠĠĠĠĠĠĠĠĠĠĠĠĠĠĠĠĠĠĠĠĠĠĠĠĠĠĠĠĠĠĠĠĠĠĠĠĠĠĠĠĠĠĠĠĠĠĠĠĠĠĠĠĠĠĠĠĠĠĠĠĠĠĠĠĠĠĠĠĠĠĠĠĠĠĠĠĠĠĠĠĠĠĠĠĠĠĠĠĠĠĠĠĠĠĠĠĠĠĠĠĠĠĠĠĠĠĠĠĠĠĠĠĠĠĠĠĠĠĠĠĠĠĠĠĠĠĠĠĠĠĠĠĠĠĠĠĠĠĠĠ Ġ
ment al
ic ion
on as
base s
erc ulosis
Ġcommunic ate
ĠB or
d T
Ġbro ker
Ġexceed s
horizontal Layout
support s
M icro
inter active
replic as
ĠTrans action
Ġf lo
inter action
ĠJ S
Re gression
ativ istic
our i
Ġrot ated
Ġ ĠĠĠĠĠĠĠĠĠĠĠĠĠĠĠĠĠĠĠĠĠĠĠĠĠĠĠĠĠĠĠĠĠĠĠĠĠĠĠĠĠĠĠĠĠĠĠĠĠĠĠĠĠĠĠĠĠĠĠĠĠĠĠĠĠĠĠĠĠĠĠĠĠĠĠĠĠĠĠĠĠĠĠĠĠĠĠĠĠĠĠĠĠĠĠĠĠĠĠĠĠĠĠĠĠĠĠĠĠĠĠĠĠĠĠĠĠĠĠĠĠĠĠĠĠĠĠĠĠĠĠĠĠĠĠĠĠĠĠĠĠĠĠĠĠĠĊĠ
Ġcle avage
S elf
Ġfix ation
down arrow
p ct
Ġpublic ations
w ild
Ar n
exp lo
R X
Ġnic ht
ense mble
Ġ( ).
Ġ ĠĠĠĠĠĠĠĠĠĠĠĠĠĠĠĠĠĠĠĠĠĠĠĠĠĠĠĠĠĠĠĠĠĠĠĠĠĠĠĠĠĠĠĠĠĠĠĠĠĠĠĠĠĠĠĠĠĠĠĠĠĠĠĊĊĠ
Ñģ Ñı
FF ER
ĠP sy
per ms
set Style
mark ers
Ġerrone ous
t ill
Ġbio logy
dial ect
App ly
Ġs keletal
Ġre write
font size
ĠAdmin istration
Ġtend ency
č ĊĠĠĠĠĠĠĠĠĠĠĠĠĠĠĠĠ
Ġ0 5
Ġfocus ing
R U
čĊč ĊĠ
Ġport al
w c
Ġfol ders
ĠWith in
Ġint el
AS C
ben ch
A VA
ĠEL ISA
ç Ĳ
ard own
ĠP P
H uman
built ins
similar ity
ĠNa Cl
Capt ure
code c
Ġunit ary
34 9
Ġth ro
Ġwas n
Ġwrit es
Ġmammal ian
âĢĿ .
ma de
ig est
04 8
QL abel
ĠB M
ing e
ENT IAL
æ± Ĥ
Ġnur sing
U X
Wh ite
Ġ1 74
Ġplan ar
R s
D irection
Ġxy z
work s
Ġ[' _
Ġs ib
67 8
wh itespace
Ïĥ Î·
ĠS ESSION
Hy per
ĠS B
v g
t ro
Ġconst itution
C iv
Ġsuper conduct
on ym
od er
Ġexc ited
b illing
ozyg ous
', )
G l
SK IP
Ġdis close
Te ch
GR APH
al location
Ġg nome
Ġcas cade
U i
R ank
Ïī Î½
ĠUn ivers
uplic ate
x or
Ġ\ _
ĠLew is
Ġde veloper
ĠProb lem
ĠHarr is
ĊĠĠĠĠĠĠĠĠĠĠĠĠĠĠĠĠĠĠĠĠĠĠĠĠĠĠĠĠĠĠĠĠĠĠĠĠĠĠĠĠĠĠĠĠĠĠĠĠĠĠĠĠĠĠĠĠĠĠĠĠĠĠĠĠĠĠĠĠĠĠĠĠĠĠĠĠĠĠĠĠĠĠĠĠĠĠĠĠĠĠĠĠĠĠĠĠĠĠĠĠĠĠĠĠĠĠĠĠĠĠĠĠĠĠĠĠĠĠĠĠĠĠĠĠĠĠĠĠĠĠĠĠĠĠĠĠĠĠĠĠĠĠĠĠĠĠĠĠĠĠĠĠĠĠĠĠĠĠĠĠĠĠĠĠĠĠĠ Ġ
il ly
app le
IGN ORE
Ġb ip
oph y
Ġv ital
Ġ ĠĠĠĠĠĠĠĠĠĠĠĠĠĠĠĠĠĠĠĠĠĠĠĠĠĠĠĠĠĠĠĠĠĠĠĠĠĠĠĠĠĠĠĠĠĠĠĠĠĠĠĠĠĠĠĠĊĠĠ
ĠLo op
ĠTrans port
MEDI A
Ġ ĠĠĠĠĠĠĠĠĠĠĠĠĠĠĠĠĠĠĠĠĠĠĠĠĠĠĠĠĠĠĠĠĠĠĠĠĠĠĠĠĠĠĠĠĠĠĠĠĠĠĠĠĠĠĠĠĠĠĠĠĠĠĠĠĊĊĠ
Ġ` (
Ġcl ones
ĠG ib
Ġsw itches
Ġmal aria
ĠDo uble
Ġp ist
sent ences
CON ST
ĠC AP
Ġ' '),
Ġmet als
-------- ----
end a
Ġple ad
Error Format
Ġdesc ent
qui et
ĠComple x
Ġir regular
E nergy
å ±
Ġc k
ĠT ai
Ġcorrespond ence
Ġdetect able
Ġ ĠĠĠĠĠĠĠĠĠĠĠĠĠĠĠĠĠĠĠĠĠĠĠĠĠĠĠĠĠĠĠĠĠĠĠĠĠĠĠĠĠĠĠĠĠĠĠĠĠĠĠĠĠĠĠĠĠĠĠĠĠĠĠĠĠĠĠĠĠĠĠĠĠĠĠĠĠĠĠĠĠĠĠĠĠĠĠĠĠĠĠĠĠĠĠĠĠĠĠĠĠĠĠĠĠĠĠĠĠĠĠĠĠĠĠĠĠĠĠĠĠĠĠĠĠĠĠĠĠĠĠĠĠĠĠĠĠĠĠĠĠĠĠĠĠĠĠĊĠ
Ġhydro ph
Ġposition ing
CHECK ING
ĠNet herlands
ch apter
Ġrev ised
Ġdisadvan tage
Ġdis sent
Ġs b
_ ='
cand le
pnt d
ĠR C
Ġconduct ing
s copes
aa a
ĠS igma
Ġcirc ulating
fast a
B ATCH
zon a
Ġt id
P aged
em an
stra ined
doc string
ne a
Col umns
consist ency
Ġinter views
Ġla unched
ol ip
Ġpro jections
Ġgdal test
ĠC apt
64 6
i omy
Ġillustr ates
ĠDate Time
recogn ized
Ġ__ _
ĠI reland
imm une
itone al
) }_
anim ation
Ġpartners hip
MO S
ĠD u
Ġdestroy ed
ĠS n
de part
Ġover flow
MP TY
Experim ent
Ġinj unction
Ġv apor
Ġvalid ators
W L
not ag
Ġisol ate
ata se
m se
Ġk lass
ĠOUT PUT
Ġir reducible
Ġ[ ['
fore cast
ĠOb serv
Ġvi able
HttpResponse Error
ran gian
Ġdemand s
phil ic
ch k
Ð¾ Ð½
Ġinterpre ter
ĠS aint
embed s
4 95
ĠÂµ g
Ġ15 7
] ].
ĠAl bert
NP s
G PL
FA CT
ĠT ake
ĠB ru
Ġa a
Ġ7 00
" ?
Ġco ated
Quant ity
t im
Ġ( +
ins um
Ġmedic ations
ĠM Hz
sp ent
æĸĩ ä»¶
desc r
Ġen abling
ĠDem oc
Ġ19 68
Ġ ĠĠĠĠĠĠĠĠĠĠĠĠĠĠĊ
}) }
ä» ¥
mod al
70 9
me ters
80 9
Ġ ĠĠĠĠĠĠĠĠĠĠĠĠĠĠĠĠĠĠĠĠĠĠĠĠĠĠĠĠĠĠĠĠĠĠĠĠĠĠĠĠĠĠĠĠĠĠĠĠĠĠĠĠĠĠĠĠĠĠĠĠĠĠĠĠĠĊĊĠ
Ġp ivot
qual ified
T urn
^ /
Ġop ens
Ġlo se
ĊĠĠĠĠĠĠĠĠĠĠĠĠĠĠĠĠĠĠĠĠĠĠĠĠĠĠĠĠĠĠĠĠĠĠĠĠĠĠĠĠĠĠĠĠĠĠĠĠĠĠĠĠĠĠĠĠĠĠĠĠĠĠĠĠĠĠĠĠĠĠĠĠĠĠĠĠĠĠĠĠĠĠĠĠĠĠĠĠĠĠĠĠĠĠĠĠĠĠĠĠĠĠĠĠĠĠĠĠĠĠĠĠĠĠĠĠĠĠĠĠĠĠĠĠĠĠĠĠĠĠĠĠĠĠĠĠĠĠĠĠĠĠĠĠĠĠĠĠĠĠĠĠĠĠĠĠĠĠĠĠĠĠĠĠĠĠĠĠ Ġ
ĠPO INTER
\ }$,
Ġra ising
Ġstri ke
Ġcontra ction
Ġant igens
88 8
Ġmono clonal
al ph
Ġdischarg ed
Ġobserv ational
ĠComp ared
Ġqu art
ĠS plit
ar ms
Ġsp ine
T yp
qu er
Ġmac ros
Ġre boot
in variant
sl ide
ber ry
(" .")
Ġadhes ive
i mag
oc cup
M ASK
Ġsent enced
ero ids
an other
Ġmm ol
36 7
ĠInd iana
æľ ¬
ĠEv idence
Ġra m
Ġv ice
Ġcryst als
sp am
Ġmitochond ria
Ġtext s
appropri ate
key board
ĠDe ep
rel ay
equ ation
' [
Ġped iatric
ENABLE D
s ales
Ġimmun ohist
Ġaccum ulated
pad ded
S y
Ġreal ity
P ART
Ġ ĠĠĠĠĠĠĠĠĠĠĠĠĠĠĠĠĠĠĠĠĠĠĠĠĠĠĠĠĠĠĠĠĠĠĠĠĠĠĠĠĠĠĠĠĠĠĠĠĠĠĠĠĠĠĠĠĠĠĠĠĠĠĠĠĠĠĠĠĠĠĠĠĠĠĠĠĠĠĠĠĠĠĠĠĠĠĠĠĠĠĠĠĠĠĠĠĠĠĠĠĠĠĠĠĠĠĠĠĠĠĠĠĠĠĠĠĠĠĠĠĠĠĠĠĠĠĠĠĠĠĠĠĠĠĠĠĠĠĠĠĠĠĠĠĠĠĠĠĊĠ
$ {\
Ġ ĠĠĠĠĠĠĠĠĠĠĠĠĠĠĠĠĠĠĠĠĠĠĠĠĠĠĠĠĠĠĠĠĠĠĠĠĠĠĠĠĠĠĠĠĠĠĠĠĠĠĠĠĠĠĠĠĠĊĠĠ
Ġadjust ing
ĠDebt or
ĠClient AuthenticationError
sens itivity
ĠC IR
war ded
Ġs kew
ut ely
^âĪĴ /âĪĴ
Ġst ip
L ab
Ġco herent
19 74
La unch
Iter able
âĢ ł
c ation
ĠDeter min
plas ia
al ready
ĠS alt
ĠAp J
ĠM useum
acter ial
H orizontal
A cc
Ġhy dra
en et
Ġ ather
f at
Ġz inc
PROC ESS
] '},
Ġw aiver
Ġabund ant
Ġch ick
Ġcode cs
j c
start up
ĠPr ice
ĠDis cussion
Ġ0 4
Ġcl oned
3 55
oper and
ĠUn known
Ġa ortic
Ġcoll ateral
Ġ3 20
Ġcyto metry
vas ive
ĠDirect ory
Ã Ĥ
Ġslow ly
H G
ĠMo ore
Ġexpert s
orand um
G aussian
Ġg uitar
ĠKey board
Ġaware ness
Ġ""" \
ĠF P
[...]
