{"<|endoftext|>":0,"!":1,"\"":2,"#":3,"$":4,"%":5,"&":6,"'":7,"(":8,")":9,"*":10,"+":11,",":12,"-":13,".":14,"/":15,"0":16,"1":17,"2":18,"3":19,"4":20,"5":21,"6":22,"7":23,"8":24,"9":25,":":26,";":27,"<":28,"=":29,">":30,"?":31,"@":32,"A":33,"B":34,"C":35,"D":36,"E":37,"F":38,"G":39,"H":40,"I":41,"J":42,"K":43,"L":44,"M":45,"N":46,"O":47,"P":48,"Q":49,"R":50,"S":51,"T":52,"U":53,"V":54,"W":55,"X":56,"Y":57,"Z":58,"[":59,"\\":60,"]":61,"^":62,"_":63,"`":64,"a":65,"b":66,"c":67,"d":68,"e":69,"f":70,"g":71,"h":72,"i":73,"j":74,"k":75,"l":76,"m":77,"n":78,"o":79,"p":80,"q":81,"r":82,"s":83,"t":84,"u":85,"v":86,"w":87,"x":88,"y":89,"z":90,"{":91,"|":92,"}":93,"~":94,"¡":95,"¢":96,"£":97,"¤":98,"¥":99,"¦":100,"§":101,"¨":102,"©":103,"ª":104,"«":105,"¬":106,"®":107,"¯":108,"°":109,"±":110,"²":111,"³":112,"´":113,"µ":114,"¶":115,"·":116,"¸":117,"¹":118,"º":119,"»":120,"¼":121,"½":122,"¾":123,"¿":124,"À":125,"Á":126,"Â":127,"Ã":128,"Ä":129,"Å":130,"Æ":131,"Ç":132,"È":133,"É":134,"Ê":135,"Ë":136,"Ì":137,"Í":138,"Î":139,"Ï":140,"Ð":141,"Ñ":142,"Ò":143,"Ó":144,"Ô":145,"Õ":146,"Ö":147,"×":148,"Ø":149,"Ù":150,"Ú":151,"Û":152,"Ü":153,"Ý":154,"Þ":155,"ß":156,"à":157,"á":158,"â":159,"ã":160,"ä":161,"å":162,"æ":163,"ç":164,"è":165,"é":166,"ê":167,"ë":168,"ì":169,"í":170,"î":171,"ï":172,"ð":173,"ñ":174,"ò":175,"ó":176,"ô":177,"õ":178,"ö":179,"÷":180,"ø":181,"ù":182,"ú":183,"û":184,"ü":185,"ý":186,"þ":187,"ÿ":188,"Ā":189,"ā":190,"Ă":191,"ă":192,"Ą":193,"ą":194,"Ć":195,"ć":196,"Ĉ":197,"ĉ":198,"Ċ":199,"ċ":200,"Č":201,"č":202,"Ď":203,"ď":204,"Đ":205,"đ":206,"Ē":207,"ē":208,"Ĕ":209,"ĕ":210,"Ė":211,"ė":212,"Ę":213,"ę":214,"Ě":215,"ě":216,"Ĝ":217,"ĝ":218,"Ğ":219,"ğ":220,"Ġ":221,"ġ":222,"Ģ":223,"ģ":224,"Ĥ":225,"ĥ":226,"Ħ":227,"ħ":228,"Ĩ":229,"ĩ":230,"Ī":231,"ī":232,"Ĭ":233,"ĭ":234,"Į":235,"į":236,"İ":237,"ı":238,"Ĳ":239,"ĳ":240,"Ĵ":241,"ĵ":242,"Ķ":243,"ķ":244,"ĸ":245,"Ĺ":246,"ĺ":247,"Ļ":248,"ļ":249,"Ľ":250,"ľ":251,"Ŀ":252,"ŀ":253,"Ł":254,"ł":255,"Ń":256,"ĊĠ":257,"ĊĠĠ":258,"ĊĠĠĠ":259,"in":260,"Ġt":261,"er":262,"on":263,"at":264,"ĊĠĠĠĠ":265,"ĊĠĠĠĠĠ":266,"ĊĠĠĠĠĠĠ":267,"ĊĠĠĠĠĠĠĠ":268,"re":269,"Ġa":270,"se":271,"he":272,"or":273,"en":274,"st":275,"al":276,"Ġc":277,"Ġthe":278,"--":279,"it":280,"le":281,"de":282,"ion":283,"ĊĠĠĠĠĠĠĠĠ":284,"ar":285,"ĊĠĠĠĠĠĠĠĠĠ":286,"ĊĠĠĠĠĠĠĠĠĠĠ":287,"an":288,"ĊĠĠĠĠĠĠĠĠĠĠĠ":289,"Ġp":290,"Ġo":291,"Ġf":292,"Ġ=":293,"ro":294,"Ġs":295,"Ġin":296,"is":297,"me":298,"ic":299,"Ġw":300,"ed":301,"ing":302,"ct":303,"Ġb":304,"es":305,"Ġre":306,"Ġof":307,"Ġan":308,"sel":309,"self":310,"ent":311,"Ġn":312,"ut":313,"Ġm":314,"Ġd":315,"ur":316,"as":317,"Ġe":318,"----":319,"lo":320,"ĊĠĠĠĠĠĠĠĠĠĠĠĠ":321,"mp":322,"ĊĠĠĠĠĠĠĠĠĠĠĠĠĠ":323,"Ġto":324,"et":325,"ĊĠĠĠĠĠĠĠĠĠĠĠĠĠĠ":326,"ĊĠĠĠĠĠĠĠĠĠĠĠĠĠĠĠ":327,"Ġand":328,"Ġi":329,"Ġ(":330,"un":331,"Ġ\"":332,"ra":333,"ig":334,"ce":335,"ot":336,"Ġde":337,"Ġ'":338,"ul":339,"Ġself":340,"Ġth":341,"id":342,"il":343,"pe":344,"ation":345,"ol":346,"ve":347,"Ġis":348,"Ġh":349,"ch":350,"ate":351,"ĠT":352,"Ġ1":353,"Ġfor":354,"ue":355,"ame":356,"Ġl":357,"ad":358,"ge":359,"):":360,"Ġg":361,"##":362,"us":363,"um":364,"ab":365,"==":366,"Ġst":367,"el":368,"co":369,"Ġv":370,"ter":371,"ri":372,"ss":373,"ĊĠĠĠĠĠĠĠĠĠĠĠĠĠĠĠĠ":374,"th":375,"00":376,"Ġco":377,"ĊĠĠĠĠĠĠĠĠĠĠĠĠĠĠĠĠĠ":378,"ist":379,"ort":380,"ly":381,"Ġcon":382,"ĠS":383,"ĊĠĠĠĠĠĠĠĠĠĠĠĠĠĠĠĠĠĠ":384,"ĠC":385,"ith":386,"up":387,"',":388,"te":389,"ck":390,"ĊĠĠĠĠĠĠĠĠĠĠĠĠĠĠĠĠĠĠĠ":391,"ĠA":392,"if":393,"--------":394,"Ġ#":395,"ver":396,"()":397,"ma":398,"Ġif":399,"pt":400,"ĠI":401,"ĊĊĠĠĠ":402,"Ġ-":403,"one":404,"Ġbe":405,"rom":406,"am":407,"qu":408,"Ġ2":409,"Ġ$":410,"ir":411,"im":412,"Ġse":413,"ction":414,"Ġ[":415,"Ġwith":416,"Ġex":417,"urn":418,"Ġdef":419,"\"\"":420,"Ġ\\":421,"),":422,"ĠN":423,"ata":424,"ass":425,"Ġpro":426,"ty":427,"ath":428,"ode":429,"Ġthat":430,"Ġ0":431,"ile":432,"ay":433,"od":434,"\",":435,"ment":436,"iz":437,"ĠP":438,"ult":439,"Ġ+":440,"ow":441,"Ġas":442,"con":443,"ap":444,"int":445,"turn":446,"__":447,"ase":448,"ran":449,"cl":450,"ĠF":451,"name":452,"Ġnot":453,"ure":454,"Ġor":455,"ĊĠĠĠĠĠĠĠĠĠĠĠĠĠĠĠĠĠĠĠĠ":456,"ers":457,"end":458,"Ġal":459,"**":460,"ub":461,"ke":462,"ere":463,"ert":464,"ĊĠĠĠĠĠĠĠĠĠĠĠĠĠĠĠĠĠĠĠĠĠ":465,"Ġreturn":466,"ĠM":467,"get":468,"Ġon":469,"ect":470,"Ġ{":471,"ĊĠĠĠĠĠĠĠĠĠĠĠĠĠĠĠĠĠĠĠĠĠĠ":472,"mport":473,"ĊĊĠĠĠĠĠĠĠ":474,"ht":475,"ta":476,"able":477,"ĊĠĠĠĠĠĠĠĠĠĠĠĠĠĠĠĠĠĠĠĠĠĠĠ":478,"Ġme":479,"ex":480,"os":481,"ity":482,"))":483,"ĠD":484,"ive":485,"ime":486,"to":487,"est":488,"and":489,"use":490,"Ġres":491,"('":492,"####":493,"====":494,"ĠL":495,"orm":496,"ine":497,"pl":498,"ĠR":499,"ial":500,"':":501,"ĠThe":502,"art":503,"iv":504,"nt":505,").":506,"Ġby":507,"Ġwh":508,"],":509,"res":510,"ant":511,"ces":512,"age":513,"Ġit":514,"om":515,"der":516,"val":517,"ated":518,"per":519,"set":520,"Ġr":521,"ag":522,"Ġlo":523,"type":524,"pro":525,"(\"":526,"Ġat":527,"ĠB":528,"Ġ\"\"\"":529,"put":530,"em":531,"Ġ3":532,"str":533,"ight":534,"ĊĊ":535,"ph":536,"ew":537,"out":538,"ff":539,"ĠE":540,"{\\":541,"Ġare":542,"all":543,"ies":544,"ore":545,"Ġfrom":546,"Ġ*":547,"ption":548,"')":549,"gs":550,"ĊĠĠĠĠĠĠĠĠĠĠĠĠĠĠĠĠĠĠĠĠĠĠĠĠ":551,"ib":552,"----------------":553,"par":554,"ĠH":555,"Ġy":556,"ict":557,"our":558,"ac":559,"odel":560,"po":561,"01":562,"Ġwas":563,"rue":564,"ĠW":565,"ack":566,"ĊĠĠĠĠĠĠĠĠĠĠĠĠĠĠĠĠĠĠĠĠĠĠĠĠĠ":567,"âĢ":568,"red":569,"._":570,"Ġun":571,"Ġimport":572,"ip":573,"Ġsh":574,"['":575,"ĠO":576,"Ġ:":577,"mple":578,"Ġthis":579,"ĠG":580,"ĊĠĠĠĠĠĠĠĠĠĠĠĠĠĠĠĠĠĠĠĠĠĠĠĠĠĠ":581,"']":582,"Ġch":583,"\")":584,"form":585,"fig":586,"from":587,"ject":588,"ror":589,"ĠNone":590,"tr":591,"sc":592,"ĊĠĠĠĠĠĠĠĠĠĠĠĠĠĠĠĠĠĠĠĠĠĠĠĠĠĠĠ":593,"act":594,"op":595,"ds":596,"ize":597,"\":":598,"oc":599,"ance":600,"Ġ==":601,"ens":602,"=\"":603,"ition":604,"Ġel":605,"que":606,"ical":607,"ice":608,"def":609,"ign":610,"ud":611,"Ġval":612,"ave":613,"ient":614,"ide":615,"Ġcl":616,"ug":617,"Ġhe":618,"data":619,"ser":620,"du":621,"oun":622,"ory":623,"Ġwe":624,"xt":625,"Ġ4":626,"low":627,"_{":628,"Ġar":629,"ill":630,"key":631,"Ġle":632,"Ġpre":633,"Ġstr":634,"ary":635,"path":636,"Ġass":637,"fer":638,"Ġk":639,"Ġad":640,"ob":641,"pre":642,"mm":643,"Âł":644,"ype":645,"ence":646,"ĠU":647,"ich":648,"are":649,"Ġap":650,"ise":651,"ĠIn":652,"Ġtest":653,"}}":654,"Ġdata":655,"Ġma":656,"ations":657,"ust":658,"Ġuse":659,"iel":660,"file":661,"ind":662,"ace":663,"io":664,"ast":665,"ĊĠĠĠĠĠĠĠĠĠĠĠĠĠĠĠĠĠĠĠĠĠĠĠĠĠĠĠĠ":666,"Ġ_":667,"ĉĉ":668,"Ġcomp":669,"Ġj":670,"Ġ5":671,"..":672,"alse":673,"In":674,"port":675,"mb":676,"pon":677,"ord":678,"ĊĠĠĠĠĠĠĠĠĠĠĠĠĠĠĠĠĠĠĠĠĠĠĠĠĠĠĠĠĠ":679,"rib":680,"Ġcan":681,"cess":682,"ork":683,"ang":684,"ell":685,"Ġus":686,"sh":687,"rans":688,"log":689,"cre":690,"])":691,"Ġx":692,"ry":693,"ard":694,"Ġen":695,"cal":696,"ost":697,"Ġob":698,"ĊĠĠĠĠĠĠĠĠĠĠĠĠĠĠĠĠĠĠĠĠĠĠĠĠĠĠĠĠĠĠ":699,"ll":700,"ther":701,"roup":702,"ite":703,"app":704,"########":705,"ys":706,"add":707,"ire":708,"ome":709,"min":710,"Ġout":711,"tra":712,"text":713,"quest":714,"Ġpar":715,"Ġwere":716,"test":717,"========":718,"ĊĠĠĠĠĠĠĠĠĠĠĠĠĠĠĠĠĠĠĠĠĠĠĠĠĠĠĠĠĠĠĠ":719,"uld":720,"='":721,"args":722,"10":723,"Ġ%":724,"Ġwhich":725,"ep":726,"Ġname":727,"Ġ)":728,"Ġpl":729,"ft":730,"class":731,"ule":732,"unt":733,"].":734,"Ġhave":735,"ĠTh":736,"Ġdo":737,"Ġne":738,"bo":739,"ded":740,"py":741,"atch":742,"vent":743,"math":744,"che":745,"rint":746,"Ġelse":747,"av":748,"pec":749,"Ġ$\\":750,"ĠV":751,"sion":752,"Ġdis":753,"ener":754,"Ġac":755,"ext":756,"unction":757,"[@":758,"ator":759,"Ġresult":760,"ms":761,"ER":762,"pect":763,"ates":764,"Ġra":765,"Ġper":766,"Ġset":767,"ault":768,"True":769,"we":770,"so":771,"ample":772,"Ġro":773,"12":774,"assert":775,"Ġcont":776,"umb":777,"import":778,"'s":779,"Ġtime":780,"ific":781,"Ġfile":782,"hen":783,"mo":784,"ield":785,"Ġ<":786,"gra":787,"qual":788,"fo":789,"ain":790,"ix":791,"ĊĠĠĠĠĠĠĠĠĠĠĠĠĠĠĠĠĠĠĠĠĠĠĠĠĠĠĠĠĠĠĠĠ":792,"Ġget":793,"ia":794,"ref":795,"lect":796,"rror":797,"},":798,"Ġsub":799,"ource":800,"own":801,"Ġ@":802,"[\"":803,"}$":804,"ree":805,"ute":806,"ĠJ":807,"param":808,"dex":809,"abel":810,"Ġhas":811,"Ġ6":812,"ou":813,"Error":814,"ual":815,"Ġassert":816,"list":817,"ong":818,"ument":819,"Ġmodel":820,"ne":821,"ues":822,"ĊĠĠĠĠĠĠĠĠĠĠĠĠĠĠĠĠĠĠĠĠĠĠĠĠĠĠĠĠĠĠĠĠĠ":823,"ponse":824,"ould":825,"sed":826,"19":827,"Ġinter":828,"IN":829,"ied":830,"ray":831,"ON":832,"vice":833,"Ġsu":834,"time":835,"Ġall":836,"ps":837,"col":838,"thod":839,"^{":840,"fra":841,"Ġ`":842,"ask":843,"ns":844,"ach":845,"ĊĠĠĠĠĠĠĠĠĠĠĠĠĠĠĠĠĠĠĠĠĠĠĠĠĠĠĠĠĠĠĠĠĠĠ":846,"Ġsy":847,"ec":848,"sent":849,"11":850,"//":851,"ings":852,"ari":853,"Ġvalue":854,"ors":855,"Ġcol":856,"date":857,"ild":858,"None":859,"umber":860,"iew":861,"ger":862,"tain":863,"ound":864,"Ġno":865,"ative":866,"mpl":867,"ses":868,"error":869,"ions":870,"ĊĠĠĠĠĠĠĠĠĠĠĠĠĠĠĠĠĠĠĠĠĠĠĠĠĠĠĠĠĠĠĠĠĠĠĠ":871,"ape":872,"20":873,"value":874,"Con":875,"ĠK":876,"ak":877,"ress":878,"AT":879,"Ġsup":880,"Ġup":881,"model":882,"Ġpart":883,"cept":884,"ok":885,"Ġnp":886,"oth":887,"cur":888,"ature":889,"size":890,"mage":891,"The":892,"Ġtype":893,"line":894,"\"\"\"":895,"Re":896,"Ġab":897,"Ġ&":898,"ES":899,"Ġ19":900,"Ġpo":901,"url":902,"og":903,"\"]":904,"ann":905,"ick":906,"init":907,"}\\":908,"ameter":909,"Ġwill":910,"Ġ__":911,"led":912,"Ġran":913,"len":914,"Ġint":915,"Ġdif":916,"ery":917,"--------------------------------":918,"stance":919,"Ġprint":920,"for":921,"Ġ>":922,"Ġtrans":923,"Ġ7":924,"Ġlist":925,"read":926,"ail":927,"ater":928,"Ġso":929,"Ġte":930,"vel":931,"Ġser":932,"Ġone":933,"son":934,"nd":935,"row":936,"Ġlen":937,"Ġbut":938,"Ġfunction":939,"ĊĠĠĠĠĠĠĠĠĠĠĠĠĠĠĠĠĠĠĠĠĠĠĠĠĠĠĠĠĠĠĠĠĠĠĠĠ":940,"irst":941,"igh":942,"dict":943,"Ġ}":944,"ĠTrue":945,"Ġ8":946,"Ġnew":947,"ateg":948,"right":949,"stem":950,"format":951,"Ġadd":952,"Ġ10":953,"yn":954,"config":955,"sp":956,"lock":957,"work":958,"Ġact":959,"ark":960,"čĊ":961,"](":962,"dir":963,"Ġlog":964,"ie":965,".,":966,"odule":967,"Ġ**":968,"čĊĠĠĠĠĠĠĠ":969,"ĠThis":970,"Ġother":971,"count":972,"32":973,"append":974,"Ġcomm":975,"Ġtra":976,"uct":977,"ution":978,"ved":979,"load":980,"Ġreg":981,"atus":982,"Ġspec":983,"Ġbet":984,"tt":985,"ĊĠĠĠĠĠĠĠĠĠĠĠĠĠĠĠĠĠĠĠĠĠĠĠĠĠĠĠĠĠĠĠĠĠĠĠĠĠ":986,"ular":987,"Ġ\\[":988,"med":989,"Ġcell":990,"user":991,"Ġrel":992,"arg":993,"main":994,"AR":995,"code":996,"Ġqu":997,"ments":998,"und":999,"Ġdist":1000,"scri":1001,"Ġform":1002,"wo":1003,"ĠFalse":1004,"ink":1005,"16":1006,"lic":1007,"Ġused":1008,"its":1009,"Ġmo":1010,"Ġid":1011,"enc":1012,"False":1013,"Ġyou":1014,"000":1015,"Ġalso":1016,"Ġag":1017,"15":1018,"Ġos":1019,"rent":1020,"OR":1021,"pos":1022,"Ġ.":1023,"arch":1024,"ĊĠĠĠĠĠĠĠĠĠĠĠĠĠĠĠĠĠĠĠĠĠĠĠĠĠĠĠĠĠĠĠĠĠĠĠĠĠĠ":1025,"Ġsign":1026,"Ġthere":1027,"Ġwhen":1028,"uth":1029,"arget":1030,"EN":1031,"Ġ9":1032,"){":1033,"Ġpat":1034,"25":1035,"inal":1036,"ffect":1037,"ef":1038,"Ġunder":1039,"heck":1040,"ating":1041,"ense":1042,"ugh":1043,"Ġmay":1044,"sub":1045,"ST":1046,"Ġcur":1047,"Ġdiffer":1048,"ssion":1049,"fter":1050,"da":1051,"ased":1052,"Ġstud":1053,"{}":1054,"Ċĉĉ":1055,"13":1056,"label":1057,"irect":1058,"Ġany":1059,"gth":1060,"fl":1061,"ility":1062,"Ġop":1063,"ĊĠĠĠĠĠĠĠĠĠĠĠĠĠĠĠĠĠĠĠĠĠĠĠĠĠĠĠĠĠĠĠĠĠĠĠĠĠĠĠ":1064,"net":1065,"ax":1066,"info":1067,"ause":1068,"Ġkey":1069,"Ġz":1070,"plic":1071,"IT":1072,"__(":1073,"amb":1074,"14":1075,"clu":1076,"([":1077,"wargs":1078,"Ġonly":1079,"ced":1080,"ics":1081,"Ġcase":1082,"():":1083,"Ġraise":1084,"Ġusing":1085,"ĠSt":1086,"ml":1087,"rit":1088,"\"}":1089,"Equal":1090,"comp":1091,"ull":1092,"ween":1093,"(\\":1094,"ices":1095,"hat":1096,"Ġ[@":1097,"ian":1098,"Ġfol":1099,"čĊĠĠĠ":1100,"ĊĊĠĠĠĠĠĠĠĠĠĠĠ":1101,"Ċĉ":1102,"://":1103,"Ġgroup":1104,"################":1105,"Ġph":1106,"Ġcor":1107,"Ġ/":1108,"Ġsp":1109,"ines":1110,"ized":1111,"Ġprov":1112,"action":1113,"les":1114,"ins":1115,"max":1116,"Ġclass":1117,"ilter":1118,"Ġgener":1119,"fe":1120,"Ġover":1121,"util":1122,"ssage":1123,"Ġbetween":1124,"Ġmethod":1125,"Ġpath":1126,"lot":1127,"18":1128,"yp":1129,"ception":1130,"loat":1131,"qui":1132,"Ġind":1133,"St":1134,"input":1135,"jo":1136,"::":1137,"Ġbeen":1138,")$":1139,"ĠCon":1140,"cent":1141,"Ġnumber":1142,"mis":1143,"Ġthan":1144,"Ġline":1145,"ible":1146,"Ġtwo":1147,"group":1148,"Ġsuch":1149,"Ġman":1150,"rite":1151,"ache":1152,"Ġmore":1153,"ĊĠĠĠĠĠĠĠĠĠĠĠĠĠĠĠĠĠĠĠĠĠĠĠĠĠĠĠĠĠĠĠĠĠĠĠĠĠĠĠĠ":1154,"array":1155,"64":1156,"not":1157,"be":1158,"Ex":1159,"ars":1160,"ding":1161,"li":1162,"index":1163,"ning":1164,"Ġdefault":1165,"duct":1166,"back":1167,"pend":1168,"SE":1169,"Ġ|":1170,"Ġfirst":1171,"Ġinput":1172,"cont":1173,"]\\":1174,"Ġwork":1175,"Ġbo":1176,"ify":1177,"node":1178,"17":1179,"Ġuser":1180,"item":1181,"ents":1182,"Pro":1183,"](#":1184,"ified":1185,"ĠRe":1186,"ĠSe":1187,"Ġu":1188,"state":1189,"tern":1190,"assertEqual":1191,"ted":1192,"LE":1193,"the":1194,"ren":1195,"com":1196,"rol":1197,"ous":1198,"ensor":1199,"Ġoutput":1200,"map":1201,"AN":1202,"comm":1203,"Ġhigh":1204,"Ġcre":1205,"ategory":1206,"point":1207,"frac":1208,"Ġeach":1209,"pr":1210,"no":1211,"201":1212,"Ġwhere":1213,"ayer":1214,"by":1215,"ange":1216,"24":1217,"Ġstate":1218,"ho":1219,"cord":1220,"99":1221,"Ġobject":1222,"ĊĠĠĠĠĠĠĠĠĠĠĠĠĠĠĠĠĠĠĠĠĠĠĠĠĠĠĠĠĠĠĠĠĠĠĠĠĠĠĠĠĠ":1223,"Ġresponse":1224,"Ġshould":1225,"Ġtry":1226,"ameters":1227,"Ġcons":1228,"ID":1229,"view":1230,"AL":1231,"lement":1232,"_{\\":1233,"Ġfact":1234,"ĠUn":1235,"Ġpri":1236,"ess":1237,"Ġev":1238,"Ġsome":1239,"Ġ{}":1240,"Ġli":1241,"Ġrequest":1242,"Ġpos":1243,"RE":1244,"ld":1245,"object":1246,"left":1247,"Ġfollow":1248,"reg":1249,"ients":1250,"Ġits":1251,"man":1252,"old":1253,"Ġent":1254,"50":1255,"ambda":1256,"with":1257,"Ġshow":1258,"ĠWe":1259,"aw":1260,"30":1261,"ose":1262,"over":1263,"Ġconfig":1264,"Ġpol":1265,"ization":1266,"Ġelif":1267,"ish":1268,"start":1269,"cond":1270,"''":1271,"Ġinto":1272,"db":1273,"ron":1274,"Ġ[]":1275,"Ġmin":1276,"Ġsystem":1277,"fore":1278,"ious":1279,"orch":1280,"================":1281,"Ġfl":1282,"instance":1283,"ined":1284,"ptions":1285,"Ġ->":1286,"âĢī":1287,"0000":1288,"Ġend":1289,"Ġ+=":1290,"num":1291,"ader":1292,"als":1293,"NA":1294,"ĊĠĠĠĠĠĠĠĠĠĠĠĠĠĠĠĠĠĠĠĠĠĠĠĠĠĠĠĠĠĠĠĠĠĠĠĠĠĠĠĠĠĠ":1295,"ider":1296,"'),":1297,"Type":1298,"Ġarg":1299,"ts":1300,"ait":1301,"loc":1302,"$\\":1303,"ribut":1304,");":1305,"lp":1306,"bu":1307,"output":1308,"shape":1309,"Ġrange":1310,"22":1311,"perty":1312,"Name":1313,"Ġanal":1314,"ges":1315,"Ġthese":1316,"pected":1317,"ersion":1318,"Ġerror":1319,"}{":1320,"run":1321,"ĠQ":1322,"Ġpy":1323,"ĠY":1324,"Ġsc":1325,"ump":1326,"Ġfe":1327,"ariable":1328,"(-":1329,"result":1330,"dd":1331,"Ġprob":1332,"mat":1333,"ĠIf":1334,"Ġexcept":1335,"Ġ201":1336,"version":1337,"ays":1338,"icense":1339,"Ġbu":1340,"cle":1341,"Ġtheir":1342,"dom":1343,"CT":1344,"Ġ\\[[@":1345,"valid":1346,"Ġafter":1347,"Ġ('":1348,"Ġcheck":1349,".__":1350,"pi":1351,"eta":1352,"ĊĠĠĠĠĠĠĠĠĠĠĠĠĠĠĠĠĠĠĠĠĠĠĠĠĠĠĠĠĠĠĠĠĠĠĠĠĠĠĠĠĠĠĠ":1353,"imit":1354,"Ġthen":1355,"Ġorder":1356,"join":1357,"pack":1358,"annel":1359,"tal":1360,"'t":1361,"pha":1362,"Ġdifferent":1363,"80":1364,"scription":1365,"())":1366,"gr":1367,"ton":1368,"Ġeffect":1369,"htt":1370,"Ġmax":1371,"ctions":1372,"ash":1373,"Ġcour":1374,"Res":1375,"clude":1376,"trans":1377,"plit":1378,"alue":1379,"rm":1380,"33":1381,"ĊĊĠ":1382,"core":1383,"ields":1384,"ision":1385,"DE":1386,"Ġcal":1387,"Ġsur":1388,"kwargs":1389,"ants":1390,"arent":1391,"ams":1392,"lob":1393,"sum":1394,"ken":1395,"ever":1396,"CR":1397,"Ġvalues":1398,"rt":1399,"rel":1400,"Ġgen":1401,"of":1402,"part":1403,"quired":1404,"Ġam":1405,"ptional":1406,"---":1407,"Ġ{'":1408,"sy":1409,"ities":1410,"(),":1411,"ĠâĢ":1412,"ids":1413,"Ġnode":1414,"40":1415,"Ġ200":1416,"Ġprovide":1417,"ier":1418,"Ġnon":1419,"Ġgra":1420,"...":1421,"thon":1422,"Data":1423,"})":1424,"dis":1425,"do":1426,"IC":1427,"Ġrun":1428,"ody":1429,"idth":1430,"ans":1431,"mathb":1432,"ting":1433,"23":1434,"ically":1435,"Ġpass":1436,"df":1437,"env":1438,"ME":1439,"Ġdi":1440,"ote":1441,"np":1442,"ĠEx":1443,"Ġresults":1444,"****":1445,"ublic":1446,"ner":1447,"Ġhad":1448,"ler":1449,"$.":1450,"cor":1451,"Ġcontain":1452,"ormal":1453,"Ġter":1454,"Ġinst":1455,"check":1456,"request":1457,"Ġwould":1458,"Ġmat":1459,"table":1460,"$,":1461,"mon":1462,"Ġlevel":1463,"AS":1464,"Ġhis":1465,"Ġstart":1466,"word":1467,"place":1468,"ĠAn":1469,"la":1470,"iven":1471,"ocument":1472,"ential":1473,"hed":1474,"mer":1475,"ĊĠĠĠĠĠĠĠĠĠĠĠĠĠĠĠĠĠĠĠĠĠĠĠĠĠĠĠĠĠĠĠĠĠĠĠĠĠĠĠĠĠĠĠĠ":1476,"ION":1477,"default":1478,"itle":1479,"params":1480,"md":1481,"Ġimp":1482,"client":1483,"ging":1484,"clo":1485,"UT":1486,"ĠLet":1487,"ĠX":1488,"method":1489,"ync":1490,"return":1491,"pp":1492,"att":1493,"Ġdict":1494,"mission":1495,"Ġ!":1496,"gn":1497,"Ġoper":1498,"face":1499,"ulation":1500,"Ġcells":1501,"oci":1502,"Ġcurrent":1503,"ern":1504,"ages":1505,"60":1506,"Ġsame":1507,"Ġincre":1508,"Test":1509,"ences":1510,"inter":1511,"Th":1512,"'],":1513,"Category":1514,"string":1515,"Ġfound":1516,"uring":1517,"gen":1518,"atic":1519,"200":1520,"Ġpoint":1521,"().":1522,"air":1523,"Ġpresent":1524,"Cl":1525,"api":1526,"Ġargs":1527,"ĠCh":1528,"Ġpartic":1529,"umn":1530,"ename":1531,"igned":1532,"formation":1533,"round":1534,"\".":1535,"module":1536,"Ġtri":1537,"RO":1538,"attr":1539,"pri":1540,"mit":1541,"Id":1542,"new":1543,"try":1544,"\\]":1545,"27":1546,"eturn":1547,"Ġlow":1548,"Ġdoes":1549,"Ġmult":1550,"\\[":1551,"ared":1552,"28":1553,"di":1554,"nect":1555,"Ġtre":1556,"ake":1557,"status":1558,"ale":1559,"ĊĠĠĠĠĠĠĠĠĠĠĠĠĠĠĠĠĠĠĠĠĠĠĠĠĠĠĠĠĠĠĠĠĠĠĠĠĠĠĠĠĠĠĠĠĠ":1560,"itions":1561,"json":1562,"]{}":1563,"Ġsol":1564,"Ġdirect":1565,"ww":1566,"Ġconst":1567,"Se":1568,"ency":1569,"âĢĻ":1570,"Ġstudy":1571,"vers":1572,"Ġtarget":1573,"Ġatt":1574,"var":1575,"Ġevent":1576,"Ch":1577,"Ġpatients":1578,"lib":1579,"amp":1580,"unc":1581,"create":1582,"write":1583,",\\":1584,"Ġnum":1585,"Ġax":1586,"ĠFor":1587,"Ġ20":1588,"struct":1589,"Ġaw":1590,"print":1591,"ffic":1592,"ume":1593,"``":1594,"gin":1595,"ally":1596,"34":1597,"update":1598,"other":1599,"čĊĠĠĠĠĠĠĠĠĠĠĠ":1600,"vol":1601,"owever":1602,"present":1603,"ey":1604,"iss":1605,"ĠLicense":1606,"ĠPro":1607,"play":1608,"izer":1609,"alpha":1610,"ount":1611,"Ġprocess":1612,"Ġappro":1613,"Ġneed":1614,"55":1615,"ox":1616,"pose":1617,"List":1618,"del":1619,"Ġthey":1620,"Field":1621,"Ġcode":1622,"irc":1623,"Ġcomple":1624,"length":1625,"Ġimage":1626,"base":1627,"ivity":1628,"ysis":1629,"org":1630,"arge":1631,"Ġcall":1632,"((":1633,"Ġsize":1634,"Ġfra":1635,"tings":1636,"Ġsupport":1637,"Ġprote":1638,"Ġexp":1639,"Ġest":1640,"Ġkn":1641,"ason":1642,"graph":1643,"Fig":1644,"ilename":1645,"ists":1646,"uration":1647,"Ġet":1648,"Ġboth":1649,"Ġinit":1650,"ension":1651,"21":1652,"Ġopen":1653,"raw":1654,"ability":1655,"ĠÂ":1656,"ole":1657,"Ġsample":1658,"yl":1659,"ĊĠĠĠĠĠĠĠĠĠĠĠĠĠĠĠĠĠĠĠĠĠĠĠĠĠĠĠĠĠĠĠĠĠĠĠĠĠĠĠĠĠĠĠĠĠĠ":1660,"Ġmust":1661,"05":1662,"lection":1663,"ference":1664,"pression":1665,"dim":1666,"Ġmy":1667,"Ġhelp":1668,"Ġgo":1669,"ĠIt":1670,"29":1671,"utils":1672,"mary":1673,"asure":1674,"indow":1675,"Ġav":1676,"Ġoff":1677,"Ġindex":1678,"models":1679,"box":1680,"Ġitem":1681,"Ġfield":1682,"Ġbec":1683,"rough":1684,"Ġfind":1685,"Ġmod":1686,"cul":1687,"26":1688,"Ġcontrol":1689,"Ġ!=":1690,"AC":1691,"ĠCo":1692,"AP":1693,"ribute":1694,"Ġext":1695,"itive":1696,"Ġ['":1697,"velo":1698,"35":1699,"response":1700,"Ġtext":1701,"][":1702,"Ġversion":1703,"typ":1704,"Ġtorch":1705,"Ġopt":1706,"rix":1707,"rc":1708,"Ġq":1709,"message":1710,"ware":1711,"image":1712,"call":1713,"plication":1714,"order":1715,"Ġsim":1716,"ED":1717,"obj":1718,"mathcal":1719,"uc":1720,"</":1721,"lambda":1722,"split":1723,"Ġsuper":1724,"ga":1725,"sq":1726,"ful":1727,"37":1728,"tract":1729,"Ġdat":1730,"Ġback":1731,"}(":1732,"'.":1733,"Ġident":1734,"Ġcourt":1735,"04":1736,"Ġgiven":1737,"search":1738,"let":1739,"Ġisinstance":1740,"mber":1741,"ited":1742,"ĊĠĠĠĠĠĠĠĠĠĠĠĠĠĠĠĠĠĠĠĠĠĠĠĠĠĠĠĠĠĠĠĠĠĠĠĠĠĠĠĠĠĠĠĠĠĠĠ":1743,"Ġcond":1744,"36":1745,"Ġwhile":1746,".\"\"\"":1747,"train":1748,"Ġexpected":1749,"iff":1750,"ince":1751,"lete":1752,"vert":1753,"float":1754,"ango":1755,"Ġread":1756,"Ġve":1757,"Ġsignific":1758,"quence":1759,"move":1760,"redict":1761,"cy":1762,"ification":1763,"ingle":1764,"Ã©":1765,"Let":1766,"acter":1767,"pol":1768,"mark":1769,"ats":1770,"process":1771,"]\\].":1772,"ream":1773,"Ġins":1774,"ool":1775,")\\":1776,"mail":1777,"Ġexample":1778,"[:":1779,"very":1780,"jango":1781,"Ġdeter":1782,"\"),":1783,"38":1784,"bar":1785,"ward":1786,"Ġmon":1787,"Ġour":1788,"iter":1789,"amma":1790,">>":1791,"values":1792,"dot":1793,"rop":1794,"Ġlabel":1795,"]:":1796,"duced":1797,"etime":1798,"Ġappe":1799,"AG":1800,"IS":1801,"Ġant":1802,"Ġapp":1803,"Set":1804,"Ġhtt":1805,"til":1806,"Ġtyp":1807,"Ġmodels":1808,"Ġsecond":1809,"etwork":1810,"gram":1811,"45":1812,"Ġed":1813,"Ġstring":1814,"ear":1815,"Ġstruct":1816,"ci":1817,"filter":1818,"ank":1819,"Ġbecause":1820,"Ġwithout":1821,"ases":1822,"Ã¤":1823,"lem":1824,"Ġthrough":1825,"Ġobser":1826,"parse":1827,"Ġdes":1828,"ration":1829,"Ġvalid":1830,"resh":1831,"ights":1832,"eps":1833,"Ġchar":1834,"sec":1835,"cer":1836,"Ġsee":1837,"velop":1838,"ock":1839,"Ġcould":1840,"Ġ``":1841,"Ġ--":1842,"ĠÐ":1843,"ures":1844,"mplate":1845,"idence":1846,"Ġ{#":1847,"'])":1848,"Ġwell":1849,"Ġ15":1850,"Ġcontin":1851,"block":1852,"Ġreport":1853,"types":1854,"Ġlimit":1855,"ĠAl":1856,"Ġtemp":1857,"39":1858,"Par":1859,"uto":1860,"sen":1861,"CH":1862,"fix":1863,"67":1864,"tes":1865,"Ġcreate":1866,"100":1867,"nection":1868,"UR":1869,"ational":1870,"space":1871,"MP":1872,"az":1873,"CO":1874,"Ġsignificant":1875,"ustom":1876,"Ġaction":1877,"igma":1878,"aterial":1879,"88":1880,"Ġhand":1881,"uthor":1882,"Ġfollowing":1883,"cs":1884,"Ġabout":1885,"ĊĠĠĠĠĠĠĠĠĠĠĠĠĠĠĠĠĠĠĠĠĠĠĠĠĠĠĠĠĠĠĠĠĠĠĠĠĠĠĠĠĠĠĠĠĠĠĠĠ":1886,"bug":1887,"^{\\":1888,")/":1889,"Ġret":1890,"ily":1891,"iron":1892,"lay":1893,"Ġrequired":1894,"oper":1895,"scrib":1896,"Ġver":1897,"ET":1898,"ng":1899,"atures":1900,"opt":1901,"mall":1902,"ric":1903,"pert":1904,"AD":1905,"uple":1906,"Ġrepresent":1907,"spec":1908,"gest":1909,"44":1910,"dat":1911,"mes":1912,"ero":1913,"Ġ$$\\":1914,"icro":1915,"Co":1916,"Ġobtain":1917,"war":1918,"Ġmeasure":1919,"Ġbase":1920,"AB":1921,"rid":1922,"valu":1923,"ough":1924,"mu":1925,"Ġduring":1926,"Ġconsider":1927,"Ġmake":1928,"Ser":1929,"stra":1930,"package":1931,".\"":1932,"bl":1933,"LO":1934,"imal":1935,"=[":1936,"75":1937,"ane":1938,"query":1939,"function":1940,"uid":1941,"erson":1942,"Ġassoci":1943,"Str":1944,"ctor":1945,"cri":1946,"vious":1947,"Ġinformation":1948,"ister":1949,"Ġcar":1950,"ĠAr":1951,"host":1952,"Ġpe":1953,"iled":1954,"duction":1955,"event":1956,"Ġyour":1957,"ived":1958,"69":1959,"Ġallow":1960,"ither":1961,"Ġemp":1962,"Ġmessage":1963,"Ġlocal":1964,"Ġ,":1965,"Ġloc":1966,"Ġtrain":1967,"Ġclo":1968,"Ar":1969,"Ġsource":1970,"urther":1971,"Un":1972,"Ġ12":1973,"ĠÎ":1974,"Ġ(\"":1975,"context":1976,"File":1977,"Ġ]":1978,"ĠNo":1979,"Ġdevice":1980,"target":1981,"ager":1982,"IG":1983,"Ġms":1984,"go":1985,"http":1986,"ĠReturn":1987,"65":1988,"Ġ18":1989,"umpy":1990,"erg":1991,"'):":1992,"property":1993,"Ġcontext":1994,"Ġlike":1995,"Ġhere":1996,"ross":1997,"adata":1998,"my":1999,"Ġtf":2000,"Ġelect":2001,"flow":2002,"ING":2003,"cc":2004,"rect":2005,"OT":2006,"Ġvar":2007,"ĊĠĠĠĠĠĠĠĠĠĠĠĠĠĠĠĠĠĠĠĠĠĠĠĠĠĠĠĠĠĠĠĠĠĠĠĠĠĠĠĠĠĠĠĠĠĠĠĠĠ":2008,"Ġindic":2009,"02":2010,"IL":2011,"ower":2012,"cket":2013,"Ġmodule":2014,"Ġmost":2015,"$$":2016,"icy":2017,"iod":2018,"ĠAs":2019,"Ġaddition":2020,"less":2021,"Ġvariable":2022,"perties":2023,"ished":2024,"temp":2025,"ik":2026,"âĪ":2027,"Ġdec":2028,"Ġtotal":2029,"sl":2030,"To":2031,"wh":2032,"width":2033,"loy":2034,"idd":2035,"perim":2036,"argument":2037,"Ġanalysis":2038,"field":2039,"95":2040,"}_":2041,"Ġbefore":2042,"UL":2043,"gment":2044,"48":2045,"ĠDe":2046,"ailable":2047,"Ġref":2048,"itu":2049,"Ġblock":2050,"90":2051,"Ġpost":2052,"plot":2053,"bin":2054,"Ġsa":2055,"ness":2056,"alth":2057,"tail":2058,"Ġ},":2059,"ling":2060,"hether":2061,"Ġequ":2062,"iple":2063,"Ġdid":2064,"mbol":2065,"ilar":2066,"70":2067,"Ġ{\\":2068,"Ġurl":2069,"De":2070,"ĠSee":2071,"lease":2072,"Ġ16":2073,"ont":2074,"Get":2075,"Ġlong":2076,"vices":2077,"Ġdevelop":2078,":`":2079,"logy":2080,"Col":2081,"What":2082,"Ġagain":2083,"Ġargument":2084,"range":2085,"her":2086,"Ġwithin":2087,"Ġawait":2088,"requ":2089,"Ġinclude":2090,"oid":2091,"xy":2092,"____":2093,"roll":2094,"Ġtreat":2095,"=\\":2096,"Ġscal":2097,"ique":2098,"Ġenv":2099,"ags":2100,"Ġ>>>":2101,"ively":2102,"lected":2103,"ination":2104,"Ġcle":2105,"ĊĠĠĠĠĠĠĠĠĠĠĠĠĠĠĠĠĠĠĠĠĠĠĠĠĠĠĠĠĠĠĠĠĠĠĠĠĠĠĠĠĠĠĠĠĠĠĠĠĠĠ":2106,"frame":2107,"Ġarray":2108,"begin":2109,"Ġrespect":2110,"ĠZ":2111,"Ġvol":2112,"ks":2113,"ior":2114,"Ġsi":2115,"bit":2116,"dist":2117,"ialize":2118,"angu":2119,"lobal":2120,"Ġder":2121,"Ð¾":2122,"PE":2123,"fact":2124,"Model":2125,"}_{":2126,"Ġbased":2127,"off":2128,"'))":2129,"âĢĿ":2130,"Ġposs":2131,"Ġinte":2132,"link":2133,"mode":2134,"mages":2135,"]]":2136,"Ġdtype":2137,"any":2138,"Ġcount":2139,"hand":2140,"77":2141,"ENT":2142,"}^{":2143,"idget":2144,"Ġhy":2145,"batch":2146,"content":2147,"Ġ100":2148,"head":2149,"sup":2150,"token":2151,"verse":2152,"script":2153,"vention":2154,"Ġcopy":2155,"ism":2156,"Ġrow":2157,"Ġcls":2158,"Ġmain":2159,"Ð°":2160,"ulum":2161,"ru":2162,"asses":2163,"Ġthree":2164,"Ġchang":2165,"ural":2166,"Ġsum":2167,"Ġmode":2168,"Ġthem":2169,"Ġdete":2170,"emp":2171,"mathbb":2172,"68":2173,"sk":2174,"ĠHe":2175,"ven":2176,"Ġdim":2177,"Value":2178,"################################":2179,"Ġcommand":2180,"itor":2181,"uch":2182,"Ġclient":2183,"items":2184,"Ġquery":2185,"ten":2186,"Ġrece":2187,"Ġcent":2188,"]{":2189,"Ġ'''":2190,"Ġ14":2191,"Ġbre":2192,"Ġmed":2193,"Ġwhat":2194,"ves":2195,"Ġinstance":2196,"phi":2197,"98":2198,"Ġpack":2199,"Ġtable":2200,"imum":2201,"ident":2202,"Ġorig":2203,"ffer":2204,"command":2205,"sample":2206,"----------------------------------------------------------------":2207,"copy":2208,"pone":2209,"={":2210,"Ġsys":2211,"Ġexpression":2212,"Ġfloat":2213,"idx":2214,"Ġmet":2215,"delta":2216,"andard":2217,"ĠAp":2218,"Ġport":2219,"Ġwho":2220,"Ġjust":2221,"ords":2222,"tric":2223,"ux":2224,"press":2225,"top":2226,"Ġcommon":2227,"uster":2228,"Ġspecific":2229,"ises":2230,"fn":2231,"mplement":2232,"ster":2233,"ral":2234,"Ġjson":2235,"sol":2236,"gener":2237,"Ob":2238,"mask":2239,"title":2240,"yle":2241,"ĊĠĠĠĠĠĠĠĠĠĠĠĠĠĠĠĠĠĠĠĠĠĠĠĠĠĠĠĠĠĠĠĠĠĠĠĠĠĠĠĠĠĠĠĠĠĠĠĠĠĠĠ":2242,"ribution":2243,"Ġ),":2244,"Ġsingle":2245,"Ġconf":2246,"ĠHowever":2247,"ĠOptional":2248,"html":2249,"Ġmark":2250,"names":2251,"doc":2252,"idual":2253,"depend":2254,"Ġshe":2255,"Ġexist":2256,"inf":2257,"Ġright":2258,"ulumi":2259,"66":2260,"Ġcy":2261,"ĠÃ":2262,"\\\\":2263,"31":2264,"=(":2265,"Ġparameters":2266,"ving":2267,"Ġim":2268,"Ġrandom":2269,"root":2270,"device":2271,"source":2272,"ĠPar":2273,"Ġchild":2274,"Ġsk":2275,"Ġeither":2276,"ances":2277,"Ġlast":2278,"tri":2279,"channel":2280,"aligned":2281,"Ġstatus":2282,"Ðµ":2283,"hib":2284,"beta":2285,"ftware":2286,"\"],":2287,"*-":2288,"Ġmean":2289,"78":2290,"âĪĴ":2291,"uding":2292,"ias":2293,"Time":2294,"We":2295,"files":2296,"]).":2297,"Ġiss":2298,"color":2299,"err":2300,"Al":2301,"msg":2302,"func":2303,"Ġlink":2304,"local":2305,"Ġdepend":2306,"cording":2307,"({":2308,"Ġnormal":2309,"Ġdescrib":2310,"des":2311,"Ġmot":2312,"Ġincl":2313,"Ġfiles":2314,"Ġload":2315,"formed":2316,"current":2317,"DO":2318,"hes":2319,"Ġ--------":2320,"}$$":2321,"ons":2322,"ternal":2323,"anguage":2324,"Ġthose":2325,"keys":2326,"Ġparams":2327,"Ġbl":2328,"equal":2329,"Ġfilter":2330,"Ġnetwork":2331,"Ġpr":2332,"ĠâĢľ":2333,"open":2334,"tx":2335,"TT":2336,")))":2337,"PO":2338,"aces":2339,"Ġgre":2340,"mod":2341,"pass":2342,"Ġdiv":2343,"ources":2344,"US":2345,"Ġview":2346,"ca":2347,"-\\":2348,"stri":2349,"logical":2350,"sqrt":2351,"Ġ11":2352,"Ġsmall":2353,"respon":2354,"project":2355,"exp":2356,"way":2357,"Ġcontent":2358,"Ġhead":2359,"ches":2360,"Ġpur":2361,"Key":2362,"utton":2363,"94":2364,"ather":2365,"down":2366,"level":2367,"Ġshown":2368,"Ġlarge":2369,"Ġresource":2370,"_\\":2371,"tic":2372,"Ġproject":2373,"ĠSup":2374,"xf":2375,"08":2376,"ched":2377,"Ġvari":2378,"bove":2379,"ators":2380,"UN":2381,"Ġden":2382,"Ġwhether":2383,"aim":2384,"97":2385,"tag":2386,"ĠReturns":2387,"uggest":2388,"ĠValue":2389,"Ġshape":2390,"task":2391,"ually":2392,"usepackage":2393,"Ġreason":2394,"address":2395,"fields":2396,"Ġinitial":2397,"Ġmatch":2398,"Ġupdate":2399,"Ġes":2400,"Ġmock":2401,"ij":2402,"ze":2403,"gle":2404,"An":2405,"Ġabove":2406,"âĢĵ":2407,"ĠCom":2408,"03":2409,"Ġbeing":2410,"abase":2411,"Ġ{\"":2412,"Ġdown":2413,"ĊĠĠĠĠĠĠĠĠĠĠĠĠĠĠĠĠĠĠĠĠĠĠĠĠĠĠĠĠĠĠĠĠĠĠĠĠĠĠĠĠĠĠĠĠĠĠĠĠĠĠĠĠ":2414,"ĠThere":2415,"ĠTest":2416,"rain":2417,"options":2418,"Ġtreatment":2419,"Ġstat":2420,"IR":2421,"uit":2422,"cmd":2423,"tot":2424,"Ġpop":2425,"Add":2426,"Ġher":2427,"ilon":2428,"Ġbool":2429,"Ġchange":2430,"Ġprevious":2431,"ely":2432,"ĠRes":2433,"Ġhow":2434,"Ġquest":2435,"Ġlength":2436,"ributed":2437,"atter":2438,"store":2439,"ged":2440,"filename":2441,"Ġdetermin":2442,"post":2443,"last":2444,"Ġnext":2445,"ended":2446,")]":2447,"ccess":2448,"arn":2449,"Ġtask":2450,"close":2451,"Ġ25":2452,"Ġpot":2453,"Text":2454,"ears":2455,"TR":2456,"ives":2457,"Ġwrit":2458,"Ġposition":2459,"ules":2460,"orage":2461,"sing":2462,"Ġkwargs":2463,"Ġge":2464,"Ġeven":2465,"HE":2466,"exec":2467,"ĠAN":2468,"Ġassociated":2469,"Ġ[\"":2470,"PI":2471,"Ġcharacter":2472,"verage":2473,"sw":2474,"sigma":2475,"xe":2476,"umns":2477,"gan":2478,"Ġbuild":2479,"session":2480,"Ġpredict":2481,"MA":2482,"Ġ([":2483,"Ġvis":2484,"xb":2485,"times":2486,"}^":2487,"ops":2488,"Ġcause":2489,"96":2490,"cell":2491,"Ġnow":2492,"74":2493,"Ġcompon":2494,"Ġevidence":2495,"ifier":2496,"usion":2497,"Ġcirc":2498,"ĠCl":2499,"Ġaut":2500,"ention":2501,"rict":2502,"ĠCour":2503,"Ġdue":2504,"save":2505,"ĠĊ":2506,"bot":2507,"Ġparser":2508,"cluded":2509,"View":2510,"bib":2511,"nn":2512,"isk":2513,"ene":2514,"Ġdf":2515,"II":2516,"number":2517,"server":2518,"rate":2519,"\">":2520,"Ġsuggest":2521,"ĠOn":2522,"Ġobj":2523,"Ġfields":2524,"Ġ${\\":2525,"Ġ30":2526,"Ġmap":2527,"gress":2528,"IP":2529,"Ġparent":2530,"Ġsever":2531,"sets":2532,"Ġprovided":2533,"cache":2534,"Ġremain":2535,"ĊĠĠĠĠĠĠĠĠĠĠĠĠĠĠĠĠĠĠĠĠĠĠĠĠĠĠĠĠĠĠĠĠĠĠĠĠĠĠĠĠĠĠĠĠĠĠĠĠĠĠĠĠĠ":2536,"********":2537,"Sup":2538,"dtype":2539,"ium":2540,"patch":2541,"ĠGener":2542,"Ġperform":2543,"Ġele":2544,"Ġexperim":2545,"mathbf":2546,"ĠDef":2547,"debug":2548,"delete":2549,"ailed":2550,"Ġactiv":2551,"abled":2552,"hip":2553,"ead":2554,"Config":2555,"parent":2556,"Ġmany":2557,"cp":2558,"network":2559,"ĠTo":2560,"sa":2561,"ters":2562,"eq":2563,"Ġaxis":2564,"Ġchannel":2565,"find":2566,"85":2567,"Ġrate":2568,"ÑĤ":2569,"Ġsimilar":2570,"ately":2571,"Ġwant":2572,"rap":2573,"Ġhost":2574,"Ġfinal":2575,"Ġformat":2576,"Ġcorrespon":2577,"gamma":2578,"stru":2579,"eth":2580,"Not":2581,"Ġlogging":2582,"vo":2583,"fficient":2584,"Ġmsg":2585,"Ġcap":2586,"ĠList":2587,"Ġanaly":2588,"loss":2589,"ubl":2590,"Ġdescription":2591,"cope":2592,"HO":2593,")}":2594,"AM":2595,"Ġproduct":2596,"Ġloss":2597,"Ġoc":2598,"Ġavailable":2599,"Ġcomb":2600,"Ġdel":2601,"https":2602,"met":2603,"Ġpublic":2604,"apt":2605,"Ġ([@":2606,"parameters":2607,"Ġbatch":2608,"ĊĊĠĠĠĠĠĠĠĠĠĠĠĠĠĠĠ":2609,"Ġstudies":2610,"čĊč":2611,"Ġbody":2612,"Ġlayer":2613,")*":2614,"xc":2615,"position":2616,"Ġtrial":2617,"Ġcolor":2618,"ensity":2619,"random":2620,"Ġparticular":2621,"build":2622,"lines":2623,"make":2624,"Ġunit":2625,"irt":2626,"vest":2627,"Ġknow":2628,"Ġlaw":2629,"tion":2630,"String":2631,")),":2632,"pop":2633,"emb":2634,"This":2635,"ividual":2636,"www":2637,"culate":2638,"aint":2639,"mt":2640,"ĠValueError":2641,"Ġsl":2642,"Ġdocument":2643,"tensor":2644,"Ġincluding":2645,"cat":2646,"Cont":2647,"ironment":2648,"grad":2649,"aving":2650,"Fra":2651,"arly":2652,"^{-":2653,"Ġsignal":2654,"connect":2655,"09":2656,"Ġtop":2657,"chan":2658,"Ġtr":2659,"ush":2660,"cho":2661,"sche":2662,"older":2663,"Ġmade":2664,"Ġsince":2665,"Com":2666,"pc":2667,"const":2668,"duce":2669,"Is":2670,"Ġevalu":2671,"rand":2672,"objects":2673,"Ġ...":2674,"ĊĠĠĠĠĠĠĠĠĠĠĠĠĠĠĠĠĠĠĠĠĠĠĠĠĠĠĠĠĠĠĠĠĠĠĠĠĠĠĠĠĠĠĠĠĠĠĠĠĠĠĠĠĠĠ":2675,"ital":2676,"resource":2677,"Ġcases":2678,"utf":2679,"Ġmultiple":2680,"47":2681,"thing":2682,"For":2683,"Ġpossible":2684,"Ġimpl":2685,"ready":2686,"sor":2687,"wise":2688,"001":2689,"Ġcoun":2690,"07":2691,"Ġ17":2692,"reate":2693,"Ġelement":2694,"come":2695,"Ġroot":2696,"inc":2697,"\"}).":2698,"mock":2699,"06":2700,"settings":2701,"Ġperiod":2702,"ernel":2703,"ĠCourt":2704,"Table":2705,"ĠPh":2706,"Ġway":2707,"endant":2708,"ury":2709,"layer":2710,"CL":2711,"conf":2712,"IM":2713,"mand":2714,"ets":2715,"inst":2716,"xa":2717,"En":2718,"Ġserver":2719,"Ġgroups":2720,"uro":2721,"ially":2722,"\\_":2723,"Ġdise":2724,"Ð¸":2725,"ĠData":2726,"ai":2727,"Ġ13":2728,"Ġfail":2729,"Ġfin":2730,"step":2731,"Ġexec":2732,"arrow":2733,"Ġcom":2734,"send":2735,"Input":2736,"ivers":2737,"uture":2738,"Ġlogger":2739,"{{\\":2740,"FF":2741,"Ġoptions":2742,"Ġstructure":2743,"Ġquant":2744,"','":2745,"Ġdb":2746,"EX":2747,"ym":2748,"Up":2749,"opy":2750,"Ġclaim":2751,"Ġlower":2752,"div":2753,"fg":2754,"[-":2755,"quire":2756,"ov":2757,"king":2758,"ynam":2759,"ĠIN":2760,"Ġbas":2761,"Ġperson":2762,"tf":2763,"86":2764,"Ġlevels":2765,"ond":2766,"ĠThese":2767,"Ġleft":2768,"CC":2769,"(_":2770,"uman":2771,"cls":2772,"Ġmicro":2773,"now":2774,"CON":2775,"acy":2776,"Ġyears":2777,"nodes":2778,"Ġreal":2779,"~~":2780,"49":2781,"mory":2782,"Ġagainst":2783,"axis":2784,"Ġtensor":2785,"Ġbeh":2786,"img":2787,"Ġtak":2788,"FA":2789,"Ġcert":2790,"Ġenco":2791,"change":2792,"vis":2793,"Ġsequence":2794,"match":2795,"Ġow":2796,"alle":2797,"42":2798,"Ġlines":2799,"Ġmag":2800,"ĠOR":2801,"Ġdefined":2802,"Ġfactor":2803,"+\\":2804,"location":2805,"Ġproblem":2806,"document":2807,"poch":2808,")(":2809,"ATE":2810,"Ċĉĉĉ":2811,"ĊĠĠĠĠĠĠĠĠĠĠĠĠĠĠĠĠĠĠĠĠĠĠĠĠĠĠĠĠĠĠĠĠĠĠĠĠĠĠĠĠĠĠĠĠĠĠĠĠĠĠĠĠĠĠĠ":2812,"service":2813,"Ġfurther":2814,"ributes":2815,"Object":2816,"Ġsection":2817,"Ġlib":2818,"Ġther":2819,"ii":2820,"Ġparameter":2821,"ĠAll":2822,"OP":2823,"Ġfo":2824,"Ġactivity":2825,"has":2826,"Ġpotential":2827,"Ġdri":2828,"]),":2829,"Ġhigher":2830,"auth":2831,"Ġknown":2832,"Ġ//":2833,"ground":2834,"Ġcomput":2835,"oint":2836,"Ġnumpy":2837,"SS":2838,"Ġconnect":2839,"ui":2840,"theta":2841,"ĠCol":2842,"Ġmaterial":2843,"Ġdon":2844,"Ġfil":2845,"mathrm":2846,"Ġgeneral":2847,"Ġrelative":2848,"Ġoccur":2849,"angle":2850,"ĠSo":2851,"Ġestim":2852,"std":2853,"Ġlet":2854,"Ġinvol":2855,"ql":2856,"Ġreco":2857,"Ġsens":2858,"Ġimpro":2859,"Ġobserved":2860,"MO":2861,"Ġaccount":2862,"non":2863,"hel":2864,"Ġterms":2865,"\"))":2866,"django":2867,"Ġevery":2868,"ird":2869,"Ġneg":2870,"Ġindividual":2871,"Ġsche":2872,"ĠPy":2873,"mean":2874,"bs":2875,"lec":2876,"Sh":2877,"ixed":2878,"^\\":2879,"dependent":2880,"Exception":2881,"Ġenerg":2882,"89":2883,"Ġgraph":2884,"tem":2885,"Ġservice":2886,"Ġdate":2887,"TY":2888,"rho":2889,"Ġ..":2890,"Ġprotein":2891,"cap":2892,"arning":2893,"istory":2894,"Ġimm":2895,"hy":2896,"Ġda":2897,"Ġrecord":2898,"Ġaccess":2899,"Ġfull":2900,"As":2901,"active":2902,"Ġplay":2903,"ĠSer":2904,"čĊĠĠĠĠĠĠĠĠĠĠĠĠĠĠĠ":2905,"EST":2906,"Ġcontinue":2907,"replace":2908,"Ġregion":2909,"Ġhttp":2910,"tails":2911,"static":2912,"page":2913,"Ġweight":2914,"only":2915,"stamp":2916,"Base":2917,"Ġsubject":2918,"Ġla":2919,"cus":2920,"Ġlead":2921,"Path":2922,"ĠSh":2923,"sim":2924,"Ġpower":2925,"unit":2926,"land":2927,"uble":2928,"ured":2929,"Ġstep":2930,"Ġ24":2931,"vate":2932,"ites":2933,"ee":2934,"ressed":2935,"Ġcompared":2936,"Ġtech":2937,"[:,":2938,"zer":2939,"Ġbreak":2940,"posed":2941,"Ġfrequ":2942,"Lo":2943,"Ġvery":2944,"Ġns":2945,"Ġconditions":2946,"84":2947,"ÂłÂł":2948,"ental":2949,"Ġasync":2950,"select":2951,"Ġdiag":2952,"tact":2953,"Ġmethods":2954,"87":2955,"mult":2956,"Ġsent":2957,"unic":2958,"ESS":2959,"tocol":2960,"direct":2961,"actions":2962,"orld":2963,"Ġinf":2964,"Group":2965,"Ġdiff":2966,"Ġho":2967,"weight":2968,"tilde":2969,"Ġprogram":2970,"Frame":2971,"body":2972,"osis":2973,"plied":2974,"Ġspace":2975,"Form":2976,"ĠCal":2977,"Ġstandard":2978,"Def":2979,"Response":2980,"description":2981,"partial":2982,"Ċĉĉĉĉ":2983,"enu":2984,"ided":2985,"ĠFig":2986,"atio":2987,"ring":2988,"ift":2989,"ĠComp":2990,"%)":2991,"ounds":2992,"Ġhealth":2993,"Comp":2994,"prefix":2995,"show":2996,"req":2997,"Ġinterest":2998,"57":2999,"Request":3000,"SA":3001,"Ġperformed":3002,"ML":3003,"================================":3004,"torch":3005,"ibility":3006,"ries":3007,"python":3008,"Ġpositive":3009,"points":3010,"ĊĠĠĠĠĊĠĠĠ":3011,"Log":3012,"Ġque":3013,"-------":3014,"je":3015,"Ġjud":3016,"Ġsepar":3017,"fs":3018,"umer":3019,"Ġsurface":3020,"icle":3021,"na":3022,"Ġfactors":3023,"riter":3024,"scale":3025,"ival":3026,"sign":3027,"itch":3028,"ends":3029,"ĊĠĠĠĠĠĠĠĠĠĠĠĠĠĠĠĠĠĠĠĠĠĠĠĠĠĠĠĠĠĠĠĠĠĠĠĠĠĠĠĠĠĠĠĠĠĠĠĠĠĠĠĠĠĠĠĠ":3030,"stream":3031,"ways":3032,"ople":3033,"uff":3034,"Ġframe":3035,"Ġlook":3036,"ably":3037,"pat":3038,"ferences":3039,"inary":3040,"ideo":3041,"Ġsort":3042,"jor":3043,"dataset":3044,"rary":3045,"mine":3046,"pm":3047,"Ġ(-":3048,"si":3049,"nu":3050,"No":3051,"sence":3052,"EL":3053,"Ġless":3054,"pen":3055,"Ġdisplay":3056,"Ã¡":3057,"Ġquestion":3058,"AA":3059,"kn":3060,"Ġgu":3061,"'].":3062,"account":3063,"utes":3064,"Ġpoints":3065,"Ġdep":3066,"ones":3067,"Ġlight":3068,"tau":3069,"Ġsearch":3070,"Ġphys":3071,"Ġren":3072,"ols":3073,"lev":3074,"erature":3075,"ories":3076,"like":3077,"User":3078,"Ġtrue":3079,"Ġcolumn":3080,"Ġside":3081,"xd":3082,"TI":3083,"Ġproperty":3084,"$-":3085,"Ġcomplex":3086,"big":3087,"orph":3088,"Node":3089,"Ġmechan":3090,"Ġcorrect":3091,"Ġpage":3092,"Ġinfl":3093,"],[@":3094,"atory":3095,"Ġaddress":3096,"MS":3097,"Figure":3098,"56":3099,"46":3100,"Ġrole":3101,"FI":3102,"ĠException":3103,"Ġdatetime":3104,"Ġemb":3105,"Ġdomain":3106,"*,":3107,"system":3108,"van":3109,"idden":3110,"next":3111,"']['":3112,"Ġobtained":3113,"hem":3114,"template":3115,"Ġsuccess":3116,"ek":3117,"Ġmatrix":3118,"}{\\":3119,"Ġreview":3120,"Ġprior":3121,"Ġheader":3122,"board":3123,"peline":3124,"Ġanother":3125,"br":3126,"ĠWhat":3127,"Ġ[],":3128,"Del":3129,"Ġ##":3130,"Ġ(*":3131,"Ġhttps":3132,"olds":3133,"Ph":3134,"Ġinvest":3135,"Ġmemb":3136,"Ġleast":3137,"Ġchanges":3138,"Ġdataset":3139,"sess":3140,"Ġdetect":3141,"Ġdecre":3142,"pk":3143,"abl":3144,"irection":3145,"af":3146,"ĠNot":3147,"Ġ\\\\":3148,"Ġ50":3149,"results":3150,"lower":3151,"Ġsw":3152,"Ġspect":3153,"quires":3154,"Ġoriginal":3155,"Ġclin":3156,"por":3157,"ife":3158,"vari":3159,"Ġdescribed":3160,"gor":3161,"Ġfour":3162,"txt":3163,"Ġcho":3164,"ison":3165,"Î±":3166,"used":3167,"On":3168,"čĊčĊĠĠĠ":3169,"Ġextra":3170,"gnore":3171,"Ġenergy":3172,"Ġtoken":3173,"Ġeffects":3174,"Ġlater":3175,"ĊĠĠĠĠĠĠĠĠĠĠĠĠĠĠĠĠĠĠĠĠĠĠĠĠĠĠĠĠĠĠĠĠĠĠĠĠĠĠĠĠĠĠĠĠĠĠĠĠĠĠĠĠĠĠĠĠĠ":3176,"Ġrequire":3177,"bose":3178,"Ġrelated":3179,"93":3180,"aring":3181,"Ġfilename":3182,"\"):":3183,"Ð½":3184,"`.":3185,"ply":3186,"cript":3187,"olution":3188,"first":3189,"ĠAdd":3190,"though":3191,"ystem":3192,"matrix":3193,"ulated":3194,"Ġincreased":3195,"job":3196,"can":3197,"Ġfunctions":3198,"ĠStates":3199,"amily":3200,"Ġalready":3201,"Ġke":3202,"Ġimportant":3203,"Ġsamples":3204,"ordin":3205,"Ġdistributed":3206,"Ġapplication":3207,"ogle":3208,"Ġproperties":3209,"metadata":3210,"ride":3211,"gree":3212,"IV":3213,"dro":3214,"Ġcalled":3215,"omega":3216,"92":3217,"stack":3218,"43":3219,"istic":3220,"ĠUnited":3221,"abs":3222,"Ġcare":3223,"\"])":3224,"Ġpay":3225,"ugin":3226,"Ġdistribution":3227,"Ġcondition":3228,"email":3229,"header":3230,"Result":3231,"olve":3232,"cdot":3233,"ping":3234,"State":3235,"dev":3236,"Ġtypes":3237,"Val":3238,"76":3239,"Ġreported":3240,"ĠLe":3241,"Ġspecified":3242,"mic":3243,"Or":3244,"(*":3245,"Ġrespectively":3246,"etch":3247,"CA":3248,"sequ":3249,"irtual":3250,"ĠOF":3251,"ently":3252,"Ġimplement":3253,"ract":3254,"async":3255,"Ġarea":3256,"'}":3257,"essage":3258,"orn":3259,"ros":3260,"TH":3261,"];":3262,"leq":3263,"alt":3264,"Ġmask":3265,"Ġgl":3266,"Ġcustom":3267,"late":3268,"parser":3269,"atform":3270,"labels":3271,"Ġ],":3272,"Ġ'/":3273,"src":3274,"zy":3275,"Ġfree":3276,"bf":3277,"ker":3278,"hash":3279,"normal":3280,"ĠState":3281,"ĠYou":3282,"bool":3283,")[":3284,"]))":3285,"exception":3286,"une":3287,"Ġbro":3288,"ÑĢ":3289,"Ġmut":3290,"total":3291,"section":3292,"ĠNew":3293,"Ġ<=":3294,"day":3295,"Ñģ":3296,"true":3297,"Ġpick":3298,"58":3299,"Ġtitle":3300,"54":3301,"ĠID":3302,"leg":3303,"Â±":3304,"ensure":3305,"}}\\":3306,"lin":3307,"Ġconcent":3308,"au":3309,"gorith":3310,"Ġapplic":3311,".\")":3312,"Ġgrow":3313,"strip":3314,"Ġdest":3315,"Ġmeans":3316,"ĊĠĠĠĠĠĠĠĠĠĠĠĠĠĠĠĠĠĠĠĠĠĠĠĠĠĠĠĠĠĠĠĠĠĠĠĠĠĠĠĠĠĠĠĠĠĠĠĠĠĠĠĠĠĠĠĠĠĠ":3317,"medi":3318,")):":3319,"Ġspe":3320,"72":3321,"cast":3322,"PS":3323,"remove":3324,"Ġwidth":3325,"Ġselect":3326,"Ġbound":3327,"Ġstore":3328,"Class":3329,"ĠÂ§":3330,"side":3331,"Ġsession":3332,"![":3333,"Ġiter":3334,"oh":3335,"Ġage":3336,"Ġemploy":3337,"Ġsoftware":3338,"coder":3339,"struction":3340,"Ġwrite":3341,"Out":3342,"Dict":3343,"Ġflow":3344,"Le":3345,"Ġscale":3346,"Item":3347,"Ġcannot":3348,"Ġ>=":3349,"roid":3350,"admin":3351,"aper":3352,"Ġpulumi":3353,"product":3354,"Ġ-*-":3355,"gine":3356,"itude":3357,"Ġep":3358,"logger":3359,"variable":3360,"Ġcreated":3361,"ah":3362,"Ġbehav":3363,"59":3364,"Info":3365,"Ġsettings":3366,"By":3367,"ety":3368,"Ġpoly":3369,"Ġplace":3370,"Ġsolution":3371,"Ġamount":3372,"41":3373,"known":3374,"ina":3375,"ucle":3376,"datetime":3377,"ĠStr":3378,"ĠType":3379,"ls":3380,"child":3381,"bb":3382,"Ġmass":3383,"....":3384,"OS":3385,"tom":3386,"Ġadditional":3387,"Ġplot":3388,"Ap":3389,"53":3390,"Ġstill":3391,"arm":3392,"Ġinfo":3393,"').":3394,"ĠOr":3395,"Ã¥":3396,"xi":3397,"Ġignore":3398,"Ġnull":3399,"NU":3400,"Ġconduct":3401,"Ġinhib":3402,"ĠWh":3403,"Ġtraining":3404,"Ġhaving":3405,"Ġequal":3406,"xml":3407,"Ġdirectory":3408,"eded":3409,"rs":3410,"Ġdisease":3411,"sens":3412,"OL":3413,"Ġplt":3414,"Ġremo":3415,"Ġelements":3416,"asing":3417,"Ġmight":3418,"inition":3419,"height":3420,"NAME":3421,"foo":3422,"Ġshort":3423,"79":3424,"Ġinvestig":3425,"Ġvariables":3426,"Ġjob":3427,"plement":3428,"xim":3429,"inputs":3430,"ayout":3431,"Ġreference":3432,"Event":3433,"aded":3434,"Bu":3435,"Ġglobal":3436,"Ġhuman":3437,"inding":3438,"'},":3439,"Ġconnection":3440,"opyright":3441,"infty":3442,"missions":3443,"ĠAt":3444,"domain":3445,"Ġnames":3446,"ots":3447,"column":3448,"63":3449,"Ġold":3450,"rations":3451,"Ġgene":3452,"conv":3453,"Ġorgan":3454,"ionary":3455,"Ġintegr":3456,"cing":3457,"}/":3458,"dep":3459,"ths":3460,"Ġseveral":3461,"ensions":3462,"Qu":3463,"raph":3464,"Ġadmin":3465,"ializer":3466,"Ġcontaining":3467,"Ġsubst":3468,"ĊĠĠĠĠĠĠĠĠĠĠĠĠĠĠĠĠĠĠĠĠĠĠĠĠĠĠĠĠĠĠĠĠĠĠĠĠĠĠĠĠĠĠĠĠĠĠĠĠĠĠĠĠĠĠĠĠĠĠĠ":3469,"Case":3470,"CE":3471,"UP":3472,"Ġauth":3473,"Ġpython":3474,"}$,":3475,"73":3476,"Trans":3477,"Ġsignificantly":3478,"Pol":3479,"Ġnecess":3480,".*":3481,"Widget":3482,"Ġauthor":3483,"gl":3484,"Ġoptional":3485,"Ġphase":3486,"ava":3487,"ĠâĢĵ":3488,"ides":3489,"Ġlocation":3490,"TER":3491,"sys":3492,"Ġissue":3493,"ferred":3494,"Ġexpl":3495,"Ġpd":3496,"Tensor":3497,"83":3498,"Check":3499,"Ġpi":3500,"ĠĊĠ":3501,"ĠÂ±":3502,"Ġqual":3503,"Ġbot":3504,"Ġbox":3505,"Ġinc":3506,"password":3507,"ĠCON":3508,"mitted":3509,"Ġpair":3510,"oo":3511,"Ð¾Ð":3512,"Ed":3513,"Ġincrease":3514,"Delta":3515,"Ġdjango":3516,"Index":3517,"Ġentry":3518,"Ġshowed":3519,"91":3520,"ĠAny":3521,"Man":3522,"Ġterm":3523,"istics":3524,"ULT":3525,"Ġoperation":3526,"Ġtimes":3527,"anel":3528,"option":3529,"Ġcontinu":3530,"example":3531,"52":3532,"Ġvi":3533,"Ġobjects":3534,"Ġdefendant":3535,"aly":3536,"cm":3537,"}.":3538,"PL":3539,"VER":3540,"Ġ$$":3541,"Ġparticip":3542,"ilt":3543,"Ġfeatures":3544,"Ġexception":3545,"comple":3546,"ĠTO":3547,"Ġcost":3548,"cores":3549,"Ġincluded":3550,"nap":3551,"Ġlambda":3552,"Ġprom":3553,"Ġcorresponding":3554,"teger":3555,"Ġconsist":3556,"Ad":3557,"Ġrisk":3558,"Ġlanguage":3559,"}$.":3560,"cert":3561,"stand":3562,"Ġderiv":3563,"âĢĲ":3564,"most":3565,"book":3566,"ino":3567,"|\\":3568,"just":3569,"Sub":3570,"Ġalong":3571,"lim":3572,"Ġbel":3573,"sort":3574,"Ġvia":3575,"adding":3576,"cret":3577,"see":3578,"Ġtag":3579,"contain":3580,"meric":3581,"osph":3582,"ĠSet":3583,"Hand":3584,"Ġadded":3585,"Ġreceived":3586,"Ġmove":3587,"Ġben":3588,"irm":3589,"Ġcalcul":3590,"Ġimages":3591,"unity":3592,"operator":3593,"\\*":3594,"Ġyield":3595,"Return":3596,"tage":3597,"Ġsystems":3598,"erc":3599,"Ġestabl":3600,"expected":3601,"]\\]":3602,"();":3603,"untu":3604,"related":3605,"conds":3606,"lood":3607,"Ġrespon":3608,"long":3609,"exists":3610,"ssages":3611,"pool":3612,"SD":3613,"qa":3614,"Ġgover":3615,"Ġsave":3616,"redential":3617,"TO":3618,"aut":3619,"omen":3620,"Ġmulti":3621,"tmp":3622,"Ġgood":3623,"empty":3624,"ung":3625,"vation":3626,"-----":3627,"Box":3628,"ret":3629,"Ġvolume":3630,"61":3631,"Ġtemperature":3632,"Ġ$(":3633,"Ġtum":3634,"Ġhowever":3635,"He":3636,"Ġ'.":3637,"quad":3638,"ony":3639,"RNA":3640,"TE":3641,"Ġfeature":3642,"eral":3643,"Ġbest":3644,"Ġdemon":3645,"grid":3646,"------------------------":3647,"Ġwindow":3648,"Â°":3649,"62":3650,"lex":3651,"Ġmeta":3652,"Ġrule":3653,"Ġconsidered":3654,"ĠWhen":3655,"Ġenvironment":3656,"gre":3657,"iversity":3658,"Ġtuple":3659,"Ġown":3660,"Ġoptim":3661,"author":3662,"ĠTe":3663,"ĊĠĠĠĠĠĠĠĠĠĠĠĠĠĠĠĠĠĠĠĠĠĠĠĠĠĠĠĠĠĠĠĠĠĠĠĠĠĠĠĠĠĠĠĠĠĠĠĠĠĠĠĠĠĠĠĠĠĠĠĠ":3664,"Ġfig":3665,"KE":3666,"unk":3667,"Ġleg":3668,"encies":3669,"ĠArgs":3670,"CD":3671,"ĠGeneral":3672,"reshold":3673,"]{},":3674,"Ġcancer":3675,"ending":3676,"ixt":3677,"Ġdevelopment":3678,"ught":3679,"roller":3680,")).":3681,"Ġdr":3682,"Ġaff":3683,"Ġclose":3684,"fit":3685,"aus":3686,"Ġbelow":3687,"ä¸":3688,"Ġday":3689,"vas":3690,"style":3691,"Ġremove":3692,"entry":3693,"Ġinstall":3694,"Ġoption":3695,"ĊĠĠĠĠĠĠĠĠĊĠĠĠĠĠĠĠ":3696,"char":3697,"Ġsat":3698,"serialize":3699,"ade":3700,"vm":3701,"outh":3702,"Ġnn":3703,"Ã¶":3704,"Ġtests":3705,"Ġdemonstr":3706,"Size":3707,"^*":3708,"82":3709,"ranch":3710,"classes":3711,"81":3712,"SI":3713,"ãģ":3714,"ised":3715,"Ġprimary":3716,"Ġbar":3717,"71":3718,"Ac":3719,"aintiff":3720,"Ġcache":3721,"Ġdays":3722,"etic":3723,"iving":3724,"51":3725,"\").":3726,"Ġsend":3727,"csv":3728,"semb":3729,"ĠCopyright":3730,"Ġgenerated":3731,"ĠĊĠĠĠĠĠĠĠĠĠĠĠĠĠĠĠ":3732,"ession":3733,"RAN":3734,"Ġdig":3735,"Ġreplace":3736,"pu":3737,"Ġwater":3738,"aises":3739,"ped":3740,"Ġpress":3741,"prec":3742,"Ġinputs":3743,"full":3744,"Ġimg":3745,"straint":3746,"leep":3747,"Ġapply":3748,"member":3749,"untime":3750,"ÃŃ":3751,"xx":3752,"Ġpres":3753,"gt":3754,"ales":3755,"Ġtechn":3756,"Ġstates":3757,"meta":3758,"ality":3759,"Ġsupported":3760,"ĠAd":3761,"aa":3762,"------":3763,"Ġsite":3764,"bra":3765,"Ġmemory":3766,"metric":3767,"Ġrot":3768,"Ġmotion":3769,"osition":3770,"Ġconstruct":3771,"ometry":3772,"Ġ</":3773,"Ġresearch":3774,"Ġpatient":3775,"If":3776,"pytest":3777,"Cal":3778,"Client":3779,"Ġmajor":3780,"Ġatta":3781,"orig":3782,"Ġarguments":3783,"Line":3784,"Ġaffect":3785,"chool":3786,"Ġbi":3787,"Ġmolec":3788,"ĠBo":3789,"mote":3790,"Ġamong":3791,"Ġur":3792,"Ġjo":3793,"ĠGet":3794,"norm":3795,"Ġextract":3796,"Ġconfiguration":3797,"Ġhim":3798,"Ġcross":3799,"ae":3800,"Ġvarious":3801,"Ġplaintiff":3802,"Ġdatabase":3803,"apping":3804,"Ġrelations":3805,"DS":3806,".)":3807,"Ġ):":3808,"Ġselected":3809,"izes":3810,"rest":3811,"Ġpas":3812,"Ġdesign":3813,"features":3814,"Ġrender":3815,"ender":3816,"ĊĠĠĠĠĠĠĠĠĠĠĠĠĠĠĠĠĠĠĠĠĠĠĠĠĠĠĠĠĠĠĠĠĠĠĠĠĠĠĠĠĠĠĠĠĠĠĠĠĠĠĠĠĠĠĠĠĠĠĠĠĠ":3817,"++":3818,"All":3819,"Ġcompar":3820,"Ġclinical":3821,"mar":3822,"Ġapi":3823,"\"},":3824,"TTP":3825,"ĠĊĠĠĠĠĠĠĠĠĠĠĠĠĠĠĠĠĠĠ":3826,"Ġexam":3827,"transform":3828,"dt":3829,"Ġphot":3830,"Ġaccording":3831,"Ġinstead":3832,"CP":3833,"Ġparse":3834,"ained":3835,"register":3836,"strict":3837,"Ġsimple":3838,"Ġdiscus":3839,"cos":3840,"Inter":3841,"ĠPublic":3842,"]['":3843,"Ġgenes":3844,"Ġnoqa":3845,"ogen":3846,"ethod":3847,"prov":3848,"acc":3849,"Ġaccept":3850,"icon":3851,"Ġlabels":3852,"iation":3853,"assertTrue":3854,"ĠPat":3855,"RL":3856,"Ġpubl":3857,"Ġtiss":3858,"Ġcontains":3859,"Ġfac":3860,"Ġtransform":3861,"umbers":3862,"Ġart":3863,"tree":3864,"ĠCoun":3865,"ĠThus":3866,"bytes":3867,"Ġrecent":3868,"Ġsyn":3869,"window":3870,"Ġunique":3871,"Ã³":3872,"wide":3873,"where":3874,"CK":3875,"Ġattr":3876,"stop":3877,"orth":3878,"igger":3879,"Ġgran":3880,"Message":3881,"XX":3882,"Ġheight":3883,"Ġmer":3884,"ĠCO":3885,"iddle":3886,"Ġexpress":3887,"________":3888,"Ġupon":3889,"ĠCD":3890,"Ġactive":3891,"Ġcluster":3892,"Ġthread":3893,"(__":3894,"aged":3895,"Char":3896,"Ġ~":3897,"Ġtake":3898,"trics":3899,"'m":3900,"tex":3901,"lan":3902,"Ġexists":3903,"LI":3904,"minal":3905,"era":3906,"Des":3907,"agement":3908,"Ġvector":3909,"ceed":3910,"Ġreturned":3911,"Ġcomponent":3912,"Ġchildren":3913,"aff":3914,"Ġfailed":3915,"Ġdetails":3916,"Dis":3917,"ĠIS":3918,"Int":3919,"DB":3920,"auto":3921,"zeros":3922,"based":3923,"ĠAc":3924,"Ġthus":3925,"]^":3926,"embed":3927,"dated":3928,"Ġstop":3929,"Ġapplied":3930,"ĠAss":3931,"Ġerr":3932,"######":3933,"td":3934,"HT":3935,"Ġintern":3936,"Ġdifference":3937,"osp":3938,"olean":3939,"Ġyear":3940,"Ġrad":3941,"ixel":3942,"enses":3943,"onal":3944,"ï¼":3945,"ithub":3946,"}(\\":3947,"Ġthird":3948,"Ġapproach":3949,"Ġshows":3950,"arr":3951,"ĠAPI":3952,"offset":3953,"ards":3954,"username":3955,"issing":3956,"gorithm":3957,"dump":3958,"'\\":3959,"ript":3960,"ĠBy":3961,"prob":3962,"CS":3963,"limit":3964,"gex":3965,"ĊĠĠĠĠĠĠĠĠĠĠĠĠĠĠĠĠĠĠĠĠĠĠĠĠĠĠĠĠĠĠĠĠĠĠĠĠĠĠĠĠĠĠĠĠĠĠĠĠĠĠĠĠĠĠĠĠĠĠĠĠĠĠ":3966,"Ġpopulation":3967,"Ġ||":3968,"FT":3969,"abil":3970,"Ġevents":3971,"Ġenumer":3972,"ĠĠĊĠ":3973,"hent":3974,"Ġradi":3975,"expr":3976,"score":3977,"Ġactual":3978,"Ġfit":3979,"Ġmuch":3980,"Ġconstant":3981,"itional":3982,"PR":3983,"mega":3984,"ATION":3985,"Ġ'-":3986,"ategy":3987,"ired":3988,"pred":3989,"headers":3990,"Ġscre":3991,"Ġacid":3992,"ĠDist":3993,"*.":3994,"apy":3995,"Ġcmd":3996,"seq":3997,"Ġcat":3998,"Ġdensity":3999,"year":4000,"Ġattribute":4001,"\",\"":4002,"Ġhome":4003,"manager":4004,"Ġdone":4005,"Ġconver":4006,"EM":4007,"case":4008,"rangle":4009,"Ġerrors":4010,"Ġproces":4011,"ĠĊĠĠĠ":4012,"Ġscript":4013,"Ġuntil":4014,"display":4015,"Ġpeople":4016,"Ġtemplate":4017,"ĠDict":4018,"web":4019,"ube":4020,"Ġdetermine":4021,"psilon":4022,"mi":4023,"predict":4024,"layers":4025,"ĠCheck":4026,"istry":4027,"Date":4028,"laint":4029,"alf":4030,"\\])":4031,"aced":4032,"'''":4033,"rypt":4034,"Ġraw":4035,"Ġtherefore":4036,"Ġkernel":4037,"Tra":4038,"gu":4039,"Ġacc":4040,"Ġ21":4041,"Ġ(\\[":4042,"Ġdev":4043,"rup":4044,"Ġ40":4045,"Ġreturns":4046,"vec":4047,"wait":4048,"eval":4049,"Ġpytest":4050,"Ġpattern":4051,"Ġrecor":4052,"Ġproced":4053,"lation":4054,"Ġexc":4055,"Ġcoding":4056,"ience":4057,"Ġmig":4058,"QL":4059,"Ġdetermined":4060,"ĠĠĠĊĠ":4061,"Ġ60":4062,"Ġlik":4063,"Ġgenerate":4064,"hentic":4065,"epsilon":4066,"ignment":4067,"cker":4068,"Ġpackage":4069,"Ġdistrict":4070,"Ġ32":4071,"dri":4072,"ĠSuppose":4073,"columns":4074,"Ġ[*":4075,"\\'":4076,"Ġâ":4077,"Ġinvention":4078,"access":4079,"Ġcontra":4080,"etition":4081,"public":4082,"ĠEn":4083,"chi":4084,"Do":4085,"`,":4086,"Att":4087,"Ġaverage":4088,"Ġclear":4089,"Ã§":4090,"\");":4091,"Ġsequ":4092,"psi":4093,"Ġhyp":4094,"Ġstd":4095,"den":4096,"groups":4097,"*~":4098,"->":4099,"Button":4100,"fail":4101,"Ġspecies":4102,"ĠUser":4103,"tok":4104,"more":4105,"sv":4106,"Ġitems":4107,"Ġmice":4108,"Ġforce":4109,"ours":4110,"pay":4111,"scope":4112,"itt":4113,"ĊĠĠĠĠĠĠĠĠĠĠĠĠĠĠĠĠĠĠĠĠĠĠĠĠĠĠĠĠĠĠĠĠĠĠĠĠĠĠĠĠĠĠĠĠĠĠĠĠĠĠĠĠĠĠĠĠĠĠĠĠĠĠĠ":4114,"profile":4115,"Ġnodes":4116,"connection":4117,"Ġ''":4118,"Ġsrc":4119,"omic":4120,"ove":4121,"Ġdoc":4122,"Ġheaders":4123,"ĠInc":4124,".')":4125,"ĠAct":4126,"button":4127,"âĢĥ":4128,"allen":4129,"chang":4130,"MM":4131,"ĠUniversity":4132,"^[@":4133,"ulate":4134,"ĠIs":4135,"Te":4136,"ĠDo":4137,"tags":4138,"ĠInter":4139,"Ġmus":4140,"ĠWAR":4141,"Ġsix":4142,"Ġnegative":4143,"izing":4144,"ocy":4145,"Ġmedi":4146,"execute":4147,"Ġ22":4148,"Ġkeep":4149,"element":4150,"Ġparam":4151,"Ġelectro":4152,"}}$":4153,"annot":4154,"Ġnucle":4155,"Ġrequires":4156,"js":4157,"pair":4158,"stract":4159,"ĠMore":4160,"Per":4161,"uccess":4162,"Ġstrong":4163,"Ġ\"/":4164,"Ġ'%":4165,"serial":4166,"Ġindependent":4167,"Ġsure":4168,"custom":4169,"ores":4170,"Ġseries":4171,"Ġsetup":4172,"mal":4173,"Ġctx":4174,"common":4175,"Ġword":4176,"Ġperformance":4177,"Ġfrequency":4178,"help":4179,"ITY":4180,"compon":4181,"Pre":4182,"ĠThen":4183,"Ġapproxim":4184,"numpy":4185,"greg":4186,"Ġagree":4187,"Image":4188,"schema":4189,"timeout":4190,"Ġbio":4191,"allel":4192,"dec":4193,"pid":4194,"ORT":4195,"Ġgive":4196,"Sec":4197,")-":4198,",\"":4199,"ĠPython":4200,"IO":4201,"Ġstream":4202,"isf":4203,"Ġdynam":4204,"epoch":4205,"Ġconv":4206,"Ġdraw":4207,"ulations":4208,"ĠId":4209,"dest":4210,"Ġeas":4211,"channels":4212,"report":4213,"GG":4214,"Ġscore":4215,"Module":4216,"Ġ28":4217,"Ġsen":4218,"ĠNe":4219,"Ġnote":4220,"RA":4221,"ising":4222,"Ġzero":4223,"pulumi":4224,"Ġ----------":4225,"ula":4226,"At":4227,"Ġcard":4228,"ymbol":4229,"PRO":4230,"ĠCor":4231,"Ġratio":4232,"Ġempty":4233,"jection":4234,"ĠParameters":4235,"Ġfollows":4236,"Ent":4237,"Ġauto":4238,"uted":4239,"Ġpolicy":4240,"Service":4241,"ĠNote":4242,"Ġautom":4243,"ĠANY":4244,"handler":4245,"ĠĊĠĠĠĠĠĠĠ":4246,"QU":4247,"']:":4248,"Ġfib":4249,")$.":4250,").__":4251,"Ġenumerate":4252,"mg":4253,"Ġpract":4254,"Ġblood":4255,"PC":4256,"Ġcult":4257,"drop":4258,"record":4259,"udio":4260,"čĊčĊĠĠĠĠĠĠĠ":4261,"00000000":4262,"rad":4263,"istance":4264,"abor":4265,"rows":4266,"ialog":4267,"bt":4268,"vals":4269,"Ġregard":4270,"PAT":4271,"ilder":4272,"Ġaround":4273,"tab":4274,"ĠĠĠĠĊĠ":4275,"omin":4276,"usr":4277,"Ġtimeout":4278,"ney":4279,"ĠCir":4280,"Ġturn":4281,"With":4282,"čĊĉĉ":4283,"itution":4284,"Ġgame":4285,".\\":4286,"Ġcorrel":4287,"Ġpresence":4288,"ĊĊĊĠĠĠ":4289,"ĠDE":4290,"Ġgrad":4291,"Ġsplit":4292,"Ġansw":4293,"Ġcomponents":4294,"Pl":4295,"sql":4296,"Ġcertain":4297,"ĠTherefore":4298,"SC":4299,"eter":4300,"chie":4301,"Ġrest":4302,"real":4303,"Ġ\"\\":4304,"ÏĦ":4305,"Ġdistance":4306,"Ġmetadata":4307,"ĠPer":4308,"Ġidentified":4309,"properties":4310,"this":4311,"Ġcourse":4312,"ression":4313,"Oper":4314,"ĊĠĠĠĠĠĠĠĠĠĠĠĠĠĠĠĠĠĠĠĠĠĠĠĠĠĠĠĠĠĠĠĠĠĠĠĠĠĠĠĠĠĠĠĠĠĠĠĠĠĠĠĠĠĠĠĠĠĠĠĠĠĠĠĠ":4315,"'][":4316,"Gamma":4317,"Ġpaper":4318,"ubuntu":4319,"Ġnecessary":4320,"itory":4321,"required":4322,"Ġ23":4323,"Ġreduced":4324,"iform":4325,"Ġinj":4326,"Status":4327,"uk":4328,"It":4329,"ART":4330,"ATA":4331,"skip":4332,"lor":4333,"URL":4334,"Ġanti":4335,"ste":4336,"Ġcolumns":4337,"Ġfamily":4338,"solute":4339,"Ġpred":4340,"Create":4341,"setup":4342,"uuid":4343,"Array":4344,"Ġmaint":4345,"Ġtree":4346,"policy":4347,"Ġdirection":4348,"light":4349,"raises":4350,"Omega":4351,"ĠâĪĴ":4352,"plementary":4353,"Suppose":4354,"SON":4355,"501":4356,"coun":4357,"App":4358,"Ġproduction":4359,"Code":4360,"ĠST":4361,"Ġverbose":4362,"entity":4363,"ĠFurther":4364,"folder":4365,"Ġfunc":4366,"redentials":4367,"Ġtrack":4368,"Ġresp":4369,"AGE":4370,"Ġrunning":4371,"gether":4372,"Gener":4373,"edge":4374,"ĊĊĠĠĠĠĠ":4375,"ands":4376,"Ġmaximum":4377,"Ġable":4378,"ology":4379,"FAULT":4380,"stats":4381,"Ġmember":4382,"cour":4383,"Ġdecl":4384,"github":4385,"Ġweb":4386,"Ġsage":4387,"Ġprovides":4388,"ĠDefault":4389,"control":4390,"edit":4391,"ĠDNA":4392,"Ġderivative":4393,"Ġcoll":4394,"/{":4395,"ABLE":4396,"Ġutil":4397,"Ġ',":4398,"Bo":4399,"ypes":4400,"Ġ[[":4401,"ĠĠĠĠĠĊĠ":4402,"Ġgrowth":4403,"Ġneeded":4404,"Run":4405,"wd":4406,"ronic":4407,"){#":4408,"ograph":4409,"TYPE":4410,"ixture":4411,"GF":4412,"Ġfixed":4413,"Ġlinear":4414,"ber":4415,"ighb":4416,"rule":4417,"Ġintro":4418,")=":4419,"reed":4420,"Ġproper":4421,"nan":4422,"igen":4423,"ĠLo":4424,"Ġantib":4425,"Ġ'--":4426,"comes":4427,"Ġcoordin":4428,"uint":4429,"lat":4430,"Ġembed":4431,"ront":4432,"rank":4433,"Ġbetter":4434,"Ġdirectly":4435,"Ġpresented":4436,"Ġloop":4437,"*(":4438,"Ġcontact":4439,"application":4440,"andid":4441,"Ġpassed":4442,"ctx":4443,"Ġ::":4444,"soft":4445,"llant":4446,"center":4447,"Ġalways":4448,"TestCase":4449,"ocal":4450,"utions":4451,"Ġaccur":4452,"ĠPhys":4453,"Ġrec":4454,"Si":4455,"Handler":4456,"ips":4457,"SP":4458,"From":4459,"cfg":4460,"ood":4461,"Ġrequests":4462,"Ġtran":4463,"draw":4464,"assertR":4465,"Ġuseful":4466,"ĠAfter":4467,"starts":4468,"Ġstyle":4469,"queue":4470,"wards":4471,"Ġdimension":4472,"thread":4473,"exit":4474,"acity":4475,"Ġpassword":4476,"DI":4477,"Ġhydro":4478,"Context":4479,"Fe":4480,"__,":4481,"Py":4482,"ĊĠĠĠĠĠĠĠĠĠĠĠĠĠĠĠĠĠĠĠĠĠĠĠĠĠĠĠĠĠĠĠĠĠĠĠĠĠĠĠĠĠĠĠĠĠĠĠĠĠĠĠĠĠĠĠĠĠĠĠĠĠĠĠĠĠ":4483,"indices":4484,"Ġjudgment":4485,"Ġ[**":4486,"Ġidx":4487,"Of":4488,"tests":4489,"Window":4490,"cr":4491,"netic":4492,"chat":4493,"Ġrelationship":4494,"ĠFe":4495,"Ġalle":4496,"ĠAmeric":4497,"('/":4498,"Ã£":4499,"NO":4500,"weights":4501,"0001":4502,"ĠQu":4503,"Ġir":4504,"ĠĠĠĠĠĠĊĠ":4505,"Ġearly":4506,"===":4507,"\"][\"":4508,"ĠAnd":4509,"Ġvir":4510,"span":4511,"Ġfore":4512,"argin":4513,"Ġmeasured":4514,"Ġ\"\"":4515,"Ġput":4516,"iqu":4517,"car":4518,"lems":4519,"Ġspecial":4520,"Ġenter":4521,"ĠCreate":4522,"Count":4523,"Fact":4524,"fin":4525,"Ġkeys":4526,"ĠOne":4527,"chine":4528,"gy":4529,"Ġair":4530,"Ġwave":4531,"Reg":4532,"Ġbehavior":4533,"Ġcenter":4534,"Ġide":4535,"DA":4536,"pg":4537,"samples":4538,"states":4539,"Ġbasis":4540,"rec":4541,")**":4542,"rapper":4543,"lections":4544,"ĠMe":4545,"Ġ?":4546,"čĊĠ":4547,"Ġactivation":4548,"material":4549,"vare":4550,"Ġdifferences":4551,"lig":4552,"ĠKey":4553,"Ġexisting":4554,"vered":4555,"ocial":4556,"ram":4557,"API":4558,"Ġinfe":4559,"ĠĠĠĠĠĠĠĊĠ":4560,"cd":4561,"Ġdictionary":4562,"Ġcollection":4563,"words":4564,"assertRaises":4565,"sequence":4566,"ĠString":4567,"Ġ\".":4568,"ledge":4569,":]":4570,"****************":4571,"hesis":4572,"ĠQt":4573,"Ġdisable":4574,"fill":4575,"/(":4576,"002":4577,"Ġinteger":4578,"null":4579,"aml":4580,"Ġdevices":4581,"uda":4582,"Sp":4583,"ĠTODO":4584,"isms":4585,"Ġcomplete":4586,"ĠTHE":4587,"enter":4588,"activ":4589,"ĠWARRAN":4590,"su":4591,"Ġdoesn":4592,"ĠWIT":4593,"aries":4594,"DIR":4595,"ĠAppe":4596,"Ġplan":4597,"omy":4598,"ĠSub":4599,"bi":4600,"Ġedge":4601,"Ġoperator":4602,"callback":4603,"feature":4604,"^+":4605,"('--":4606,"Ġpreviously":4607,"global":4608,"zero":4609,"=['":4610,"levant":4611,"Ġassess":4612,"else":4613,"Rec":4614,"term":4615,"Ġ\\<":4616,"Ġfew":4617,"curity":4618,"Element":4619,"Ġimprove":4620,"rie":4621,"force":4622,"errors":4623,"Ġmath":4624,"ament":4625,"Ġpressure":4626,"layout":4627,"istration":4628,"Ġ'\\":4629,"ĠĠĠĠĠĠĠĠĊĠ":4630,"}=":4631,"Ġusers":4632,"rightarrow":4633,"Ġhandle":4634,"click":4635,"Ġproteins":4636,"oken":4637,"Î¿":4638,"Ġseem":4639,"Ġoffset":4640,"effect":4641,"Ġfeed":4642,"Ġachie":4643,"ĊĠĠĠĠĠĠĠĠĠĠĠĠĠĠĠĠĠĠĠĠĠĠĠĠĠĠĠĠĠĠĠĠĠĠĠĠĠĠĠĠĠĠĠĠĠĠĠĠĠĠĠĠĠĠĠĠĠĠĠĠĠĠĠĠĠĠ":4644,"Ġcv":4645,"Ġcontract":4646,"aled":4647,")$,":4648,"Ġhist":4649,"volume":4650,"Ġsetting":4651,"Ġprevent":4652,"win":4653,"Ġtoo":4654,"ĠCan":4655,"Ġsymbol":4656,"orem":4657,"itation":4658,"Resource":4659,"Ġeffective":4660,"bound":4661,"diff":4662,"raft":4663,"Ġtmp":4664,"Ð°Ð":4665,"handle":4666,"Ġwait":4667,"ba":4668,"âĶ":4669,"Ġstorage":4670,"encode":4671,"Ġip":4672,"Ġunits":4673,"Ġattemp":4674,"ustr":4675,"Ġ((":4676,"Ġcr":4677,"lying":4678,"optim":4679,"vars":4680,"ĠURL":4681,"Ġstri":4682,"Ġvers":4683,"varepsilon":4684,"vision":4685,"Ġviol":4686,"iding":4687,"Ġgreater":4688,"Ġmis":4689,"kg":4690,"Ġprogress":4691,"Ġunderstand":4692,"NS":4693,"Ġnet":4694,"prop":4695,"CONF":4696,"Ġoften":4697,"zone":4698,"Ġpercent":4699,"cluster":4700,"stat":4701,"Ġscreen":4702,"FL":4703,"Ġfast":4704,"ĠTrans":4705,"png":4706,"decode":4707,"ĠĠĠĠĠĠĠĠĠĊĠ":4708,"anner":4709,"Ġworks":4710,"circ":4711,"Wh":4712,"Ġclean":4713,"iver":4714,"andas":4715,"Ġallowed":4716,"ĠName":4717,"256":4718,"Ġdir":4719,"Ġsymp":4720,"ball":4721,"KEY":4722,"Address":4723,"ĠII":4724,"Call":4725,"uses":4726,"ĠBe":4727,"future":4728,"ĠSystem":4729,"Ġcore":4730,"Ġarch":4731,"Ġinflu":4732,"fully":4733,"Ġdeath":4734,"pad":4735,"Ġinterface":4736,"han":4737,"astic":4738,"images":4739,"You":4740,"tax":4741,"ĊĊĉ":4742,"ymp":4743,"Î¹":4744,"rum":4745,"Ġprec":4746,"RI":4747,"\"].":4748,"_(":4749,"font":4750,"include":4751,"Ġprofile":4752,"FO":4753,"unch":4754,"bal":4755,"Cur":4756,"rency":4757,"ĠApp":4758,"steps":4759,"imer":4760,"Command":4761,"Ġoutputs":4762,"Ġdelete":4763,"ĠGNU":4764,"Ġappropri":4765,"uri":4766,"docs":4767,"alysis":4768,"clus":4769,"Ġregister":4770,"ked":4771,"============":4772,"Ġfalse":4773,"operatorname":4774,"aved":4775,"kes":4776,"Ġprefix":4777,"Ġer":4778,"Qt":4779,"faces":4780,"linear":4781,"Ġbenef":4782,"amil":4783,"Ġsatisf":4784,"=-":4785,"iler":4786,"ĠĠĠĠĠĠĠĠĠĠĊĠ":4787,"Ġdecision":4788,"seed":4789,"\\,":4790,"Ġ26":4791,"Ġseen":4792,"ĠDis":4793,"addr":4794,"support":4795,"Ġnumer":4796,"Map":4797,"Ġforward":4798,"IONS":4799,"ĠNOT":4800,"Ġbytes":4801,"Ġworking":4802,"derr":4803,"chain":4804,"BU":4805,"Ġoffic":4806,"Number":4807,"Ġmembers":4808,"Ġlar":4809,"coding":4810,"arest":4811,"oriz":4812,"Ġbit":4813,"tre":4814,"tml":4815,"ĠInd":4816,"allow":4817,"startswith":4818,"ued":4819,"mag":4820,"ĊĠĠĠĠĠĠĠĠĠĠĠĠĠĠĠĠĠĠĠĠĠĠĠĠĠĠĠĠĠĠĠĠĠĠĠĠĠĠĠĠĠĠĠĠĠĠĠĠĠĠĠĠĠĠĠĠĠĠĠĠĠĠĠĠĠĠĠ":4821,"ira":4822,"environ":4823,"ĠPol":4824,"Ġemail":4825,"nment":4826,"varphi":4827,"BS":4828,")^":4829,"Ġnumbers":4830,"Ġdivided":4831,"Ġdiagn":4832,"geq":4833,"ĠMy":4834,"ĠTable":4835,"Ġill":4836,"Ġcircuit":4837,"Ġ\"%":4838,"site":4839,"Ġ^":4840,"Ġ'_":4841,"timestamp":4842,"clusion":4843,"\\].":4844,"ĠFile":4845,"Ġexpect":4846,"Ġprotocol":4847,"Ġrather":4848,"outputs":4849,"abol":4850,"Ġutf":4851,"insert":4852,"\"{":4853,"Ġsaid":4854,"asic":4855,"ĠMed":4856,"Ġ-------":4857,"Ġinvolved":4858,"prote":4859,"Ġsorted":4860,"Ġcompute":4861,"Manager":4862,"Ġisol":4863,"[^":4864,"ĠInst":4865,"\\<":4866,"px":4867,"loop":4868,"sole":4869,"ĠAtt":4870,"buffer":4871,"after":4872,"Ġ27":4873,"ayers":4874,"hest":4875,"sin":4876,"cular":4877,"Output":4878,"gument":4879,"bon":4880,"Ġalpha":4881,"čĊĉ":4882,"Ġwar":4883,"Point":4884,"GET":4885,"Ext":4886,"Ġchem":4887,"Ġinsert":4888,"Ġrecept":4889,"symbol":4890,"Ġacross":4891,"storage":4892,"Ġmissing":4893,"Ġtags":4894,"DR":4895,"ttp":4896,"initial":4897,"Ġstim":4898,"Ġconvert":4899,"BA":4900,"Ġartic":4901,"Layout":4902,"login":4903,"CM":4904,"ĠPre":4905,"Ġzip":4906,"uter":4907,"SU":4908,"Ġpublished":4909,"sd":4910,"Ġ\",":4911,"amount":4912,"Ġdiffic":4913,"called":4914,"ĠSince":4915,"ĠDes":4916,"Ġcarri":4917,"Ġstage":4918,"Ġphysical":4919,"Ġsus":4920,"napsh":4921,"Ġexact":4922,"And":4923,"PATH":4924,"Ġcrit":4925,"ĠĠĠĠĠĠĠĠĠĠĠĊĠ":4926,"compute":4927,"Ġtreated":4928,"Ġlikely":4929,"agent":4930,"Parser":4931,"overline":4932,"Ġchain":4933,"ĊĊĊ":4934,"roph":4935,"Ġsummary":4936,"Valid":4937,"efore":4938,"SH":4939,"bre":4940,"Ġtaken":4941,"urb":4942,"Ġrelease":4943,"Ġfailure":4944,"LA":4945,"Spec":4946,"ĠReg":4947,"ĠCont":4948,"Ġtissue":4949,"Ġpul":4950,"Ġrepe":4951,"rome":4952,"}_{\\":4953,"ospital":4954,"Ġlife":4955,"Ġagent":4956,"Color":4957,"avor":4958,"Î¼":4959,"cpu":4960,"Ġreve":4961,"Ġtw":4962,"Ġencoding":4963,"Ġanswer":4964,"Ġimmun":4965,"Ġvert":4966,"Ġinterpre":4967,"Ġfindings":4968,"attribute":4969,"^{(":4970,"zip":4971,"Ġhistory":4972,"ĠSp":4973,"~~~~":4974,"References":4975,"###":4976,"Action":4977,"SER":4978,"extend":4979,"Ġhasattr":4980,"Ġsmo":4981,"Ġneeds":4982,"alk":4983,"ha":4984,"zed":4985,"quare":4986,"directory":4987,"category":4988,"ley":4989,"reme":4990,"ĠMan":4991,"Ġprivate":4992,"rane":4993,"gments":4994,"Ġvs":4995,"Instance":4996,"Ġbuffer":4997,"ios":4998,"imes":4999,"loads":5000,"Ġdefinition":5001,"role":5002,"ools":5003,"cop":5004,"validate":5005,"flags":5006,"Ġupper":5007,"ocus":5008,"Ġclasses":5009,"Ġdetected":5010,"Ġrestrict":5011,"Ġfuture":5012,"pare":5013,"azure":5014,"ĊĠĠĠĠĠĠĠĠĠĠĠĠĠĠĠĠĠĠĠĠĠĠĠĠĠĠĠĠĠĠĠĠĠĠĠĠĠĠĠĠĠĠĠĠĠĠĠĠĠĠĠĠĠĠĠĠĠĠĠĠĠĠĠĠĠĠĠĠ":5015,"}^{\\":5016,"oms":5017,"Ġcoe":5018,"Ġmonths":5019,"Ġappear":5020,"users":5021,"Ġgrid":5022,"bm":5023,"rl":5024,"Fl":5025,"Ġexperiments":5026,"Ġtyping":5027,"rong":5028,"}\"":5029,"Filter":5030,"Ġnat":5031,"iting":5032,"Ġphen":5033,"langle":5034,"ĠGe":5035,"Ġwriting":5036,"Ġtransport":5037,"track":5038,"Ġlinks":5039,"iness":5040,"cloud":5041,"Ġweights":5042,"Ġincreasing":5043,"]):":5044,"Ġmatter":5045,"alled":5046,"Ġrights":5047,"iency":5048,"orizon":5049,"Ġspeed":5050,"âĸ":5051,"ĠCar":5052,"Label":5053,"Ġreverse":5054,"Ġsubstant":5055,"ĠUp":5056,"Ġimplied":5057,"čĊĠĠĠĠĠĠĠĠĠĠĠĠĠĠĠĠĠĠĠ":5058,"tick":5059,":\\":5060,"Ġsomething":5061,"INT":5062,"Ġ'__":5063,"Ġsufficient":5064,"Ġlimited":5065,"Ġbinding":5066,"PU":5067,"Ġtheory":5068,"Ġcalculated":5069,"Ġdefine":5070,"Ġrecogn":5071,"Ġalgorithm":5072,"Ġvideo":5073,"Ġotherwise":5074,"%(":5075,"Ġfun":5076,"Ġgetattr":5077,"Ġcoup":5078,"Ġproposed":5079,"VAL":5080,"dimension":5081,"ĠPath":5082,"Ġbackground":5083,"dule":5084,"]],":5085,"Ġresulting":5086,"Ġthink":5087,"Ġtesting":5088,".'":5089,"Ġsql":5090,"ĠThey":5091,"ACK":5092,"spe":5093,"mot":5094,"apter":5095,"ALL":5096,"home":5097,"extra":5098,"enced":5099,"Ġampl":5100,"Ġquality":5101,"Ġinternal":5102,"Ã¦":5103,"staticmethod":5104,"Ġprime":5105,"ĠSoftware":5106,"PA":5107,"Ġpadding":5108,"reen":5109,"ado":5110,"clear":5111,",-":5112,"safe":5113,"urope":5114,"modules":5115,"Block":5116,"endants":5117,"generate":5118,"Ġprocessing":5119,"LECT":5120,"hidden":5121,"licenses":5122,"dates":5123,"Ġ(\\":5124,"ributions":5125,"multi":5126,"ctors":5127,"uest":5128,"ders":5129,"Ġhom":5130,"Ġfem":5131,"HOUT":5132,"Ġcommunic":5133,"Ġexper":5134,"tk":5135,"ĠExample":5136,"ateway":5137,"Ġchanged":5138,"factory":5139,"SO":5140,"Ġadvan":5141,"Ġaltern":5142,"Me":5143,"success":5144,"Ġ29":5145,"Ġdrop":5146,"game":5147,"reshape":5148,"widget":5149,"Ġfont":5150,"tools":5151,"ĠUnion":5152,"Ġproblems":5153,"ifi":5154,"DER":5155,"ief":5156,"Ġtumor":5157,"Method":5158,"Ġsil":5159,"Ġtogether":5160,"Ġconcentration":5161,"Content":5162,"tach":5163,"IF":5164,"neg":5165,"Ġstatic":5166,"}}_":5167,"itro":5168,"erved":5169,"Ġincludes":5170,"appro":5171,"åı":5172,"install":5173,"Ġbus":5174,"ROM":5175,"warning":5176,"Ġauthors":5177,"Ġskip":5178,"Ġcommit":5179,"Ġreduction":5180,"anc":5181,"Ġprop":5182,"Ġ(**":5183,"Ġ\\,":5184,"Ġplas":5185,"Ġdeveloped":5186,"va":5187,"desc":5188,"ĊĠĠĠĠĠĠĠĠĠĠĠĠĠĠĠĠĠĠĠĠĠĠĠĠĠĠĠĠĠĠĠĠĠĠĠĠĠĠĠĠĠĠĠĠĠĠĠĠĠĠĠĠĠĠĠĠĠĠĠĠĠĠĠĠĠĠĠĠĠ":5189,"Big":5190,"PT":5191,"Ġri":5192,"pped":5193,"Ġgenerally":5194,"vs":5195,"master":5196,"255":5197,"GL":5198,"Ġregions":5199,"strument":5200,"Ã£o":5201,"Ġtax":5202,"ional":5203,"Ġwomen":5204,"paths":5205,"Ġlate":5206,"128":5207,"fetch":5208,"Ġwritten":5209,"specific":5210,"Ġcallback":5211,"Net":5212,"Ġconstra":5213,"End":5214,"004":5215,"Ġhyper":5216,"compile":5217,"ĠRo":5218,"ians":5219,"amera":5220,"ĠDep":5221,"HER":5222,"ario":5223,"Ġband":5224,"Ġox":5225,"Function":5226,"zz":5227,"Ġveh":5228,"ĠBut":5229,"Ġred":5230,"Ġtool":5231,"uplic":5232,"Ġavoid":5233,"aneous":5234,"Ġindices":5235,"005":5236,"udo":5237,"sf":5238,"Ġidentify":5239,"ĠConfig":5240,"ĠOb":5241,"Ġmac":5242,"DF":5243,"ĠĠĠĠĠĠĠĠĠĠĠĠĊĠ":5244,"free":5245,"Ġappropriate":5246,"quant":5247,"vey":5248,"Ġremoved":5249,"Ġstack":5250,"Act":5251,"Ġ----------------------------------------------------------------":5252,"CharField":5253,"lint":5254,"oph":5255,"Ġoperations":5256,"lap":5257,"MB":5258,"voc":5259,"AND":5260,"Ġsurv":5261,"ĠTypeError":5262,"Ġuses":5263,"ĠWith":5264,"Ġequation":5265,"sible":5266,")+":5267,"Ġapplicable":5268,"Ġenable":5269,"factor":5270,"003":5271,"ĠWITHOUT":5272,"GR":5273,"resses":5274,"Options":5275,"Ġchallen":5276,"mid":5277,"Ġprinc":5278,"equ":5279,"Ġbutton":5280,"ducing":5281,"EC":5282,"Ġsym":5283,"Ġetc":5284,"Hel":5285,"Ġtx":5286,"ws":5287,"ĠEng":5288,"Ġinteraction":5289,"Ġprocesses":5290,"Version":5291,"Ġrelevant":5292,"Ġsitu":5293,"Ġfill":5294,"Ġconnected":5295,"Ġ--------------------------------":5296,"Ġhard":5297,"Ġformation":5298,"contrib":5299,"sur":5300,"utor":5301,"Ġtransfer":5302,"Ġ=>":5303,"ĠModel":5304,"los":5305,"Ġclaims":5306,"hs":5307,"Ð»":5308,"rot":5309,"Ġengine":5310,"uler":5311,"rag":5312,"}}(":5313,"Ġdegree":5314,"Ġhash":5315,"google":5316,"loader":5317,"Ġintra":5318,"(['":5319,"she":5320,"dr":5321,"allet":5322,"parameter":5323,"ining":5324,"ENSE":5325,"Ġpad":5326,"Ġgas":5327,"Ġentire":5328,"Ġadjust":5329,"hook":5330,"FOR":5331,"ĠLO":5332,"Ġextension":5333,"clean":5334,"irmed":5335,"price":5336,"ĠFirst":5337,"Mode":5338,"Ġdetection":5339,"Ġcategory":5340,"Ġonce":5341,"container":5342,"ĠĠĠĠĠĠĠĠĠĠĠĠĠĊĠ":5343,"aging":5344,"Ġsm":5345,"]+":5346,"warn":5347,"Ġpanel":5348,"artment":5349,"\":\"":5350,"fc":5351,"Ġlimitations":5352,"plicit":5353,"frak":5354,"ĠAND":5355,"appa":5356,"Ġwarn":5357,"Ġ\"--":5358,"How":5359,"Ġlayers":5360,"Ġhtml":5361,"ĠPl":5362,"Ġ1000":5363,"vector":5364,"ĠSpec":5365,"Ġfilm":5366,"dims":5367,"ĊĠĠĠĠĠĠĠĠĠĠĠĠĠĠĠĠĠĠĠĠĠĠĠĠĠĠĠĠĠĠĠĠĠĠĠĠĠĠĠĠĠĠĠĠĠĠĠĠĠĠĠĠĠĠĠĠĠĠĠĠĠĠĠĠĠĠĠĠĠĠ":5368,"Ġfollowed":5369,"Ge":5370,"Source":5371,"Ġlarger":5372,"LIC":5373,"ROR":5374,"Query":5375,"So":5376,"Ġpeak":5377,"none":5378,"construct":5379,"cons":5380,"aining":5381,"Ġeffic":5382,"'re":5383,"Ġentity":5384,"trace":5385,"classmethod":5386,"Ġgot":5387,"Ġfix":5388,"Ġnan":5389,"summary":5390,"Ġutils":5391,"ĠFOR":5392,"Ġheld":5393,"Ġbegin":5394,"Ġfive":5395,".âĢĿ":5396,"Ġrefer":5397,"_,":5398,"ASS":5399,"Ġinside":5400,"(**":5401,"Ġpool":5402,"tuple":5403,"Ct":5404,"render":5405,"conn":5406,"commit":5407,"Ġreduce":5408,"Ġmetric":5409,"################################################################":5410,"ĠĠĠĠĠĠĠĠĠĠĠĠĠĠĊĠ":5411,"Ġphosph":5412,"organ":5413,"cription":5414,"Ġregular":5415,"ĠDistrict":5416,"convert":5417,"ĠÎ¼":5418,"Start":5419,"IND":5420,"Ġparts":5421,"Ġwords":5422,"Ġequival":5423,"[\\":5424,"Ġtrace":5425,"icity":5426,"och":5427,"ĠFound":5428,"Ġappeal":5429,"ãĤ":5430,"Î½":5431,"Ġassume":5432,"Ġmodify":5433,"hood":5434,"oring":5435,"WAR":5436,"card":5437,"ĠAm":5438,"Ġcontainer":5439,"ĠVersion":5440,"redu":5441,"OO":5442,"ĠVal":5443,"Mult":5444,"Ġobserv":5445,"Ġworld":5446,"Ġseed":5447,"enabled":5448,"Ġbin":5449,"Default":5450,"hol":5451,"Ġfunctional":5452,"cuda":5453,"comb":5454,"gb":5455,"Ġdie":5456,"My":5457,"Ġdesc":5458,"ĠBase":5459,"tol":5460,"Ġexpressed":5461,"Ġang":5462,"ryst":5463,"scal":5464,"Ġ----------------":5465,"ev":5466,"ĠInt":5467,"Ġproduced":5468,"ĠIP":5469,"stdout":5470,"#!":5471,"rays":5472,"Ġsteps":5473,"Ġ64":5474,"Ġdebug":5475,"\"\\":5476,"align":5477,"ummy":5478,"Met":5479,"CI":5480,"ensed":5481,"Ġservices":5482,"aves":5483,"ancel":5484,"reset":5485,"aj":5486,"sleep":5487,"ategories":5488,"\\],":5489,"pb":5490,"END":5491,"Ġima":5492,"Column":5493,"Ġstress":5494,"Ġdrug":5495,"ĠSim":5496,"Ġsynt":5497,"mpling":5498,"thyl":5499,"ĠMay":5500,"]\\],":5501,"Ġnearest":5502,"Ġcut":5503,"Ġpermissions":5504,"ropy":5505,"Ġ31":5506,"Ġcriter":5507,"prime":5508,"Process":5509,"kernel":5510,"Ġprobability":5511,"Ġlack":5512,"Ġattributes":5513,"INE":5514,"Ġrates":5515,"Ġann":5516,"Ġdisk":5517,"correct":5518,"çļ":5519,"Invalid":5520,"Ġdeli":5521,"Ġindicated":5522,"leted":5523,"Îµ":5524,"Attribute":5525,"Ġmen":5526,"ica":5527,"thers":5528,"Ġimpact":5529,"cut":5530,"Ġsets":5531,"ifest":5532,"1000":5533,"Ġhar":5534,"Ġbias":5535,"Ġforms":5536,"pipeline":5537,"iot":5538,"Ġsubstr":5539,"ĊĠĠĠĠĠĠĠĠĠĠĠĠĠĠĠĠĠĠĠĠĠĠĠĠĠĠĠĠĠĠĠĠĠĠĠĠĠĠĠĠĠĠĠĠĠĠĠĠĠĠĠĠĠĠĠĠĠĠĠĠĠĠĠĠĠĠĠĠĠĠĠ":5540,"Ġcontrast":5541,"route":5542,"ãĥ":5543,"grade":5544,"napshot":5545,"interval":5546,"umption":5547,"ĠNational":5548,"Ġfar":5549,"Ġprotect":5550,"final":5551,"locity":5552,"opts":5553,"Integer":5554,"NE":5555,"çļĦ":5556,"}-":5557,"Ġserial":5558,"Ġyet":5559,"Ab":5560,"Cs":5561,"RES":5562,"ĠAlthough":5563,"Ġbinary":5564,"tegr":5565,"ecause":5566,"9999":5567,"Ġbal":5568,"Ġanim":5569,"pdf":5570,"Ġformed":5571,"DEFAULT":5572,"ological":5573,"Ġstatement":5574,"Property":5575,"mut":5576,"ering":5577,"Ġinterval":5578,"laintiff":5579,"events":5580,"under":5581,"Ã¼":5582,"Ġ\"-":5583,"Implement":5584,"ZE":5585,"ighest":5586,"logging":5587,"metry":5588,"variant":5589,"CTION":5590,"><":5591,"unique":5592,"Ġkind":5593,"}'":5594,"Ġrows":5595,"created":5596,"duces":5597,"ĠGroup":5598,"New":5599,",'":5600,"icode":5601,"ĠTime":5602,"Ġdouble":5603,"Ġorigin":5604,"Ġvoid":5605,"=%":5606,"Ġselection":5607,"Ġ35":5608,"Ġjury":5609,"ĠSc":5610,"enn":5611,"isode":5612,"Ġflu":5613,"Ġrepresentation":5614,"Ġabsolute":5615,"ederal":5616,"ĠImage":5617,"Lambda":5618,"Mock":5619,"ificate":5620,"Calculate":5621,"course":5622,"ports":5623,"Max":5624,"Ġsubsequ":5625,"101":5626,"POST":5627,"Ġcurrently":5628,"=_":5629,"istant":5630,"git":5631,"depth":5632,"Ġnotice":5633,"encing":5634,"gg":5635,"Ġwhole":5636,"Ġreplacement":5637,"Ġnever":5638,"socket":5639,"mac":5640,"Ġmechanism":5641,"ada":5642,"Ġgr":5643,"Ġpers":5644,"rtype":5645,"Ġstatist":5646,"dag":5647,"oral":5648,"pattern":5649,"atten":5650,"ĠJoh":5651,"ĠMin":5652,"ridge":5653,"Ġinfection":5654,"repr":5655,"Ġmi":5656,"Ġitself":5657,"apply":5658,"{{":5659,"Ġmagnetic":5660,"bolds":5661,"Ġcounter":5662,"Policy":5663,"otes":5664,"series":5665,"radi":5666,"Clo":5667,"Ġnear":5668,"ĠMar":5669,"posure":5670,"cf":5671,"Ġepoch":5672,"Ġpatch":5673,"rist":5674,"amin":5675,"attributes":5676,"ÂłÂłÂłÂł":5677,"boldsymbol":5678,"Token":5679,"ĠIL":5680,"ĠMoreover":5681,"ĠSection":5682,"Ġhel":5683,"Ġplatform":5684,"One":5685,"Ġschool":5686,"flict":5687,"Ġexperiment":5688,"short":5689,"Ġfiled":5690,"mathfrak":5691,"Ġpast":5692,"*]{}":5693,"Ġcomment":5694,"media":5695,"uting":5696,"changed":5697,"Found":5698,"otal":5699,"Ġsay":5700,"Back":5701,"Ġhapp":5702,"training":5703,"ĠRec":5704,"Ġindicate":5705,"cale":5706,"ĠTensor":5707,"ship":5708,"ufact":5709,"ensive":5710,"Ġscope":5711,"ĠAmerican":5712,"/(-":5713,"argv":5714,"Ġ80":5715,"itute":5716,"Ġreaction":5717,"rf":5718,"ĠFigure":5719,"ĠBu":5720,"exceptions":5721,"ancy":5722,"Factory":5723,"isions":5724,"Ġteam":5725,"ĠHere":5726,"Î²":5727,"Ġactions":5728,"ĠAR":5729,"flag":5730,"erman":5731,"ĠSte":5732,"Ġschema":5733,"ka":5734,"500":5735,"bum":5736,"Ġ})":5737,"},\\":5738,"fil":5739,"dig":5740,"Ġtermin":5741,"Ġcharge":5742,"voice":5743,"Ġnorm":5744,"Ġsources":5745,"plus":5746,"seline":5747,"Ġpylint":5748,"ldots":5749,"Ġmm":5750,"Ġestablished":5751,"Ġallows":5752,"except":5753,"Ġproducts":5754,"driver":5755,"inally":5756,"STR":5757,"Ġ[(":5758,"mk":5759,"Ġproof":5760,"Ġpipeline":5761,"units":5762,"gent":5763,"Ïĥ":5764,"Ġtherapy":5765,"ilit":5766,"ĉĉĉĉ":5767,"Ġexternal":5768,":%":5769,"period":5770,"ĊĠĠĠĠĠĠĠĠĠĠĠĠĠĠĠĠĠĠĠĠĠĠĠĠĠĠĠĠĠĠĠĠĠĠĠĠĠĠĠĠĠĠĠĠĠĠĠĠĠĠĠĠĠĠĠĠĠĠĠĠĠĠĠĠĠĠĠĠĠĠĠĠ":5771,"Ġmedical":5772,"messages":5773,"Ġscores":5774,"Ġmetabol":5775,"astype":5776,"Ġmoment":5777,"Ġwide":5778,"Ġconstraint":5779,"pher":5780,"itable":5781,"Ġvisual":5782,"Ġshall":5783,"Ġneut":5784,"ifically":5785,"Ġsmaller":5786,"uco":5787,"Ġkin":5788,"ĠCounty":5789,"Ġful":5790,"Ġparticularly":5791,"LS":5792,"Ġthreshold":5793,"__)":5794,"Det":5795,"/>":5796,"Sche":5797,"ĠĠĠĠĠĠĠĠĠĠĠĠĠĠĠĊĠ":5798,"defined":5799,"ector":5800,"Ġ36":5801,"Ġdepth":5802,"platform":5803,"UM":5804,"TC":5805,"GE":5806,"Ġissues":5807,"sive":5808,"Min":5809,"Ġagreement":5810,"ana":5811,"Ne":5812,"DataFrame":5813,"Ġliter":5814,"chron":5815,"Ġvan":5816,"inct":5817,"Ġdifficult":5818,"Ġcomparison":5819,"ãĢ":5820,"Ġproceed":5821,"Ġangle":5822,"(\"\\":5823,"rant":5824,"metrics":5825,"oot":5826,"TA":5827,"hentication":5828,"()[":5829,"Ġlocated":5830,"repo":5831,"ĠCode":5832,"Ġocc":5833,"Ã¨":5834,"plan":5835,"ele":5836,"Ġmessages":5837,"Ġmill":5838,"Ġsites":5839,"Read":5840,"#!/":5841,"ĊĊĠĠĠĠĠĠĠĠĠĠĠĠĠĠĠĠĠĠĠ":5842,"Ġcri":5843,"Ġpixel":5844,"Ġbuilt":5845,"ĠLog":5846,"Ġvalidate":5847,"Ġsex":5848,"icensed":5849,"Ñĥ":5850,"Ġ95":5851,"Ġbir":5852,"Ġactually":5853,"There":5854,"ble":5855,"Ġdisco":5856,"Ġswitch":5857,"rief":5858,"sely":5859,"ensuremath":5860,"ĠEd":5861,"Be":5862,"Logger":5863,"Ġcompos":5864,"Ġ37":5865,"={'":5866,"omial":5867,"Ġneur":5868,"IGHT":5869,"mediate":5870,"urnal":5871,"boxes":5872,"comment":5873,"NN":5874,"eting":5875,"atal":5876,"FILE":5877,")?":5878,"Ġparticipants":5879,"2018":5880,"Phi":5881,"available":5882,"Ġlearning":5883,"Ġsequences":5884,"lr":5885,"Ġblack":5886,"SION":5887,"ĠShe":5888,"forward":5889,"ircuit":5890,"backend":5891,"ike":5892,"Ass":5893,"2017":5894,"IB":5895,"Ġcorrelation":5896,"Tag":5897,"**)":5898,"DATA":5899,"wer":5900,"Ġground":5901,"rb":5902,"apache":5903,"Ġbroad":5904,"ĠĠĠĠĠĠĠĠĠĠĠĠĠĠĠĠĊĠ":5905,"language":5906,"was":5907,"obile":5908,"Ġdemonstrated":5909,"Ġcentral":5910,"xff":5911,"reply":5912,"LL":5913,"ANT":5914,"Ġmaking":5915,"Ġminimum":5916,"itivity":5917,"Ġconsistent":5918,"private":5919,"ja":5920,"uous":5921,"âĶĢ":5922,"&\\":5923,"Ġdiscre":5924,"views":5925,"bucket":5926,"Ġstra":5927,"Ġminutes":5928,"Ġagreed":5929,".](":5930,"orizontal":5931,"Ġpain":5932,"ittle":5933,"engine":5934,")/(-":5935,"proto":5936,"Ġrecomm":5937,"export":5938,"TEST":5939,"Ġmit":5940,"Ïģ":5941,"reat":5942,"ĠAb":5943,"Ġmedium":5944,"ĠAS":5945,"Ġalthough":5946,"ignore":5947,"Server":5948,"Ġhighest":5949,"Ġflag":5950,"ollow":5951,"configuration":5952,"icles":5953,"Ġthough":5954,"memory":5955,"note":5956,"imp":5957,"ico":5958,";\\":5959,"Connection":5960,"kappa":5961,"Ġupdated":5962,"Task":5963,"Ġprocedure":5964,"Ġensure":5965,"Ġneuro":5966,"({'":5967,"gers":5968,"()))":5969,"Ġfoot":5970,"Pack":5971,"ĠJud":5972,"Ġcombination":5973,"hex":5974,"Ġcapt":5975,"ICE":5976,"ULL":5977,"Ġ90":5978,"UE":5979,"ounded":5980,"ï¼Į":5981,"Ġexperimental":5982,"crimin":5983,"Len":5984,"Ġear":5985,"ĠSO":5986,"Network":5987,"ln":5988,"otimes":5989,"Ġcounsel":5990,"Sc":5991,"Ġinvalid":5992,"filters":5993,".\",":5994,"loaded":5995,"dirname":5996,"interface":5997,"Ġbecome":5998,"Ġchrom":5999,"Ġast":6000,"vi":6001,"Ġlibrary":6002,"Ġdelay":6003,"Ġmedia":6004,"inger":6005,"MT":6006,"Ġ{}\".":6007,"Ġds":6008,"reference":6009,"ĊĠĠĠĠĠĠĠĠĠĠĠĠĠĠĠĠĠĠĠĠĠĠĠĠĠĠĠĠĠĠĠĠĠĠĠĠĠĠĠĠĠĠĠĠĠĠĠĠĠĠĠĠĠĠĠĠĠĠĠĠĠĠĠĠĠĠĠĠĠĠĠĠĠ":6010,"sian":6011,"tokens":6012,"ĠĠĠĠĠĠĠĠĠĠĠĠĠĠĠĠĠĊĠ":6013,"invalid":6014,"ĠCalculate":6015,"small":6016,"Ġremote":6017,"Ġbelie":6018,"-%":6019,"Ġareas":6020,"ĠCall":6021,"collection":6022,"Ġstructures":6023,"plugin":6024,"region":6025,"Ġelectron":6026,"ested":6027,"pn":6028,"menu":6029,"ĠPri":6030,"Update":6031,"Ġ\"_":6032,"Ġmachine":6033,"tool":6034,"upper":6035,"ĠUse":6036,"Ġconvention":6037,"Ġbrain":6038,"high":6039,"Ġresources":6040,"apes":6041,"road":6042,"zen":6043,"Ġmg":6044,"constant":6045,"Ġcaused":6046,"Ġparty":6047,"Ġut":6048,"}\")":6049,"Ġwin":6050,"ĠRNA":6051,"aps":6052,"onic":6053,"band":6054,"Ġjur":6055,"Graph":6056,"TIES":6057,"({\\":6058,"Ġwhy":6059,"Ġduration":6060,"Core":6061,"rowser":6062,"ĠOrder":6063,"ĠSch":6064,"Ġderived":6065,"Ġnamed":6066,"ĠImport":6067,"lu":6068,"aid":6069,"().__":6070,"exc":6071,"ners":6072,"ĠMc":6073,"Ġattention":6074,"ĠTra":6075,"Ġhidden":6076,"EXT":6077,"Ġstand":6078,"NP":6079,"Ġmakes":6080,"database":6081,"ifer":6082,"testing":6083,"åĪ":6084,"orical":6085,"USER":6086,"Ġrecords":6087,"Part":6088,"Ġmodified":6089,"java":6090,"ĠJan":6091,"ĠAD":6092,"Ġplayer":6093,"__()":6094,"Ġcontinuous":6095,"Ġexpr":6096,"Ġcalc":6097,"Ġpartial":6098,"License":6099,"PORT":6100,"Ġinner":6101,"\"})":6102,"Ġ'{":6103,"Ġreq":6104,"Ġcandid":6105,"Ġknowledge":6106,"Ġpurpose":6107,"Ġ42":6108,"Ġcharacteristics":6109,"ĠEX":6110,"ĠĠĠĠĠĠĠĠĠĠĠĠĠĠĠĠĠĠĊĠ":6111,"single":6112,"eks":6113,"Ġseparate":6114,"Ġ_,":6115,"Ġchannels":6116,"]])":6117,"^âĪĴ":6118,"%,":6119,"VE":6120,"('\\":6121,"ĠFoundation":6122,"2019":6123,"ye":6124,"Ġseconds":6125,"ĠFurthermore":6126,"uming":6127,"Ġconn":6128,"ĠOpen":6129,"Sigma":6130,"Ġbur":6131,"istent":6132,")\"":6133,"Ġsq":6134,"Ġfinding":6135,"Ġ'',":6136,"setter":6137,"Ġbig":6138,"Order":6139,"Ġtrying":6140,"ILITY":6141,"Ġlat":6142,"PUT":6143,"bias":6144,"acing":6145,"Ġresponses":6146,"Ġoptical":6147,"lt":6148,"Ġannot":6149,"Ġnoise":6150,"ĠHTTP":6151,"Implemented":6152,"Ġcop":6153,"Ġpaths":6154,"atives":6155,"actor":6156,"kt":6157,"olog":6158,"Ġstored":6159,"Ġ%(":6160,"Ġmapping":6161,"Ġdownload":6162,"Ġcfg":6163,"Ġcompli":6164,"dm":6165,"enable":6166,"nc":6167,"matic":6168,"cli":6169,"aches":6170,"Ġhalf":6171,"Ġcm":6172,"Ġcred":6173,"Ġnor":6174,"gi":6175,"][\"":6176,"Ġinduced":6177,"Ġsubprocess":6178,"Ġletters":6179,"sig":6180,"Loc":6181,"Ġlicense":6182,"Ġmolecular":6183,"attrs":6184,"Ġability":6185,"Ġmaterials":6186,"quid":6187,"Ġverify":6188,"cv":6189,"ected":6190,"undle":6191,"mbox":6192,"Ġfolder":6193,"ĠĠĠĠĠĠĠĠĠĠĠĠĠĠĠĠĠĠĠĊĠ":6194,"Ġsegment":6195,"OK":6196,"ĠOur":6197,"ĠRE":6198,"Ġestablish":6199,"Ġult":6200,"PER":6201,"mplify":6202,"atial":6203,"ĊĠĠĠĠĠĠĠĠĠĠĠĠĠĠĠĠĠĠĠĠĠĠĠĠĠĠĠĠĠĠĠĠĠĠĠĠĠĠĠĠĠĠĠĠĠĠĠĠĠĠĠĠĠĠĠĠĠĠĠĠĠĠĠĠĠĠĠĠĠĠĠĠĠĠ":6204,"ĠMult":6205,"HTTP":6206,"ĠApache":6207,"Ġwhose":6208,"ndarray":6209,"Ġresistance":6210,"details":6211,"Ġcover":6212,"nab":6213,"Ġcharg":6214,"'ve":6215,"Ġhighly":6216,"GB":6217,"ÐµÐ":6218,"dete":6219,"grams":6220,"termin":6221,"Ġenough":6222,"pick":6223,"Ġanalyzed":6224,"UD":6225,"Ġdt":6226,"ama":6227,"Ġhypot":6228,"([[":6229,"Variable":6230,"Ġlonger":6231,"Ġland":6232,"Ġprof":6233,"Ġportion":6234,"Ġresid":6235,"Ref":6236,"ĠTr":6237,"variables":6238,"atically":6239,"lab":6240,"obs":6241,"arguments":6242,"Ġspin":6243,"Ġ48":6244,"Ġrelation":6245,"\\|":6246,"Ġbook":6247,"à¤":6248,"Ġ\"__":6249,"ĠWest":6250,"Ġfluid":6251,"ERROR":6252,"itis":6253,"take":6254,"some":6255,"validation":6256,"Ġusername":6257,"Ġrepl":6258,"ĠWARRANTIES":6259,"pository":6260,"uly":6261,"Ġbasic":6262,"Ġevaluation":6263,"ĠEurope":6264,"Ġrat":6265,"Ġopts":6266,"nology":6267,"Fore":6268,"WN":6269,"andom":6270,"Ġface":6271,"Ġrules":6272,"iles":6273,"ĠEq":6274,"void":6275,"Ġ45":6276,"Ġoverall":6277,"icrosoft":6278,"Ġstated":6279,"ĠRed":6280,"NOT":6281,"Ġsocket":6282,"Ġxml":6283,"alo":6284,"gery":6285,"rece":6286,"Device":6287,"izers":6288,"Ġessent":6289,"ĠPlaintiff":6290,"Ġten":6291,"bert":6292,"Ġexhib":6293,"ĠAlso":6294,"ĠĠĠĠĠĠĠĠĠĠĠĠĠĠĠĠĠĠĠĠĊĠ":6295,"Ġmonitor":6296,"Ġpetition":6297,"OUT":6298,"compat":6299,"Ġsocial":6300,"Ġsel":6301,"look":6302,"erve":6303,"BC":6304,"Ġlock":6305,"usters":6306,"Ġba":6307,"Ġindividuals":6308,"Ġround":6309,"ĠUSA":6310,"extract":6311,"endpoint":6312,"Ġassemb":6313,"bounds":6314,"ÏĢ":6315,"best":6316,"Ġdesired":6317,")])":6318,"Ġ($":6319,"MI":6320,"Ġalter":6321,"}}}":6322,"Ġmarker":6323,"Ġadj":6324,"Ste":6325,"}}{":6326,"Ġcritical":6327,"Ġtensorflow":6328,"iques":6329,"za":6330,"Ġproduce":6331,"Ġhours":6332,"ĠMat":6333,"ĠCity":6334,"2000":6335,"WOR":6336,"Ġ255":6337,"Ġinv":6338,"System":6339,"ipal":6340,"Args":6341,"inv":6342,"SET":6343,"Ñı":6344,"Ġgovernment":6345,"Ġweak":6346,"(\"/":6347,"download":6348,"Ġbranch":6349,"Ġexplicit":6350,"cb":6351,"Pri":6352,"ensors":6353,"kw":6354,"processing":6355,"ĠPart":6356,"2016":6357,"Ġvalidation":6358,"freq":6359,"Ġtargets":6360,"but":6361,"Ġsentence":6362,"rupt":6363,"Ġexpan":6364,"Ġinstalled":6365,"iders":6366,"ĠMo":6367,"MODE":6368,"Work":6369,"_{{\\":6370,"rence":6371,"imate":6372,"Ġnatural":6373,".[":6374,"__':":6375,"Ġbacter":6376,"Down":6377,"Ġwon":6378,"**]{},":6379,"ĊĊĠĠĠĠĠĠ":6380,"Ġspecify":6381,"Ġstrategy":6382,"ivo":6383,"////":6384,"sm":6385,"ifications":6386,"\"]:":6387,"Ġexposure":6388,"ynamic":6389,"ĠĠĠĠĠĠĠĠĠĠĠĠĠĠĠĠĠĠĠĠĠĊĠ":6390,"mply":6391,".$$":6392,"Ġothers":6393,")/(":6394,"Ġcontrols":6395,"sions":6396,"Ġseems":6397,"Ġevaluate":6398,"release":6399,"*)":6400,"virtual":6401,"Ġcompliance":6402,"Ġwrong":6403,"ĠOut":6404,"history":6405,"Ġinjury":6406,"ben":6407,"Ġdriver":6408,"complete":6409,"Ġmanagement":6410,"remote":6411,"Ġrele":6412,"evalu":6413,"Dataset":6414,"cursor":6415,"Ġtransition":6416,"Ġimplementation":6417,"ares":6418,"Ġcircum":6419,"PD":6420,"Ġapplications":6421,"Ġmar":6422,"days":6423,"gramm":6424,"Ġclosed":6425,"dumps":6426,"ĠOther":6427,"tack":6428,"('-":6429,"cost":6430,"odies":6431,"Cre":6432,"Ġchoice":6433,"ĊĠĠĠĠĠĠĠĠĠĠĠĠĠĠĠĠĠĠĠĠĠĠĠĠĠĠĠĠĠĠĠĠĠĠĠĠĠĠĠĠĠĠĠĠĠĠĠĠĠĠĠĠĠĠĠĠĠĠĠĠĠĠĠĠĠĠĠĠĠĠĠĠĠĠĠ":6434,"Ġneighb":6435,"ifies":6436,".[@":6437,"Ġresolution":6438,"internal":6439,"reason":6440,"Ġrelatively":6441,"Ġheat":6442,"transaction":6443,"Dir":6444,"abilities":6445,"margin":6446,"Ġdisclo":6447,"ĠNO":6448,"WS":6449,"Ġreasonable":6450,"oto":6451,"âĢĬ":6452,"Ġnamespace":6453,"subscription":6454,"children":6455,"iam":6456,"Parameter":6457,"Ġlim":6458,"Ġusually":6459,"Ġadapt":6460,"Ġregarding":6461,"CF":6462,"Ġcycle":6463,"iet":6464,"ĠAccording":6465,"ðŁ":6466,"bits":6467,"rd":6468,"Ġeth":6469,"!\\":6470,"rown":6471,"../":6472,"ugins":6473,"boot":6474,"acters":6475,"Ġenzy":6476,"Ġconducted":6477,"Open":6478,"rength":6479,"Ġseason":6480,"plotlib":6481,"âĢ²":6482,"2015":6483,"mplates":6484,"ĠField":6485,"blank":6486,"arange":6487,"ĠĠĠĠĠĠĠĠĠĠĠĠĠĠĠĠĠĠĠĠĠĠĊĠ":6488,"Ġshowing":6489,"video":6490,"ached":6491,"Layer":6492,"ĊĊĊĊ":6493,"currency":6494,"Ġ2015":6495,"ifact":6496,"Stream":6497,"gebra":6498,"amm":6499,"inion":6500,"Format":6501,"Ġrank":6502,"ĠDr":6503,"loor":6504,"MR":6505,"ott":6506,"Ġunittest":6507,"ĠSouth":6508,"Ġradio":6509,"orders":6510,"ĠĊĠĠĠĠĠĠĠĠĠĠĠ":6511,"kin":6512,"Ġvirtual":6513,"Ġdocumentation":6514,"osed":6515,"Ġtested":6516,"Ġclick":6517,"ĠYork":6518,"=[\"":6519,"esis":6520,"hing":6521,"Ġvehicle":6522,"')),":6523,"Mat":6524,"Page":6525,"ametri":6526,"aser":6527,"abet":6528,"Ġexit":6529,"istr":6530,"Ġfund":6531,"ĠBl":6532,"Ġ34":6533,"Ġol":6534,"itors":6535,"umed":6536,"âķ":6537,"Ġmanufact":6538,"Ġeff":6539,"component":6540,"PAR":6541,"cel":6542,"spect":6543,"ĠFROM":6544,"Ġoffer":6545,"proxy":6546,"nonumber":6547,"Ġblocks":6548,"ĠArt":6549,"sync":6550,"Ġrepresents":6551,"blocks":6552,"serv":6553,"asis":6554,"Ġsignals":6555,"holder":6556,"Ġgives":6557,"fold":6558,"ĠĠĠĠĠĠĠĠĠĠĠĠĠĠĠĠĠĠĠĠĠĠĠĊĠ":6559,"Ġespec":6560,"Ġche":6561,"DIT":6562,"Ġaccuracy":6563,"diction":6564,"arma":6565,"Ġ2000":6566,"ili":6567,"framework":6568,"Over":6569,"TP":6570,"EE":6571,"Ġtick":6572,"fake":6573,"Ġlin":6574,"Ġwhereas":6575,"000000":6576,"Ġmetal":6577,"ĠConstraint":6578,"axes":6579,"Init":6580,"Ġpatter":6581,"ĠNumber":6582,"verbose":6583,"Ġsimply":6584,"Session":6585,"300":6586,"Ġbeta":6587,"Ġindicates":6588,"ulating":6589,"ĠRem":6590,"Ġcompare":6591,"Ġpen":6592,"Ġcollect":6593,"ĠNa":6594,"Ġroom":6595,"Ġwall":6596,"Returns":6597,"MD":6598,"Ġfinite":6599,"accept":6600,"induced":6601,"Ġmeasurements":6602,"Ġandroid":6603,"ValueError":6604,"(\"%":6605,"Ġwarnings":6606,"ĠSci":6607,"zure":6608,"Ġstudied":6609,"Ġadult":6610,"uary":6611,"eno":6612,"Ġfraction":6613,"Ġpromot":6614,"Ġ2010":6615,"Ġpandas":6616,"urity":6617,"Ġdesigned":6618,"Ġdecreased":6619,"Ġmention":6620,"aster":6621,"BO":6622,"counter":6623,"Pi":6624,"Ġcollected":6625,"nections":6626,"ixin":6627,"!!":6628,"optional":6629,"getter":6630,"Ġassociation":6631,"Ġgreat":6632,"second":6633,"Ġconcentrations":6634,"Ġund":6635,"ABILITY":6636,"Ġcommands":6637,"123":6638,"Ġmigrations":6639,"poses":6640,"subset":6641,"ĠEach":6642,"Ġmembrane":6643,"Ġcurve":6644,"Ġcombined":6645,"Ġtypically":6646,"ĠĠĠĠĠĠĠĠĠĠĠĠĠĠĠĠĠĠĠĠĠĠĠĠĊĠ":6647,"ĠThat":6648,"Ġoutside":6649,"mul":6650,"Ġincreases":6651,"arily":6652,"ĠResource":6653,"Ġ2016":6654,"imony":6655,"binary":6656,"double":6657,"CU":6658,"sg":6659,"Ġcompat":6660,"ĊĠĠĠĠĠĠĠĠĠĠĠĠĠĠĠĠĠĠĠĠĠĠĠĠĠĠĠĠĠĠĠĠĠĠĠĠĠĠĠĠĠĠĠĠĠĠĠĠĠĠĠĠĠĠĠĠĠĠĠĠĠĠĠĠĠĠĠĠĠĠĠĠĠĠĠĠ":6661,"inx":6662,"Ġrevealed":6663,"Level":6664,"which":6665,"ĠGo":6666,"Ġleading":6667,"cols":6668,"Ġaspect":6669,"Ġanalyses":6670,"ĠLa":6671,"pus":6672,"Ġmouse":6673,"nabla":6674,"Ġqueue":6675,"contin":6676,"ĠPr":6677,"ĠNotImplemented":6678,"SV":6679,"Ġremainder":6680,"toms":6681,"dimensional":6682,"Ġ33":6683,"assertIs":6684,"Ġcoordinates":6685,"COL":6686,"Ġstarting":6687,"anning":6688,"Ġdepends":6689,"ĠOS":6690,"Ġappears":6691,"Ġcompany":6692,"Ġtrigger":6693,"clip":6694,"ĠClass":6695,"æľ":6696,"bind":6697,"Ġmonth":6698,"2014":6699,"Ġparties":6700,"Ġsal":6701,"pv":6702,"nes":6703,"ĠFree":6704,"Ġeduc":6705,"orary":6706,"Ġgly":6707,"concat":6708,"Ġfigure":6709,"false":6710,"Ġparticles":6711,"Ġ2014":6712,"nb":6713,"Ġna":6714,"Ġpayload":6715,"buf":6716,"čĊčĊč":6717,"Ġtakes":6718,"player":6719,"Ġfall":6720,"plt":6721,"Ġfilters":6722,"}\".":6723,"Ġsubjects":6724,"See":6725,")],":6726,"dots":6727,"Bar":6728,"power":6729,"Ġcommunity":6730,"dy":6731,"Ġequivalent":6732,"Ġquantum":6733,"Ġevaluated":6734,"operation":6735,"Ġarticle":6736,"Ġcalculate":6737,"Ġweek":6738,"feed":6739,"Ġexplo":6740,"osome":6741,"ÃĲ":6742,"forms":6743,"wrap":6744,"Ġca":6745,"Ġpsy":6746,"resources":6747,"ĠGu":6748,"ĠWill":6749,"Link":6750,"ipy":6751,"rial":6752,"Ġproport":6753,"poly":6754,"ĠSome":6755,"atin":6756,"ĠMon":6757,"roy":6758,"urls":6759,"Ġstrings":6760,"ĠPo":6761,"ĠĠĠĠĠĠĠĠĠĠĠĠĠĠĠĠĠĠĠĠĠĠĠĠĠĊĠ":6762,"Ġbad":6763,"zo":6764,"Ġparallel":6765,"Ġ2013":6766,"Ġ[-":6767,"Ġgal":6768,"ĠMA":6769,"Ġreceptor":6770,"mapping":6771,"namespace":6772,"Ġ'<":6773,"Contain":6774,"Ġfinally":6775,"($":6776,"Ġsqrt":6777,"UTH":6778,"exist":6779,"111":6780,"IST":6781,"Â·":6782,"ĠWhile":6783,"that":6784,"Rem":6785,"iffer":6786,"structure":6787,"Ġremaining":6788,"Ġdimensions":6789,"Us":6790,"slot":6791,"orney":6792,"duc":6793,"ratio":6794,"itative":6795,"}+":6796,"Script":6797,"Ġfocus":6798,"SIZE":6799,"payload":6800,"inity":6801,"aily":6802,"bad":6803,"Ġplate":6804,"VA":6805,"Ġmeasurement":6806,"})$":6807,"Ġapproximately":6808,"Ġeng":6809,"abc":6810,"SL":6811,"Sto":6812,"Ġpatterns":6813,"Ġprev":6814,"ky":6815,"Ġcapacity":6816,"Ġ_(\"":6817,"Ġ()":6818,"Ġfn":6819,"stderr":6820,"ifiers":6821,"Ġ2012":6822,"selected":6823,"isation":6824,"Ġsubstrate":6825,"Ġpie":6826,"Ġboundary":6827,"Conv":6828,"eli":6829,"ĠCA":6830,"SM":6831,"ĠMr":6832,"alog":6833,"CRE":6834,"Ġarbit":6835,"Ġbottom":6836,"Ġrecur":6837,"Ġok":6838,"Ġmarket":6839,"expand":6840,"Ġtimestamp":6841,"ĠJSON":6842,"Ġpractice":6843,"igration":6844,"deed":6845,"Ġglob":6846,"Ġtok":6847,"scores":6848,"Ġsecondary":6849,"Ġstar":6850,"Ġstation":6851,"2013":6852,"cin":6853,"month":6854,"ĠAug":6855,"Exec":6856,"ÃĹ":6857,"Var":6858,"fp":6859,"igation":6860,"ulin":6861,"Ġdiagnosis":6862,"lier":6863,"ĠĠĠĠĠĠĠĠĠĠĠĠĠĠĠĠĠĠĠĠĠĠĠĠĠĠĊĠ":6864,"ĠOct":6865,"Ġcomplic":6866,"Ġcryst":6867,"Ġespecially":6868,"ĠHT":6869,"Ġshared":6870,"publ":6871,"corpor":6872,"Ġbone":6873,"Ġspectrum":6874,"':'":6875,"ĠLicensed":6876,"props":6877,"ACT":6878,"company":6879,"Ġseq":6880,"Ġsec":6881,"Ġplasma":6882,"SELECT":6883,"ĠFrom":6884,"Ġpairs":6885,"generator":6886,"Ġhold":6887,"Ġ\"\",":6888,"Ġbeam":6889,"iate":6890,"></":6891,"Ġcollections":6892,"ĊĠĠĠĠĠĠĠĠĠĠĠĠĠĠĠĠĠĠĠĠĠĠĠĠĠĠĠĠĠĠĠĠĠĠĠĠĠĠĠĠĠĠĠĠĠĠĠĠĠĠĠĠĠĠĠĠĠĠĠĠĠĠĠĠĠĠĠĠĠĠĠĠĠĠĠĠĠ":6893,")*(":6894,"Ġvoltage":6895,"Ġjoint":6896,"``.":6897,"progress":6898,"Ġsess":6899,"Ġbr":6900,"Ġliquid":6901,"Ġexerc":6902,"æķ":6903,"Aut":6904,"Ġ2017":6905,"Ġmorph":6906,"Control":6907,"nel":6908,"initialize":6909,"STAT":6910,"ota":6911,"ĠSw":6912,"**]{}":6913,"Ġsurvival":6914,"()),":6915,"Ġchose":6916,"ĠKIND":6917,"Ġdose":6918,",)":6919,"tee":6920,"Ġhandler":6921,"'}),":6922,"âĶĢâĶĢ":6923,"Ġpartition":6924,"ĠCur":6925,"helper":6926,"sect":6927,"Ġdigit":6928,"**(-":6929,"miss":6930,"Ġunderlying":6931,"Ġinteractions":6932,"Argument":6933,"PRE":6934,"urch":6935,"Ġassign":6936,"BL":6937,"lang":6938,"'{":6939,"ĠSE":6940,"eff":6941,"phinx":6942,"distance":6943,"Ġprice":6944,"Ġnone":6945,"Ġmetrics":6946,"Ġexamples":6947,"Ġthick":6948,"ails":6949,"ĠĠĠĠĠĠĠĠĠĠĠĠĠĠĠĠĠĠĠĠĠĠĠĠĠĠĠĊĠ":6950,"ilation":6951,"Ġcomputer":6952,"Ġimproved":6953,"tz":6954,"protocol":6955,"Ġorg":6956,"threshold":6957,"}'.":6958,"ĠHo":6959,"Ġfacts":6960,"Ġshell":6961,"Ġalternative":6962,"graphy":6963,"Ġmsat":6964,"uns":6965,"secret":6966,"ostic":6967,"Ġhospital":6968,"precated":6969,"fon":6970,"}}_{":6971,"widetilde":6972,"using":6973,"Ġhearing":6974,"ĠError":6975,"Ġnature":6976,"Ġvo":6977,"ĠHealth":6978,"oll":6979,"mesh":6980,"/\\":6981,"Ġguide":6982,"gpu":6983,"=\"\"":6984,"Ġconstruction":6985,"ĠPe":6986,"........":6987,"enario":6988,"Ġ2018":6989,"components":6990,"missing":6991,"iddleware":6992,"ĠÐ¿":6993,"006":6994,"iring":6995,"Ġquestions":6996,"blue":6997,"}},":6998,"yes":6999,"/%":7000,"Mod":7001,"\";":7002,"bur":7003,"2012":7004,"ĠExt":7005,"simple":7006,"LICENSE":7007,"star":7008,"eras":7009,"Ġserum":7010,"utable":7011,"icial":7012,"Ġmechanisms":7013,"Ã³n":7014,"Ġgoverning":7015,"Ġ70":7016,"Ġtasks":7017,"Ġidentity":7018,"pd":7019,"Ġsensor":7020,"Ġgeometry":7021,"itect":7022,"owner":7023,"ĠER":7024,"unittest":7025,"Iter":7026,"Ġexport":7027,"Ġappar":7028,"Ġplugin":7029,"Ġfully":7030,"ĠGerman":7031,"PH":7032,"uel":7033,"bn":7034,"Ġ[{":7035,"ano":7036,"Application":7037,"Ġbackend":7038,"glob":7039,"erm":7040,"oney":7041,"Ġdoing":7042,"Ġreflect":7043,"ĠText":7044,"Ġconventional":7045,"commands":7046,"Ġnovel":7047,"Ġvelocity":7048,"ĠĠĠĠĠĠĠĠĠĠĠĠĠĠĠĠĠĠĠĠĠĠĠĠĠĠĠĠĊĠ":7049,"Ġendpoint":7050,"Ġflags":7051,"ening":7052,"Ġstats":7053,"Ġdecrease":7054,"Ġsolutions":7055,"LR":7056,"otype":7057,"Entry":7058,"ĠColumn":7059,"Ġorient":7060,"Ġpicked":7061,"dx":7062,"Ġestimate":7063,"(?":7064,"cape":7065,"writ":7066,"Ġ2008":7067,"Ġ;":7068,"TIME":7069,"merge":7070,"mn":7071,"External":7072,"Ġmodules":7073,"diag":7074,"loyment":7075,"ulk":7076,"ober":7077,"Ġestimated":7078,"ĠVar":7079,"ading":7080,"Ġexecute":7081,"Ġroute":7082,"volution":7083,"ato":7084,"Ġaggreg":7085,"Ġmid":7086,"âĢĶ":7087,"Ġlos":7088,"ĠCI":7089,"Ġstride":7090,"ä»":7091,"\"][":7092,"umin":7093,"yaml":7094,"ĠIndex":7095,"memb":7096,"Ġdenied":7097,"seconds":7098,"Ðº":7099,"400":7100,"Ġshift":7101,"ji":7102,"Ġfood":7103,"slice":7104,"Ġsalt":7105,"Ġremains":7106,"Ġfire":7107,")\",":7108,"ĠCR":7109,"Ġsuggested":7110,"mol":7111,"ĊĠĠĠĠĠĠĠĠĠĠĠĠĠĠĠĠĠĠĠĠĠĠĠĠĠĠĠĠĠĠĠĠĠĠĠĠĠĠĠĠĠĠĠĠĠĠĠĠĠĠĠĠĠĠĠĠĠĠĠĠĠĠĠĠĠĠĠĠĠĠĠĠĠĠĠĠĠĠ":7112,"ulator":7113,"ĠÎ±":7114,"Ġ500":7115,"aling":7116,"Ġnoted":7117,"sure":7118,">\\":7119,"Op":7120,"eric":7121,"Ġevolution":7122,"Ġ2011":7123,"AGS":7124,"ĠJap":7125,"Dep":7126,"supplementary":7127,"Ġmort":7128,"rich":7129,"tical":7130,"SR":7131,"Ġplayers":7132,"uck":7133,"Ġ128":7134,"Ġjoin":7135,"learn":7136,"ĠĠĠĠĠĠĠĠĠĠĠĠĠĠĠĠĠĠĠĠĠĠĠĠĠĠĠĠĠĊĠ":7137,"Ġple":7138,"cence":7139,"Ġenabled":7140,"dl":7141,"Ġactivities":7142,"running":7143,"Row":7144,"MAX":7145,"EV":7146,"Ġsolid":7147,"Ġabsor":7148,"shift":7149,"Ġtransaction":7150,"Ġcontents":7151,"FP":7152,"Ġjuris":7153,"quee":7154,"ĠFl":7155,"bsite":7156,"Ġgoing":7157,"Ġlayout":7158,".',":7159,"untimeError":7160,"sn":7161,"\\{":7162,"hi":7163,"Ġtechnique":7164,"Ġoccurred":7165,"Ġdelta":7166,"ĠTheorem":7167,"Pr":7168,"Ġprediction":7169,"\"}.":7170,"Exp":7171,"è¯":7172,"ĠBar":7173,"ils":7174,"Ġprep":7175,"Ġblank":7176,"reduce":7177,"__.":7178,"area":7179,"enum":7180,"Ġlittle":7181,"yr":7182,"services":7183,"Ġboard":7184,"ĠCircuit":7185,"bid":7186,"Ġplaced":7187,"pril":7188,"$$\\":7189,"chor":7190,"Pe":7191,"pet":7192,"two":7193,"orter":7194,"aws":7195,"condition":7196,"Ġheart":7197,"Ġstatute":7198,"Ġassay":7199,"_.":7200,"aker":7201,"Ġtransmission":7202,"Ġargparse":7203,"Ġtab":7204,"([\"":7205,"Ġtried":7206,"Ġweeks":7207,"Rout":7208,"letion":7209,"dings":7210,"disk":7211,"lour":7212,"Ġ).":7213,"proc":7214,"ogene":7215,"Ġids":7216,"relu":7217,"Ġreasons":7218,"hist":7219,"fd":7220,"ĠForm":7221,"rugs":7222,"åĲ":7223,"Ġunknown":7224,"Pool":7225,"ĠĠĠĠĠĠĠĠĠĠĠĠĠĠĠĠĠĠĠĠĠĠĠĠĠĠĠĠĠĠĊĠ":7226,"SQL":7227,"php":7228,"NF":7229,"ads":7230,"provider":7231,"tasks":7232,"ellow":7233,"park":7234,"ying":7235,"super":7236,"done":7237,"Ġcontained":7238,"signal":7239,"uffix":7240,"Ġ2009":7241,"2020":7242,"bus":7243,"pa":7244,"Ġprobably":7245,"**,":7246,"coded":7247,"Ġindicating":7248,"tember":7249,"^+^":7250,"ĠNotImplementedError":7251,"Ġtestimony":7252,"Results":7253,"Ġbecomes":7254,"Ġwidget":7255,"TS":7256,"Ġabsence":7257,"ynomial":7258,"GC":7259,"ĠOnly":7260,"topic":7261,"parametri":7262,"'d":7263,"GA":7264,"Ġappellant":7265,"]*":7266,"Gui":7267,"/'":7268,"ĠCa":7269,"Ġadv":7270,"Dec":7271,"Ġdistinct":7272,"Ġradius":7273,"ĠInit":7274,"Ġmatches":7275,"lers":7276,"Ġfront":7277,"Ġwx":7278,"ĠSi":7279,"BUG":7280,"Ġcriteria":7281,"Ġpolar":7282,"ĠResearch":7283,"jected":7284,"Ġedges":7285,"ĠJanuary":7286,"blob":7287,"Ġhouse":7288,"Sequence":7289,"tty":7290,"before":7291,"dic":7292,"MPL":7293,"Ġshare":7294,"Ġreset":7295,"ille":7296,"xs":7297,"ette":7298,"Ġcarried":7299,"]--":7300,"Ġinfluence":7301,"ham":7302,"Cell":7303,"Ġdamage":7304,"rpc":7305,"Ġ&=":7306,"Ġdiscussed":7307,"inner":7308,"Select":7309,"olved":7310,"Ġentries":7311,"Ġbuilding":7312,"Mo":7313,"Ġfetch":7314,"keras":7315,"ĊĠĠĠĠĠĠĠĠĠĠĠĠĠĠĠĠĠĠĠĠĠĠĠĠĠĠĠĠĠĠĠĠĠĠĠĠĠĠĠĠĠĠĠĠĠĠĠĠĠĠĠĠĠĠĠĠĠĠĠĠĠĠĠĠĠĠĠĠĠĠĠĠĠĠĠĠĠĠĠ":7316,"Ġreally":7317,"Ġproperly":7318,"ONE":7319,"mem":7320,"ĠHttp":7321,"celer":7322,"Ġsurgery":7323,"person":7324,"ĠJune":7325,"Ġpositions":7326,"Ġdeep":7327,"cember":7328,"isher":7329,"going":7330,"dent":7331,"ĠVer":7332,"ĠRev":7333,"Ġreach":7334,"Ġcommunication":7335,"120":7336,"ongs":7337,"2010":7338,"ignKey":7339,"Ġ38":7340,"ĠBecause":7341,"otic":7342,"ĠMarch":7343,"Can":7344,"Ġtechniques":7345,"ĠAP":7346,")',":7347,"ĠĠĠĠĠĠĠĠĠĠĠĠĠĠĠĠĠĠĠĠĠĠĠĠĠĠĠĠĠĠĠĊĠ":7348,"counts":7349,"Red":7350,"structions":7351,"Î·":7352,"ACE":7353,"Ġmale":7354,"branch":7355,"original":7356,"Ġmotor":7357,"ĠSep":7358,"arc":7359,"syn":7360,"IE":7361,"rr":7362,"well":7363,"Ġoptimizer":7364,"Ġbra":7365,"Ãĥ":7366,"Ġinterpret":7367,"matory":7368,"Ġ\"{":7369,"ini":7370,"Ġ{},":7371,"phase":7372,")=\\":7373,"Failed":7374,"Ġimplemented":7375,"Ġion":7376,"delay":7377,"Solve":7378,"zeta":7379,"Mon":7380,"DL":7381,"Ġraised":7382,"ĠBAS":7383,"Ġobservations":7384,"lott":7385,"inite":7386,"Ġinstrument":7387,"Ġaccum":7388,"menv":7389,"Ġclearly":7390,"ĠCH":7391,"ĠRob":7392,"}:":7393,"Ġcharacters":7394,"charge":7395,"007":7396,"]--[@":7397,"Ġpolling":7398,"Off":7399,"Ġstrength":7400,"Ġreli":7401,"trained":7402,"Ġcursor":7403,"ĠPRO":7404,"Ġmaster":7405,"Ġ${{\\":7406,"CV":7407,"LOG":7408,"ida":7409,"resp":7410,"atabase":7411,"ÏĤ":7412,"ĠSec":7413,"ĠUS":7414,"ĠStud":7415,"Widgets":7416,"Ġsuff":7417,"bru":7418,"Ġbank":7419,"ĠAg":7420,"Ġconcept":7421,"uffle":7422,"cessed":7423,"sessed":7424,"Ġsecurity":7425,"Ġretrie":7426,"ima":7427,"expression":7428,"ircle":7429,"cup":7430,"INFO":7431,"stances":7432,"Ġefficient":7433,"Pos":7434,"Ġfat":7435,"ĠWindow":7436,"Ġstable":7437,"Ġprove":7438,"When":7439,")^{":7440,"duration":7441,"Ġcompounds":7442,"110":7443,"ĠĠĠĠĠĠĠĠĠĠĠĠĠĠĠĠĠĠĠĠĠĠĠĠĠĠĠĠĠĠĠĠĊĠ":7444,"Ġnothing":7445,"pub":7446,"lle":7447,"phone":7448,"activity":7449,"sym":7450,"Settings":7451,"Ġchat":7452,"Meta":7453,"Ġrapid":7454,"Ġpert":7455,"cellular":7456,"molec":7457,"omorph":7458,"Ġ2007":7459,"Ġviews":7460,"ijms":7461,"llib":7462,"Ġgenome":7463,"Ġpredicted":7464,"rules":7465,"Ġonto":7466,"2011":7467,"Ġtools":7468,"oung":7469,"Enum":7470,"Ġimaging":7471,"_>":7472,"Sum":7473,"Ġsymptoms":7474,"Ġbehavi":7475,"Sign":7476,"Ġunicode":7477,"Ġ<<":7478,"Ġgenerator":7479,"ames":7480,"ĠRel":7481,"avg":7482,"Ġalmost":7483,"Ġchoices":7484,"fast":7485,"Ġimplic":7486,"Ġalbum":7487,"ĠHigh":7488,"Ġmedic":7489,"ingu":7490,"Ġlymp":7491,"Ġstarted":7492,"MAP":7493,"Ġopinion":7494,"Ġformula":7495,"ĠSolve":7496,"operative":7497,"coming":7498,"figure":7499,"idation":7500,"Ġmanner":7501,"mpler":7502,"MENT":7503,"Ver":7504,"Ġapparatus":7505,"Ġinstances":7506,"Ġoutcome":7507,"+'":7508,"MIN":7509,"Ġrecorded":7510,"UI":7511,"Ġpersonal":7512,"Ġreading":7513,"Ġequations":7514,"HERE":7515,"writer":7516,"Ġassigned":7517,"Auto":7518,"ammatory":7519,"ptr":7520,"Ġthings":7521,"Ġalign":7522,"Tree":7523,"stock":7524,"Ġfine":7525,"icip":7526,"Ġoccurs":7527,"ti":7528,"Ġaxes":7529,"ĠMet":7530,"Ġmatching":7531,"raise":7532,"ĠĠĠĠĠĠĠĠĠĠĠĠĠĠĠĠĠĠĠĠĠĠĠĠĠĠĠĠĠĠĠĠĠĊĠ":7533,"ao":7534,"Ġagents":7535,"logs":7536,"grees":7537,"Ġcast":7538,"Ġpoor":7539,"ĠDec":7540,"Ġscheme":7541,"Ġce":7542,"mpt":7543,"Rule":7544,"require":7545,"Ġheter":7546,"Mixin":7547,"Ġspatial":7548,"Ġmeasures":7549,"}}^":7550,"Edit":7551,"Ġincub":7552,"security":7553,"Ġconflict":7554,"Ġ2006":7555,"keep":7556,"Ġproviding":7557,"Ġfavor":7558,"Ġtopo":7559,"ĠConstruct":7560,"Ġwhite":7561,"ĠClient":7562,"Ġplease":7563,"nx":7564,"Ġcompleted":7565,"Ġaffected":7566,"Ġrequirements":7567,"MAT":7568,"ĠOver":7569,"Ġcalls":7570,"Thread":7571,"Ġloaded":7572,"uli":7573,"Ġtele":7574,"ĠÂł":7575,"FS":7576,"Ġconclude":7577,"Ġplant":7578,"Ġ])":7579,"optimizer":7580,"Ġrequested":7581,"black":7582,"functions":7583,"CHE":7584,"Ġmagn":7585,"olic":7586,"Ġconvict":7587,"gence":7588,"Ġops":7589,"Ġslow":7590,"Ġeval":7591,"Current":7592,"DITIONS":7593,"css":7594,"Ġsense":7595,"Ġsmooth":7596,"parametrize":7597,"Ġliver":7598,"mia":7599,"ĊĠĠĠĠĠĠĠĠĠĠĠĠĠĠĠĠĠĠĠĠĠĠĠĠĠĠĠĠĠĠĠĠĠĠĠĠĠĠĠĠĠĠĠĠĠĠĠĠĠĠĠĠĠĠĠĠĠĠĠĠĠĠĠĠĠĠĠĠĠĠĠĠĠĠĠĠĠĠĠĠ":7600,"Ġenc":7601,"________________":7602,"Ġ2019":7603,"Ġpathway":7604,"positive":7605,"Ġbaseline":7606,"stage":7607,"Build":7608,"BP":7609,"ki":7610,"encoding":7611,"Ġzone":7612,"Optional":7613,"mas":7614,"Ġtaking":7615,"Ġspecifically":7616,"ĠWorld":7617,"Ġchemical":7618,"ĠĠĠĠĠĠĠĠĠĠĠĠĠĠĠĠĠĠĠĠĠĠĠĠĠĠĠĠĠĠĠĠĠĠĊĠ":7619,"ĠWork":7620,"Ġintensity":7621,"uv":7622,"regex":7623,"Ġones":7624,"={\"":7625,"Ġmanager":7626,"Ġautomatically":7627,"FC":7628,"ĠJuly":7629,"Ġuniform":7630,"Ġscalar":7631,"onent":7632,"prod":7633,"Ġsleep":7634,"percent":7635,"ĠUnless":7636,"ĠRule":7637,"Ġgenetic":7638,"(\"--":7639,"Ġrelates":7640,"Ġdefendants":7641,"127":7642,"NotFound":7643,"Port":7644,"oted":7645,"Ġstdout":7646,"unct":7647,"requires":7648,"Ġextent":7649,"hold":7650,"Ġbyte":7651,"ĠUsing":7652,"LC":7653,"Ġpolit":7654,"ĠÑģ":7655,"Ġbecame":7656,"ociation":7657,"Ġredirect":7658,"kind":7659,"Ġpermission":7660,"tyle":7661,"impl":7662,"Ġconfirmed":7663,"fixture":7664,"within":7665,"ple":7666,"sensors":7667,"Ġrepo":7668,":**":7669,"Ġsections":7670,"Ġ\"<":7671,"Ġrotation":7672,"Ġreceive":7673,"parts":7674,"dc":7675,"Ġgeneration":7676,"Ġcaus":7677,"Ġillustr":7678,"=======":7679,"ĠCONDITIONS":7680,"DU":7681,"ĠBASIS":7682,"Ġpacket":7683,"Ġconstants":7684,"Ġ120":7685,"tailed":7686,"Ġouter":7687,"ione":7688,"speed":7689,"Ġobservation":7690,"Ġste":7691,"Ġbusiness":7692,"={}":7693,"once":7694,"Ġbrief":7695,"ĠĠĠĠĠĠĠĠĠĠĠĠĠĠĠĠĠĠĠĠĠĠĠĠĠĠĠĠĠĠĠĠĠĠĠĊĠ":7696,"Ġ{{\\":7697,"Ġsubsequent":7698,"abe":7699,"Ġcms":7700,"Ġsaved":7701,"Ġsupports":7702,"Ġtokens":7703,"alias":7704,"prior":7705,"ĠAugust":7706,"experim":7707,"FR":7708,"Ġrepresented":7709,"ĠService":7710,"Ð²":7711,"Ġ\"[":7712,"ishing":7713,"ĠApril":7714,"vember":7715,"'ll":7716,"Ġreleased":7717,"Configuration":7718,"ĠUpdate":7719,"Ġblue":7720,"Ġsensitivity":7721,"Ġabs":7722,",),":7723,"ali":7724,"attice":7725,"Ġeasily":7726,"lish":7727,"hot":7728,"tw":7729,"ÑĮ":7730,"det":7731,"ills":7732,"Ġpurch":7733,"Ġrecently":7734,"mgmt":7735,"ateral":7736,"Ġanimals":7737,"Ġextended":7738,"Ġsubstantial":7739,"(\\[":7740,"Rel":7741,"ĠPO":7742,"dk":7743,"Ġcountry":7744,"Ġculture":7745,"upload":7746,"rical":7747,"Ġinvestigated":7748,"Vert":7749,"extension":7750,"Ġapo":7751,"ĠMag":7752,"colors":7753,"BR":7754,"pkg":7755,"}=\\":7756,"Tr":7757,"Ġexperience":7758,"Ġconfirm":7759,"Ġlive":7760,"Ġleads":7761,"cles":7762,"ables":7763,"ĠInput":7764,"unds":7765,"fficients":7766,"world":7767,"olding":7768,"Ġgradient":7769,"USE":7770,"serialized":7771,"ĠChar":7772,"Ġord":7773,"meth":7774,"primary":7775,"ssible":7776,"ĠOctober":7777,")}\\":7778,"scr":7779,"Simplify":7780,"Length":7781,"ague":7782,"Ïħ":7783,"ĠTech":7784,"ĠFran":7785,"Ġdiscrimin":7786,"Ġtranscription":7787,"Ġwit":7788,"ĠĠĠĠĠĠĠĠĠĠĠĠĠĠĠĠĠĠĠĠĠĠĠĠĠĠĠĠĠĠĠĠĠĠĠĠĊĠ":7789,"}]":7790,"Ġmeaning":7791,"Ġmaps":7792,"requency":7793,"fname":7794,"Ġattach":7795,"$)":7796,"}')":7797,"illa":7798,"ppe":7799,"caps":7800,"Ġcomputed":7801,"riend":7802,"worker":7803,"ĠSD":7804,"==========":7805,"Any":7806,"Ġprecision":7807,"Ġmerge":7808,"subject":7809,"Îº":7810,"eg":7811,"encoder":7812,"ored":7813,"Ġexamined":7814,"Ġincorpor":7815,"Ġrect":7816,"Ġpept":7817,"Ġrepresenting":7818,"methods":7819,"Dist":7820,"wall":7821,"ĊĠĠĠĠĠĠĠĠĠĠĠĠĠĠĠĠĠĠĠĠĠĠĠĠĠĠĠĠĠĠĠĠĠĠĠĠĠĠĠĠĠĠĠĠĠĠĠĠĠĠĠĠĠĠĠĠĠĠĠĠĠĠĠĠĠĠĠĠĠĠĠĠĠĠĠĠĠĠĠĠĠ":7822,"[:-":7823,"queeze":7824,"basic":7825,"Ġcome":7826,"ĠResult":7827,"pers":7828,"ĠSeptember":7829,"Ġcauses":7830,"Callback":7831,"Ġnetworks":7832,"joint":7833,"Ġcomplaint":7834,"pin":7835,"ĠDO":7836,"amine":7837,"allest":7838,"Ġappend":7839,"UB":7840,"^-":7841,"Access":7842,"Search":7843,"Ġclassification":7844,"limits":7845,"ocytes":7846,"Ġflux":7847,"complex":7848,"qubit":7849,"ĠDecember":7850,"choice":7851,"Ġformer":7852,"Ġcas":7853,"Ġexecution":7854,"ims":7855,"Dialog":7856,"ĠRun":7857,"Â¶":7858,"Ġpara":7859,"Ġunless":7860,"ĠSan":7861,"constraint":7862,"checkpoint":7863,"ĠSuch":7864,"Ġmal":7865,"Ġ44":7866,"iated":7867,"Ġparticle":7868,"Template":7869,"Ġconcer":7870,"Ġterminal":7871,"Job":7872,"quis":7873,"ssl":7874,"INTER":7875,"verify":7876,"brid":7877,"Ñĭ":7878,"inations":7879,"Ġdescribe":7880,"Ġmenu":7881,"plas":7882,"abstract":7883,"getLogger":7884,"Types":7885,"Ġdiseases":7886,"Mark":7887,"cdots":7888,"ĠĠĠĠĠĠĠĠĠĠĠĠĠĠĠĠĠĠĠĠĠĠĠĠĠĠĠĠĠĠĠĠĠĠĠĠĠĊĠ":7889,"effective":7890,"Ġprovision":7891,"omas":7892,"('.":7893,"\\[[@":7894,"prev":7895,"/-":7896,"itter":7897,"Hz":7898,"ĠÃĹ":7899,"ĠÃ©":7900,"Ġdrive":7901,"Web":7902,"itled":7903,"({\"":7904,"Ġ39":7905,"Ġsignature":7906,"æķ°":7907,"Ġdefect":7908,"Ġsaf":7909,"Chang":7910,"Ġisolated":7911,"NR":7912,"assertFalse":7913,"codes":7914,"Ġum":7915,"ĠBoard":7916,"iph":7917,"tely":7918,"Ġsn":7919,"Flow":7920,"ĠLem":7921,"ĠMethod":7922,"Ġdynamic":7923,"heel":7924,"Float":7925,"Ġintroduced":7926,"Ġflat":7927,"Ġcomposition":7928,"ĠFinally":7929,"wik":7930,"nce":7931,"translate":7932,"found":7933,"Ġ-=":7934,"targets":7935,"%%":7936,"Ġ[])":7937,"edges":7938,"Ġedit":7939,"ĠTuple":7940,"Ġplane":7941,"padding":7942,"Ġmajority":7943,"ĠPM":7944,"links":7945,"ĠDataFrame":7946,"ibly":7947,"URE":7948,"suffix":7949,"åħ":7950,"Ġmatplotlib":7951,"kl":7952,"credentials":7953,"entries":7954,"atom":7955,"Ġ2005":7956,"Ġunderstanding":7957,"Ġcorre":7958,"Ġkeyword":7959,"Ġlip":7960,"Ġarr":7961,"Ġslight":7962,"NING":7963,"Ġmu":7964,"Ġsing":7965,"dn":7966,"}}{\\":7967,"ĠCommission":7968,"GS":7969,"Range":7970,"reet":7971,"rea":7972,"Ġframework":7973,"Serializer":7974,"stant":7975,"âĢľ":7976,"ĠDepartment":7977,"ĠJohn":7978,"ĠNow":7979,"Ġliterature":7980,"Ġsafe":7981,"recor":7982,"ĠSchool":7983,"Params":7984,"Direct":7985,"olar":7986,"cks":7987,"lifer":7988,"Ġvent":7989,"ucose":7990,"ĠFunction":7991,"Ġanything":7992,"ailability":7993,"okie":7994,"NESS":7995,"imed":7996,"Ġgoal":7997,"Å¡":7998,"Ġcosts":7999,"Ġamin":8000,"Ġregression":8001,"']),":8002,"Num":8003,"avy":8004,"Ġconc":8005,"ĠĠĠĠĠĠĠĠĠĠĠĠĠĠĠĠĠĠĠĠĠĠĠĠĠĠĠĠĠĠĠĠĠĠĠĠĠĠĊĠ":8006,"unded":8007,"iling":8008,"ĠHTML":8009,"Header":8010,"Ġvirus":8011,"push":8012,"Ġring":8013,"scan":8014,"Ġ300":8015,"ĠNode":8016,"ech":8017,"keyword":8018,"Ġefficiency":8019,"Series":8020,"Ġusage":8021,"Ġdet":8022,"CONFIG":8023,"Ġ{}'.":8024,"ko":8025,"Ġfederal":8026,"Ġalleged":8027,"icture":8028,"ategorical":8029,"Ġhope":8030,"mc":8031,"Ġscatter":8032,"EP":8033,"ĠEvent":8034,"Ġ${":8035,"pread":8036,"Ġoutcomes":8037,"__\":":8038,"Ġcontrolled":8039,"irror":8040,"packages":8041,"Ġlabor":8042,"vocab":8043,"Ċĉĉĉĉĉ":8044,"IA":8045,"Ġwild":8046,"iment":8047,"voke":8048,"ny":8049,"Ġdivision":8050,"Ġcounts":8051,"Prov":8052,"Ġves":8053,"Ġduplic":8054,"illing":8055,"Ġcsv":8056,"iso":8057,"Ġlogin":8058,"Ġarter":8059,"ought":8060,"constructor":8061,"hort":8062,"Ġcreating":8063,"itutional":8064,"Profile":8065,"Ġsignaling":8066,"Click":8067,"cluding":8068,"ĊĠĠĠĠĠĠĠĠĠĠĠĠĠĠĠĠĠĠĠĠĠĠĠĠĠĠĠĠĠĠĠĠĠĠĠĠĠĠĠĠĠĠĠĠĠĠĠĠĠĠĠĠĠĠĠĠĠĠĠĠĠĠĠĠĠĠĠĠĠĠĠĠĠĠĠĠĠĠĠĠĠĠ":8069,"Ġassuming":8070,"DD":8071,"break":8072,"ĠObject":8073,"identifier":8074,"ĠHow":8075,"008":8076,"Ġrepro":8077,"Pass":8078,"ForeignKey":8079,"oration":8080,"eries":8081,"Ġprepar":8082,"Ġfake":8083,"Ġcarbon":8084,"Ġemer":8085,">'":8086,"ueue":8087,"\"}),":8088,"shared":8089,"ilities":8090,"ĊĊĊĠĠĠĠĠĠĠ":8091,"Ġeasy":8092,"room":8093,"TF":8094,"Sim":8095,"ECT":8096,"Ġpackages":8097,"negative":8098,"Ġgalax":8099,"ĠTex":8100,"Ġvm":8101,"utive":8102,"ĠFIT":8103,"1234":8104,"irs":8105,"LD":8106,"Ġadding":8107,"stim":8108,"Ġcos":8109,"\\]).":8110,"}|":8111,"ĠĠĠĠĠĠĠĠĠĠĠĠĠĠĠĠĠĠĠĠĠĠĠĠĠĠĠĠĠĠĠĠĠĠĠĠĠĠĠĊĠ":8112,"IGN":8113,"Controller":8114,"ĠmRNA":8115,"Ġcort":8116,"Ġil":8117,"Ġcorrectly":8118,"bat":8119,"Ġeq":8120,"izations":8121,"Note":8122,"Ġreply":8123,"Ġ75":8124,"Ġchronic":8125,"Ġenhan":8126,"ership":8127,"ĠTH":8128,"Child":8129,"Ġassessed":8130,"PY":8131,"Ġtell":8132,"Ġstatistical":8133,"Ġsuggests":8134,"Ġmuscle":8135,"bruary":8136,"ULAR":8137,"mediately":8138,"Ġ))":8139,"Ñĩ":8140,"ulo":8141,"Ġscan":8142,"Warning":8143,"ibration":8144,"Ġexplain":8145,"hydro":8146,"icies":8147,"analysis":8148,"ĠRef":8149,"Ġconversion":8150,"Ġsquare":8151,"('%":8152,"']))":8153,"Ġdut":8154,")'":8155,"helial":8156,"sha":8157,"chunk":8158,"Ġtook":8159,"ban":8160,"aste":8161,"Ġsevere":8162,"Ġenh":8163,"Ġrats":8164,"LED":8165,"hetic":8166,"Ġreferred":8167,"Ġsubset":8168,"Ġsimulation":8169,"Ġboot":8170,"ĠPART":8171,"Schema":8172,"Ġchosen":8173,"fort":8174,"Ġcity":8175,"mig":8176,"Ġchunk":8177,"ventory":8178,"Ġattempt":8179,"Target":8180,"Â§":8181,"Ġminim":8182,"ĠCell":8183,"Ġexpand":8184,"Record":8185,"IX":8186,"ĠHel":8187,"analy":8188,"bg":8189,"zon":8190,"BB":8191,"2009":8192,"anks":8193,"Ġpurposes":8194,"rozen":8195,"ustral":8196,"cade":8197,"Ġled":8198,"fa":8199,"chmark":8200,"VERSION":8201,"Ġimmune":8202,"Ġprovider":8203,"cii":8204,"ĠIII":8205,"DC":8206,"Ġvariation":8207,"ĠĠĠĠĠĠĠĠĠĠĠĠĠĠĠĠĠĠĠĠĠĠĠĠĠĠĠĠĠĠĠĠĠĠĠĠĠĠĠĠĊĠ":8208,"Ġassessment":8209,"energy":8210,"elements":8211,"Batch":8212,"Med":8213,"cher":8214,"Ġcomposite":8215,"ura":8216,"phen":8217,"returns":8218,"âĸĪ":8219,"ĠDeter":8220,"ĠSeries":8221,"plies":8222,"lookup":8223,"Ġ55":8224,"ĠPa":8225,"After":8226,"čĊĠĠĠĠĠĠĠĠĠĠĠĠĠĠĠĠĠĠĠĠĠĠĠ":8227,"Tests":8228,"ĠGen":8229,"**(":8230,"010":8231,"()):":8232,"Ġdefaults":8233,"Tab":8234,"Ġpor":8235,"anned":8236,"Ġalone":8237,"ĠÐ½":8238,"POSE":8239,"ĠEN":8240,"bbox":8241,"Ġgain":8242,"elif":8243,"Project":8244,"Ġvariety":8245,"GT":8246,"Emp":8247,"Ġcyto":8248,"LP":8249,"Obj":8250,"Ġprog":8251,"minimal":8252,"Bl":8253,"ĠMake":8254,"Channel":8255,"ĠProject":8256,"Vol":8257,"Ġretain":8258,"Ġwire":8259,"ĠJudge":8260,"Ġaway":8261,"Ġachieve":8262,"ĠSimilar":8263,"ography":8264,"coin":8265,"Ġ{})":8266,"ĠSecond":8267,"coords":8268,"Ġgoogle":8269,"ĠJo":8270,"MC":8271,"Ġidea":8272,"iological":8273,"screen":8274,"ĠClo":8275,"Ġdestination":8276,"repe":8277,"Ġpercentage":8278,"Ġprefer":8279,"Ġparsed":8280,"Ġcontroller":8281,"LOW":8282,"Ġ65":8283,"ĠRequest":8284,"Pat":8285,"Ġequip":8286,"'})":8287,"ĊĠĠĠĠĠĠĠĠĠĠĠĠĠĠĠĠĠĠĠĠĠĠĠĠĠĠĠĠĠĠĠĠĠĠĠĠĠĠĠĠĠĠĠĠĠĠĠĠĠĠĠĠĠĠĠĠĠĠĠĠĠĠĠĠĠĠĠĠĠĠĠĠĠĠĠĠĠĠĠĠĠĠĠ":8288,"IVE":8289,"rices":8290,"First":8291,"Ġvoc":8292,"ĠNovember":8293,"Ġshutil":8294,"Ġreports":8295,"ĠLine":8296,"Ġfamil":8297,"Ġowner":8298,"aussian":8299,"Env":8300,"Ġeffort":8301,"urations":8302,"Ġinher":8303,"dst":8304,"ivil":8305,"Ġexclude":8306,"Ġbucket":8307,"Ġvitro":8308,"Ġpolymer":8309,"Top":8310,"ras":8311,"]-":8312,"gramming":8313,"Ġsmallest":8314,"VICE":8315,"latest":8316,"measure":8317,"Ġinstant":8318,"sorted":8319,"gon":8320,"ĠĠĠĠĠĠĠĠĠĠĠĠĠĠĠĠĠĠĠĠĠĠĠĠĠĠĠĠĠĠĠĠĠĠĠĠĠĠĠĠĠĊĠ":8321,"125":8322,"ternational":8323,"Document":8324,"slug":8325,"ĠNorth":8326,"xygen":8327,"pts":8328,"ĠCent":8329,"Ġstrain":8330,"Ġpredictions":8331,"è¿":8332,"ĠMax":8333,"uniform":8334,"Ġcompletely":8335,"()]":8336,"background":8337,"Ġfluores":8338,"Ġtrials":8339,"ĠCT":8340,"roke":8341,"calls":8342,"Ġsuccessfully":8343,"scalar":8344,"Ġchecks":8345,"Ġantibody":8346,"Ġfp":8347,"oman":8348,"apeut":8349,"Ġvac":8350,"Ġsampling":8351,"Ġpp":8352,"Ġ'')":8353,"lene":8354,"Custom":8355,"AF":8356,"share":8357,"ora":8358,"rier":8359,"ĠMark":8360,"[[":8361,"ulf":8362,"Ġhum":8363,"men":8364,"ÂĢ":8365,"crete":8366,"Ġeigen":8367,"abetes":8368,"uation":8369,"Ġdependencies":8370,"/',":8371,"ris":8372,"integr":8373,"Ġmoun":8374,"mL":8375,"regular":8376,"Ġexactly":8377,"constants":8378,"house":8379,"HA":8380,"Ġconclusion":8381,"Ġdrugs":8382,"sparse":8383,"Linear":8384,"Ġearlier":8385,"Admin":8386,"Ġboxes":8387,"poration":8388,"Ġts":8389,"Ġcategories":8390,"Ġcredentials":8391,"ĠDet":8392,"00000":8393,"Ġsuccessful":8394,"ĠRep":8395,"jpg":8396,"integer":8397,"itionally":8398,"flu":8399,":`~":8400,"sep":8401,"inder":8402,"Ġio":8403,"kip":8404,"Ġexercise":8405,"Ġessential":8406,"Ġtox":8407,"Ġmaintain":8408,"ĠĠĠĠĠĠĠĠĠĠĠĠĠĠĠĠĠĠĠĠĠĠĠĠĠĠĠĠĠĠĠĠĠĠĠĠĠĠĠĠĠĠĊĠ":8409,"Ġidentifier":8410,":.":8411,"Ġlegal":8412,"assertIn":8413,"ĠSQL":8414,"ĠÐ²":8415,"added":8416,"Ġtor":8417,"Ġ47":8418,"Ġdepending":8419,"Ġpreval":8420,"Ġattrs":8421,"should":8422,"ometric":8423,"erv":8424,"byte":8425,"Ġ_{":8426,"2008":8427,"controller":8428,"})\\":8429,"Ġprepared":8430,"Ġsuitable":8431,"Ns":8432,"ĠMER":8433,"DNA":8434,"ĠsetUp":8435,"Ġcellular":8436,"vir":8437,"...,":8438,"Interface":8439,"dp":8440,"Ġ2004":8441,"UID":8442,"Parameters":8443,"Ġfemale":8444,"ANG":8445,"');":8446,"endswith":8447,"identity":8448,"cross":8449,"lon":8450,"tod":8451,"estim":8452,"onical":8453,"ara":8454,"rig":8455,"RS":8456,"çĶ":8457,"ĠNetwork":8458,"frames":8459,"Ġrepeated":8460,"ien":8461,"Ġruns":8462,"Ġemission":8463,"usage":8464,"wallet":8465,"Ġmixed":8466,"selection":8467,"Ġmedian":8468,"variance":8469,"Ġsecret":8470,"ission":8471,"ĠHIV":8472,"Ident":8473,"ĠWar":8474,"gical":8475,"ened":8476,"jud":8477,"ees":8478,"fonts":8479,"Ġgranted":8480,"Ġjurisdiction":8481,"Ġ400":8482,"ĠPUR":8483,"Ġlost":8484,"Ġsituation":8485,"``,":8486,"Ġperf":8487,"Ġgap":8488,"ÐµÐ½":8489,"updated":8490,"stud":8491,"Ġmolecules":8492,"Ġminor":8493,"================================================================":8494,"aired":8495,"strategy":8496,"Ġecon":8497,"apped":8498,"Ġvary":8499,"ĠDav":8500,"Äģ":8501,"ĠĠĠĠĠĠĠĠĠĠĠĠĠĠĠĠĠĠĠĠĠĠĠĠĠĠĠĠĠĠĠĠĠĠĠĠĠĠĠĠĠĠĠĊĠ":8502,"equiv":8503,"Ġcompet":8504,"AY":8505,"Ġbreast":8506,"Ġoptimal":8507,"Ġgetting":8508,"contact":8509,"Ġflex":8510,"Ġroll":8511,"Ġborder":8512,"initions":8513,"Ġ43":8514,"Ġvas":8515,"ĠCommand":8516,"Ġsoft":8517,"Boolean":8518,"Ġlatter":8519,"Ġdomin":8520,"segment":8521,"Ġ2020":8522,"DIS":8523,"ĠAM":8524,"Ġreader":8525,"Ġstrict":8526,"tour":8527,"hostname":8528,"partition":8529,"Ġadopt":8530,"ĠMock":8531,"ĠDate":8532,"ĊĠĠĠĠĠĠĠĠĠĠĠĠĠĠĠĠĠĠĠĠĠĠĠĠĠĠĠĠĠĠĠĠĠĠĠĠĠĠĠĠĠĠĠĠĠĠĠĠĠĠĠĠĠĠĠĠĠĠĠĠĠĠĠĠĠĠĠĠĠĠĠĠĠĠĠĠĠĠĠĠĠĠĠĠ":8533,"ĠStat":8534,"registry":8535,"Main":8536,"Ġchoose":8537,"Ġ\")":8538,"Ġlimits":8539,"Ġpages":8540,"Ġwrt":8541,"abspath":8542,"Ġsig":8543,"ĠIll":8544,"Ġtestified":8545,"Ġcoverage":8546,"fric":8547,"elect":8548,"Ġholds":8549,"Ġmoved":8550,"ĠKeyError":8551,"approx":8552,"Post":8553,"&=":8554,"Ġ41":8555,"ductor":8556,"ĠHence":8557,"Rep":8558,"uscript":8559,"Ġintr":8560,"Ġachieved":8561,"dropout":8562,"Ġthought":8563,"Ġå":8564,"ĠPost":8565,"Ġordered":8566,"Ġ}}":8567,"GP":8568,"Ġdetermination":8569,"ĠâĢĶ":8570,"Ġprolifer":8571,"ĠExamples":8572,"Auth":8573,"DateTime":8574,"Ġcompri":8575,"Ġdirected":8576,"Ġapparent":8577,"atern":8578,"isted":8579,"library":8580,"named":8581,"Ġindu":8582,"hr":8583,"activation":8584,"lege":8585,"ĠSm":8586,"uz":8587,"environment":8588,"Ġ56":8589,"ĠEl":8590,"-(":8591,"Location":8592,"Ġthing":8593,"Host":8594,"Ġmix":8595,"Ġ:,":8596,"\\*\\*":8597,"***":8598,"ĠWhether":8599,"Ġtopic":8600,"Many":8601,"green":8602,"Normal":8603,"reader":8604,"čĊĠĠĠĠĠ":8605,"WARE":8606,"ĠFour":8607,"ĠDefendant":8608,"attach":8609,"]}":8610,"Ġwarran":8611,"Ġcamera":8612,"builder":8613,"scripts":8614,"parallel":8615,"Ġdynamics":8616,"Ġintervention":8617,"ĠĠĠĠĠĠĠĠĠĠĠĠĠĠĠĠĠĠĠĠĠĠĠĠĠĠĠĠĠĠĠĠĠĠĠĠĠĠĠĠĠĠĠĠĊĠ":8618,"ĠSign":8619,"issue":8620,"erate":8621,"Ġregulation":8622,"CHANT":8623,"äº":8624,"Ġversus":8625,"Ġtissues":8626,"Ġreplic":8627,"Ġexchange":8628,"Ġentered":8629,"Ġcircumstances":8630,"ĠPURPOSE":8631,"Ġskin":8632,"Ġlung":8633,"Ġhence":8634,"origin":8635,"Ġvectors":8636,"150":8637,"Ġletter":8638,"Ġhref":8639,"Ġversions":8640,"Ġamb":8641,"Vis":8642,"ĠMO":8643,"cted":8644,"}\\,":8645,"widehat":8646,"Ġcandidate":8647,"ĠSur":8648,"Ġimmediately":8649,"Ġtub":8650,"orse":8651,"Ġdark":8652,"collect":8653,"Style":8654,"Ġstudents":8655,"ĠPARTIC":8656,"Â¸":8657,"Ġnd":8658,"uples":8659,"Ġignored":8660,"cn":8661,"404":8662,"ITE":8663,"Ġepisode":8664,"ĠNS":8665,"Lib":8666,"ARY":8667,"Ġworker":8668,">`":8669,"Ġimplies":8670,"VID":8671,"Ġmortality":8672,"BASE":8673,"ĠOper":8674,"1111":8675,"Ġstock":8676,"CHANTABILITY":8677,"Account":8678,"detail":8679,"iac":8680,"Ġplaces":8681,"ĠWhich":8682,"ĠAttribute":8683,"Ġ*,":8684,"Load":8685,"Ġvariant":8686,"Ġarrays":8687,"transport":8688,"Ġintended":8689,"/\"":8690,"Ġdependent":8691,"RT":8692,"reverse":8693,"Ġalgebra":8694,"Ġjudge":8695,"ĠFebruary":8696,"Ġasked":8697,"ĠPARTICULAR":8698,"Ġpan":8699,"Ġslice":8700,"ãĢĤ":8701,"ĠĠĠĠĠĠĠĠĠĠĠĠĠĠĠĠĠĠĠĠĠĠĠĠĠĠĠĠĠĠĠĠĠĠĠĠĠĠĠĠĠĠĠĠĠĊĠ":8702,"ounts":8703,"Ġdeal":8704,"aran":8705,"Menu":8706,"Ġacute":8707,"ĠTwo":8708,"Av":8709,"Loader":8710,"ĠVariable":8711,"Ġtm":8712,"osity":8713,"[(":8714,"ĠDB":8715,"Ġcheckpoint":8716,"Ġconj":8717,"Ġmoving":8718,"Ġcoefficients":8719,"arded":8720,"Here":8721,"dtypes":8722,"program":8723,"examples":8724,"radius":8725,"ORS":8726,"wave":8727,"enate":8728,"ulty":8729,"transpose":8730,"2007":8731,"]^.":8732,"scribe":8733,"Ġ&&":8734,"pace":8735,"Norm":8736,"ĠPCR":8737,"otherapy":8738,"aking":8739,"oting":8740,"modified":8741,"Ġdefic":8742,"Ġcallable":8743,"phys":8744,"Cor":8745,"ĠWeb":8746,"ĊĠĠĠĠĠĠĠĠĠĠĠĠĠĠĠĠĠĠĠĠĠĠĠĠĠĠĠĠĠĠĠĠĠĠĠĠĠĠĠĠĠĠĠĠĠĠĠĠĠĠĠĠĠĠĠĠĠĠĠĠĠĠĠĠĠĠĠĠĠĠĠĠĠĠĠĠĠĠĠĠĠĠĠĠĠ":8747,"ochem":8748,"usic":8749,"READ":8750,"OB":8751,"Ġupload":8752,"Vector":8753,"ĠpH":8754,"Ġloading":8755,"FN":8756,"Python":8757,"ĠFIG":8758,"positions":8759,"ĠWindows":8760,"emon":8761,"sched":8762,"ĠÎ²":8763,"yond":8764,"Ġcorresponds":8765,"Ġvivo":8766,"Ġneurons":8767,"Ġmanuscript":8768,"DES":8769,"deserialize":8770,"assign":8771,"Ġ2003":8772,"ĠUN":8773,"ito":8774,"contents":8775,"odds":8776,"Psi":8777,"Ġdil":8778,"Grid":8779,"Ġdetail":8780,"ilo":8781,"æĸ":8782,"Ġpayment":8783,"Ġtransformation":8784,"acent":8785,"nm":8786,"ĠResponse":8787,"Ġ/>":8788,"Ġdatasets":8789,"perm":8790,"Ġmentioned":8791,"Ġgro":8792,"omal":8793,"sat":8794,"Ġcoupling":8795,"pective":8796,"Ġdecimal":8797,"ĠĠĠĠĠĠĠĠĠĠĠĠĠĠĠĠĠĠĠĠĠĠĠĠĠĠĠĠĠĠĠĠĠĠĠĠĠĠĠĠĠĠĠĠĠĠĊĠ":8798,"Ġexpon":8799,"ĠSum":8800,"same":8801,"Http":8802,"Ġnm":8803,"ornia":8804,"Ġresponsible":8805,"balance":8806,"disable":8807,"Ġproto":8808,"ĊČ":8809,"Ġ49":8810,"Ġdst":8811,"Ġlists":8812,"Ġ101":8813,"workers":8814,"plugins":8815,"Î³":8816,"Ġadministration":8817,"Total":8818,"cases":8819,":,":8820,"Ġplaintiffs":8821,"*^":8822,"family":8823,"ulus":8824,"setting":8825,"Ġ72":8826,"isp":8827,"Ġobjective":8828,"Ġmusic":8829,"Ġdocuments":8830,"Î»":8831,"Ġatom":8832,"connected":8833,"Ġ46":8834,"scriptions":8835,"Ġprocedures":8836,"ifferent":8837,"Ġdifferential":8838,"DATE":8839,"ĠSupreme":8840,"randn":8841,"deep":8842,"Eng":8843,"jobs":8844,"signature":8845,"Ġsupply":8846,"Ġ------------------------":8847,"Ġ51":8848,"Ġpopulations":8849,"Phys":8850,"relation":8851,"bottom":8852,"Util":8853,"Ġlig":8854,"ĠFITNESS":8855,"====================":8856,"itecture":8857,"ĠChina":8858,"ya":8859,"asset":8860,"while":8861,"servation":8862,"ocket":8863,"standard":8864,"Ġbiological":8865,"Ġconstraints":8866,"bed":8867,"ssy":8868,"sequently":8869,"ĠMa":8870,"Ġproxy":8871,"cells":8872,"endar":8873,"Ġlot":8874,"ĠLemma":8875,"supported":8876,"phere":8877,"attention":8878,"%.":8879,"iguous":8880,"Struct":8881,"Ġoccup":8882,"Ġradiation":8883,"Operation":8884,"Ġanalog":8885,"Ġem":8886,"Ġinvolve":8887,"Ġvacc":8888,"external":8889,"failed":8890,"Ġ150":8891,"FIL":8892,"Ġassembly":8893,"Ġnormalized":8894,"Ġthereby":8895,"LU":8896,"EG":8897,"Ġmarked":8898,"ĠĠĠĠĠĠĠĠĠĠĠĠĠĠĠĠĠĠĠĠĠĠĠĠĠĠĠĠĠĠĠĠĠĠĠĠĠĠĠĠĠĠĠĠĠĠĠĊĠ":8899,"Use":8900,"Ġplus":8901,"bc":8902,"Ġinvestigate":8903,"Ġgreen":8904,"calc":8905,"hass":8906,"Äį":8907,"ĠRuntimeError":8908,"Ġfails":8909,"Ġgt":8910,"~~~~~~~~":8911,"ni":8912,"ĠBoth":8913,"Ġstem":8914,"009":8915,"agen":8916,"REG":8917,"MAIN":8918,"rev":8919,"Step":8920,"Ġcolors":8921,"anese":8922,":\")":8923,"ĠMich":8924,"Ġapproaches":8925,"rep":8926,"Ġgit":8927,"Ġcalculation":8928,"gather":8929,"ERS":8930,"Ġtoler":8931,"Write":8932,"She":8933,"Ġpriv":8934,"Ġtrust":8935,"Ġspectra":8936,"PP":8937,"Ġ###":8938,"Reference":8939,"Ġcontribution":8940,"Ke":8941,"Ġemployed":8942,"DM":8943,"Ġcharacterized":8944,"Width":8945,"IMIT":8946,"ĠGive":8947,"ĠLib":8948,"Ġconverted":8949,"Which":8950,"ĠAnt":8951,"Ġclusters":8952,"unks":8953,"ysql":8954,"Ġreached":8955,"ĊĠĠĠĠĠĠĠĠĠĠĠĠĠĠĠĠĠĠĠĠĠĠĠĠĠĠĠĠĠĠĠĠĠĠĠĠĠĠĠĠĠĠĠĠĠĠĠĠĠĠĠĠĠĠĠĠĠĠĠĠĠĠĠĠĠĠĠĠĠĠĠĠĠĠĠĠĠĠĠĠĠĠĠĠĠĠ":8956,"Ġâī":8957,"Ġdeleted":8958,"Ġoverride":8959,"Ġrep":8960,"Ġsound":8961,"Ġassumed":8962,"many":8963,"Ġchallenge":8964,"logits":8965,"urer":8966,"Ġexpansion":8967,"Ġelim":8968,"Ġdelivery":8969,"Ġexplained":8970,"Ġ\\>":8971,"Ġsizes":8972,"Ag":8973,"Ġpow":8974,"2006":8975,"Ġspaces":8976,"Ġtransl":8977,">\"":8978,"Ġdisplayed":8979,"ried":8980,"Ipv":8981,"Ġintent":8982,"Ġprocessed":8983,"Ġpolynomial":8984,"olver":8985,"Ġglucose":8986,"AUTH":8987,"roduction":8988,"Ġoperating":8989,"isl":8990,"La":8991,"ĠQuant":8992,"Ġdot":8993,"Ġcarry":8994,"copic":8995,"Ġanimal":8996,"Ġinhibition":8997,"rog":8998,"Transform":8999,"lst":9000,"defaults":9001,"Ġcalling":9002,"Ġsemic":9003,"Description":9004,"XXXX":9005,"ĠMERCHANTABILITY":9006,"Ġfoo":9007,"marker":9008,"coordin":9009,"Ġresulted":9010,"Ã§Ã£o":9011,"ĠĠĊ":9012,"Ġboolean":9013,"ç»":9014,"Ġwriter":9015,"Ġgate":9016,"ĠĠĠĠĠĠĠĠĠĠĠĠĠĠĠĠĠĠĠĠĠĠĠĠĠĠĠĠĠĠĠĠĠĠĠĠĠĠĠĠĠĠĠĠĠĠĠĠĊĠ":9017,"Ġbalance":9018,"--------------------------------------------------------------------------------------------------------------------------------":9019,"Ġbon":9020,"GGER":9021,"Ġmesh":9022,"Ġtrad":9023,"Ġreserved":9024,"\\]),":9025,"illed":9026,"Ġconsole":9027,"ifornia":9028,"ftime":9029,"elihood":9030,"ĠCre":9031,"Ġasyncio":9032,"Ġstrateg":9033,"uess":9034,"wn":9035,"Ġmarkers":9036,"Ġexpert":9037,"Ho":9038,"FE":9039,"Ġ2001":9040,"cred":9041,"eds":9042,"Stat":9043,"Ġvertical":9044,"ĠON":9045,"Ġhass":9046,"clusive":9047,"vin":9048,"SY":9049,"Ġaudio":9050,"ancial":9051,"flatten":9052,"Ġ52":9053,"Delete":9054,"Ġreceiving":9055,"partner":9056,"ĠGra":9057,"Ġ2002":9058,"ĠSto":9059,"ĊĠĠĠĠĠĠĠĠĊĠĠĠ":9060,"Ġthermal":9061,"Ġdegrees":9062,"Ġdetailed":9063,"Url":9064,"filepath":9065,"Ġmanifest":9066,"ĠEnd":9067,"Ġsurvey":9068,"Ġcopyright":9069,"ĠAL":9070,"Ġlisted":9071,"appe":9072,"Ġoxygen":9073,"tle":9074,"how":9075,"clusions":9076,"ĠPR":9077,"randint":9078,"Ġbeyond":9079,"initializer":9080,"Ġantibodies":9081,"VM":9082,"Ġ'{}":9083,"Ġrecording":9084,"ĠHar":9085,"ua":9086,"bor":9087,"ĠĠÂł":9088,")|":9089,"Ġlaser":9090,"iveness":9091,"hemat":9092,"Ġcoefficient":9093,"DEBUG":9094,"dirs":9095,"ĠRO":9096,"Ġdys":9097,"Ġcomes":9098,"Feature":9099,"Ġrequirement":9100,"Ġtowards":9101,"Ġdecay":9102,"bet":9103,"ierarch":9104,"atest":9105,"distribute":9106,"apeutic":9107,"Ġextracted":9108,"ĠĠĠÂł":9109,"ceived":9110,"chemy":9111,"Unit":9112,"Ġexperi":9113,"ĠĠĠĠĠĠĠĠĠĠĠĠĠĠĠĠĠĠĠĠĠĠĠĠĠĠĠĠĠĠĠĠĠĠĠĠĠĠĠĠĠĠĠĠĠĠĠĠĠĊĠ":9114,"Ġthroughout":9115,"Ġrecovery":9116,"Ġoral":9117,"pixel":9118,"Ġenhance":9119,"Ġexistence":9120,"records":9121,"JSON":9122,"certain":9123,"Ġminimal":9124,"Ġubuntu":9125,"Ġlooking":9126,"Ġ54":9127,"Ġelectric":9128,"cohol":9129,"JECT":9130,"ĠUnder":9131,"Ġintegration":9132,"Ġoperators":9133,"quote":9134,"documentclass":9135,"Ġpa":9136,"ientific":9137,"Ġamino":9138,"direction":9139,"Ġdeserialized":9140,"Ġstability":9141,"wx":9142,"_%":9143,"Ġ'#":9144,"Ġorganization":9145,"Ġtypical":9146,"Ġsupra":9147,"ĠNA":9148,"tables":9149,"fmt":9150,"cover":9151,"Ġimportance":9152,"Ġprofession":9153,"ported":9154,"Ġdro":9155,"Ġdepart":9156,"+\"":9157,"Ġelectronic":9158,"Ġcountries":9159,"decoder":9160,"AAAA":9161,"Ret":9162,"Ġbuf":9163,"Ġidentification":9164,"Ġbind":9165,"Change":9166,"expect":9167,"plier":9168,"ĠVol":9169,"Ġ_('":9170,"cussion":9171,"ĉĉĉ":9172,"rat":9173,"wt":9174,"devices":9175,"schedule":9176,"Ġ99":9177,"Ġexcess":9178,"Ġcompound":9179,"flat":9180,"rase":9181,"versed":9182,"å¤":9183,"Ġade":9184,"ĊĠĠĠĠĠĠĠĠĠĠĠĠĠĠĠĠĠĠĠĠĠĠĠĠĠĠĠĠĠĠĠĠĠĠĠĠĠĠĠĠĠĠĠĠĠĠĠĠĠĠĠĠĠĠĠĠĠĠĠĠĠĠĠĠĠĠĠĠĠĠĠĠĠĠĠĠĠĠĠĠĠĠĠĠĠĠĠ":9185,"elem":9186,"Ġleave":9187,"Ġrev":9188,"Ġolder":9189,"Ġattached":9190,"ĠPres":9191,"seg":9192,"Ġreson":9193,"ĠAustral":9194,"Ġcompens":9195,"Container":9196,"Ġrelief":9197,"unicode":9198,"Entity":9199,"Ġtables":9200,"team":9201,"Ġtend":9202,"ĠJust":9203,"Ġdemonstrate":9204,"liter":9205,"Ġapopt":9206,"Api":9207,"ĠDuring":9208,"----------------------------------------":9209,"Ġquite":9210,"Ġvertex":9211,"CB":9212,"Ġacts":9213,"********************************":9214,"Ġdiet":9215,"Ġ\\{":9216,"180":9217,"treated":9218,"anger":9219,"Ġwa":9220,"Multi":9221,"Ġmovement":9222,"Ġ>>":9223,"ducer":9224,"greek":9225,"Ġlocations":9226,"ivar":9227,"scriptor":9228,"Ġbounds":9229,"tar":9230,"Ġeducation":9231,"allclose":9232,"ĠĠĠĠĠĠĠĠĠĠĠĠĠĠĠĠĠĠĠĠĠĠĠĠĠĠĠĠĠĠĠĠĠĠĠĠĠĠĠĠĠĠĠĠĠĠĠĠĠĠĊĠ":9233,"Tuple":9234,"mass":9235,"Ġgrant":9236,"ĠMod":9237,"Temp":9238,"Ġ123":9239,"Only":9240,"ĠQtWidgets":9241,"Example":9242,"kit":9243,"Ġdecomp":9244,"(\"-":9245,"Appe":9246,"dal":9247,"ulatory":9248,"Ġpickle":9249,"Ġsolve":9250,"ryption":9251,"Ġ\\*":9252,"WE":9253,"Ġmainly":9254,"Ġcataly":9255,":'":9256,"Ġisn":9257,"compl":9258,"Ġsusp":9259,"Ġtun":9260,"Ġsparse":9261,"Ġinjection":9262,"Author":9263,"Position":9264,"########################################################################":9265,"embedding":9266,"ĠImportError":9267,"HOST":9268,"ĠFind":9269,"}{-":9270,"Ġclosest":9271,"Random":9272,"elf":9273,"Opt":9274,"Local":9275,"ĠEnt":9276,"2001":9277,"Ġcorrespond":9278,":\"":9279,"ĠBrit":9280,"ĠWARRANTY":9281,"Ġcommerc":9282,"ĠFra":9283,"ington":9284,"Ġmem":9285,"Ġwarning":9286,"čĊčĊ":9287,"Ġvariance":9288,"Ġsafety":9289,"Ġentitled":9290,"answer":9291,"ÑģÑĤ":9292,"Storage":9293,"Ġtranslation":9294,"HR":9295,"Product":9296,"Ġfa":9297,"'^":9298,"('_":9299,"question":9300,"basename":9301,"Ġ---":9302,"Ġpin":9303,"__.__":9304,"claim":9305,"iÃ³n":9306,"pping":9307,"las":9308,"setlength":9309,"determin":9310,"ĠWHERE":9311,"Ġstrains":9312,"cpp":9313,"when":9314,"ĠMeta":9315,"å®":9316,"eto":9317,"ĠEmp":9318,"Ġstderr":9319,"Ġslot":9320,"requests":9321,"Ð¼":9322,"dispatch":9323,"ĠCenter":9324,"berg":9325,"ä½":9326,"ĠĠĠĠĠĠĠĠĠĠĠĠĠĠĠĠĠĠĠĠĠĠĠĠĠĠĠĠĠĠĠĠĠĠĠĠĠĠĠĠĠĠĠĠĠĠĠĠĠĠĠĊĠ":9327,"crib":9328,"Ġcurves":9329,"Ġgamma":9330,"ruit":9331,"Ġstatements":9332,"ĠMessage":9333,"abric":9334,"apps":9335,"ĠPlease":9336,"Ġregex":9337,"Ġ\"'":9338,"Ġ96":9339,"][@":9340,"Ġfootball":9341,"ĠArgument":9342,"Ġdu":9343,"Ġinteract":9344,"Ġstrongly":9345,"Ġtrade":9346,"Ġdenote":9347,"Ġdaily":9348,"large":9349,"Ġretry":9350,"ria":9351,"precision":9352,"ĠâĢĺ":9353,"spaces":9354,"Ġcoordinate":9355,"ysym":9356,"ĠOf":9357,"amsmath":9358,"tp":9359,"alty":9360,"Ġsuffix":9361,"oma":9362,"Gen":9363,"Ġarm":9364,"enance":9365,"Ġatoms":9366,"Buffer":9367,"week":9368,"Ġcompact":9369,"Ġprotection":9370,"ĠNon":9371,"erior":9372,"Ġabund":9373,"Ġsynd":9374,"rolling":9375,"sr":9376,"ita":9377,"Ġquick":9378,"Ġhealthy":9379,"Ġ59":9380,"posal":9381,"Ġpropag":9382,"-+":9383,"Ġreplaced":9384,"Ġrecommend":9385,"Ġextreme":9386,"bsy":9387,"Ġadministr":9388,"ssymb":9389,"rsfs":9390,"ATTR":9391,"mathrsfs":9392,"Ġindent":9393,"mathsf":9394,"audio":9395,"[]":9396,"amssymb":9397,"Ġlinked":9398,"here":9399,"Ġask":9400,"sid":9401,"Close":9402,"Å¾":9403,"tages":9404,"Ġconcern":9405,"qquad":9406,"Ġstatistics":9407,"chronous":9408,"2005":9409,"Ġicon":9410,"amsfonts":9411,"Ġvisible":9412,"Ġspectral":9413,"Ġfair":9414,"ĠDocument":9415,"ĠĠĊĠĠĠ":9416,"Ġsuggesting":9417,"Ġsha":9418,"250":9419,"Ġnuclear":9420,"Ġsom":9421,"amsbsy":9422,"CG":9423,"ĠÏĦ":9424,":\",":9425,"ĠĠĠĠĠĠĠĠĠĠĠĠĠĠĠĠĠĠĠĠĠĠĠĠĠĠĠĠĠĠĠĠĠĠĠĠĠĠĠĠĠĠĠĠĠĠĠĠĠĠĠĠĊĠ":9426,"onia":9427,"BM":9428,"Find":9429,"inux":9430,"Ġbenefit":9431,"upgreek":9432,"Ġdivis":9433,"ugment":9434,"wasysym":9435,"ultaneous":9436,"Ġcomments":9437,"Ġpossibility":9438,"aching":9439,"Ġ&\\":9440,"Ġ256":9441,"har":9442,"Ġsigned":9443,"idemargin":9444,"Collection":9445,"Ġosc":9446,"ĠNor":9447,"acle":9448,"oddsidemargin":9449,"strings":9450,"192":9451,"Ġofficial":9452,"AV":9453,"evaluate":9454,"wrapper":9455,"Ġapproved":9456,"curacy":9457,"Ġstars":9458,"trigger":9459,"ĠCompany":9460,"Ġurllib":9461,"ĠAfric":9462,"Ġstructural":9463,"CIT":9464,"Ġmiddle":9465,"ongo":9466,"||":9467,"Ġbug":9468,"etc":9469,"Ġhypothesis":9470,"Ġbenefits":9471,"sizes":9472,"rh":9473,"ĊĠĠĠĠĠĠĠĠĠĠĠĠĠĠĠĠĠĠĠĠĠĠĠĠĠĠĠĠĠĠĠĠĠĠĠĠĠĠĠĠĠĠĠĠĠĠĠĠĠĠĠĠĠĠĠĠĠĠĠĠĠĠĠĠĠĠĠĠĠĠĠĠĠĠĠĠĠĠĠĠĠĠĠĠĠĠĠĠ":9474,"Ġ:)":9475,"/*":9476,"Supplementary":9477,"Option":9478,"Ġuid":9479,"ĠArray":9480,"rapped":9481,"ĠOutput":9482,"Ġaccord":9483,"neq":9484,"velopment":9485,"permissions":9486,"ĠScience":9487,"ĠBank":9488,"Ġdual":9489,"ĠMS":9490,"ĠBuild":9491,"Ġonline":9492,"Ġcogn":9493,"yy":9494,"}\",":9495,"noise":9496,"setText":9497,"unknown":9498,"lets":9499,"hello":9500,"ASE":9501,"utc":9502,"Ġlogic":9503,"DP":9504,"rine":9505,"Ġgets":9506,"REQU":9507,"rench":9508,"ogram":9509,"ĠCOP":9510,"ĠDirect":9511,"TypeError":9512,"cknow":9513,"Ġctypes":9514,"ĠInternational":9515,"trial":9516,"Ġdecor":9517,"eng":9518,"')[":9519,"Ġaccepted":9520,"Ġmand":9521,"built":9522,"Ġlearn":9523,"epochs":9524,"Ġdefense":9525,"}}}}":9526,"ĠEnglish":9527,"Please":9528,"ascii":9529,"care":9530,"ĠĠĠĠĠĠĠĠĠĠĠĠĠĠĠĠĠĠĠĠĠĠĠĠĠĠĠĠĠĠĠĠĠĠĠĠĠĠĠĠĠĠĠĠĠĠĠĠĠĠĠĠĠĊĠ":9531,"LOCK":9532,"Ġattorney":9533,"clone":9534,"Ġdemand":9535,"license":9536,"country":9537,"Now":9538,"cached":9539,"Ġmutations":9540,"DEF":9541,"Ġsynthesis":9542,"Ġopport":9543,"iology":9544,"è¡":9545,"fr":9546,"Ġfilms":9547,"033":9548,"Ġthickness":9549,"Ġmomentum":9550,"Ġquad":9551,"oked":9552,"ĠRead":9553,"Ġslightly":9554,"decl":9555,"switch":9556,"lm":9557,"Ġnumerical":9558,"fire":9559,"}+\\":9560,"exclude":9561,"Ġinterpretation":9562,"imm":9563,"bro":9564,"Ġepit":9565,"CN":9566,"Ġfee":9567,"Ġcommonly":9568,"born":9569,"Ġargues":9570,"Ġdiscussion":9571,"Ġvisit":9572,"akes":9573,"Ġmodes":9574,"Ġtechnology":9575,"ĠĠĠĠÂł":9576,"ĠCalifornia":9577,"Memb":9578,"Ġacceler":9579,"tems":9580,"Ġtrun":9581,"Ġaddr":9582,"Ġæ":9583,"btn":9584,"learning":9585,"Ġintermediate":9586,"ago":9587,"ned":9588,"Ġidentical":9589,"!\")":9590,"PCR":9591,"addWidget":9592,"Ġinterpol":9593,"ampa":9594,"Ġcloud":9595,"Ġdistingu":9596,"Ġha":9597,"refresh":9598,"gorithms":9599,"020":9600,"Cache":9601,"_)":9602,"ochond":9603,"snapshot":9604,"edDict":9605,"Ġrepository":9606,"cogn":9607,"Ġconfidence":9608,"Ġcreation":9609,"Ġlif":9610,"cers":9611,"Ġcrystal":9612,"gateway":9613,"ĠCustom":9614,"Cho":9615,"Store":9616,"Ġsummar":9617,"Sl":9618,"Ġpermit":9619,"plant":9620,"retry":9621,"ĠĠĠĠĠĠĠĠĠĠĠĠĠĠĠĠĠĠĠĠĠĠĠĠĠĠĠĠĠĠĠĠĠĠĠĠĠĠĠĠĠĠĠĠĠĠĠĠĠĠĠĠĠĠĊĠ":9622,"ires":9623,"')])":9624,"Ġcere":9625,"Ġbbox":9626,"Ġparents":9627,"Ġdiabetes":9628,"Ġ53":9629,"Some":9630,"molecules":9631,"'+":9632,"}^{(":9633,"512":9634,"Ġpursu":9635,"Ġbelieve":9636,"Ġson":9637,"Metadata":9638,"amilton":9639,"Ġlymph":9640,"agger":9641,"gui":9642,"Ġ')":9643,"Sample":9644,"Ġseparated":9645,"verter":9646,"particle":9647,"IPT":9648,"Ġencoder":9649,"Ġconsent":9650,"Ġremoval":9651,"without":9652,"Ġ------------------------------------------------------------------------":9653,"rg":9654,"coord":9655,"ĊĠĠĠĠĠĠĠĠĠĠĠĠĠĠĠĠĠĠĠĠĠĠĠĠĠĠĠĠĠĠĠĠĠĠĠĠĠĠĠĠĠĠĠĠĠĠĠĠĠĠĠĠĠĠĠĠĠĠĠĠĠĠĠĠĠĠĠĠĠĠĠĠĠĠĠĠĠĠĠĠĠĠĠĠĠĠĠĠĠ":9656,"instances":9657,"Ġps":9658,"dash":9659,"Ġadvantage":9660,"minus":9661,"ĠStart":9662,"Ġpathways":9663,"fac":9664,"Ġsensitive":9665,"Collect":9666,"Ġplants":9667,"antic":9668,"Ġcohort":9669,"âķĲ":9670,"ĠLI":9671,"ĠNULL":9672,"Ġresidual":9673,"ORY":9674,"Values":9675,"Ġestimates":9676,"ollowing":9677,"ĠSequence":9678,"Ġexposed":9679,"Ġmov":9680,"Ġprepare":9681,"Ġprevalence":9682,"Ġ(%":9683,":',":9684,"opath":9685,"submit":9686,"Ġnational":9687,"Ġdiscretion":9688,"=',":9689,"Ġmeas":9690,"Ġspl":9691,"shell":9692,"runtime":9693,"Component":9694,"Ġbeginning":9695,"Ġmicros":9696,"ĠCons":9697,"gz":9698,"iat":9699,"subplot":9700,"ingly":9701,"Ġsheet":9702,"Ġconstructed":9703,"Ġvict":9704,"Ġserved":9705,"));":9706,"Âº":9707,"ivari":9708,"thm":9709,"COMP":9710,"watch":9711,"Ġburden":9712,"Next":9713,"Ġbg":9714,"105":9715,"backup":9716,"pages":9717,"vid":9718,"configure":9719,"Ġembedding":9720,"Ġadequ":9721,"ĠĠĠĠĠĠĠĠĠĠĠĠĠĠĠĠĠĠĠĠĠĠĠĠĠĠĠĠĠĠĠĠĠĠĠĠĠĠĠĠĠĠĠĠĠĠĠĠĠĠĠĠĠĠĠĊĠ":9722,"cancel":9723,"loating":9724,"Regex":9725,"ĠIter":9726,"payment":9727,":-":9728,"Ġproportion":9729,"III":9730,"fixed":9731,"mount":9732,"localhost":9733,"Tool":9734,"Ġwindows":9735,"LY":9736,"Ġpregn":9737,"Ġpure":9738,"ford":9739,"ĠInstitute":9740,"what":9741,"ĠAut":9742,"Expected":9743,"UNT":9744,")}{":9745,"Ġhorizontal":9746,"Ġquantity":9747,"ilib":9748,"Match":9749,"FTWARE":9750,"ĠGiven":9751,"Ġ\"{}":9752,"Ġvertices":9753,"Ġworkers":9754,"360":9755,"Ġobvious":9756,"TRA":9757,"ĠSH":9758,"bp":9759,"resourceGroup":9760,"stable":9761,"Ġdiameter":9762,"Ġimprovement":9763,"ĠPort":9764,"Sw":9765,"cretion":9766,"strap":9767,"Ġinstructions":9768,"choices":9769,"Ġviolation":9770,"Ġ1999":9771,"Ġ$(\\":9772,"}}^{":9773,"monitor":9774,"ĠLaw":9775,"2004":9776,"~,":9777,"Title":9778,"};":9779,"Ġ:]":9780,"ROOT":9781,"fol":9782,"Ġtheore":9783,"ĠGoogle":9784,"]$":9785,"ĠComm":9786,"anol":9787,"ĠPD":9788,"Simple":9789,"Ġincidence":9790,"datasets":9791,"ĠApplication":9792,"ĠĠĠĠĠĠĠĠĠĠĠĠĠĠĠĠĠĠĠĠĠĠĠĠĠĠĠĠĠĠĠĠĠĠĠĠĠĠĠĠĠĠĠĠĠĠĠĠĠĠĠĠĠĠĠĠĊĠ":9793,"Ġdamages":9794,"changes":9795,"cha":9796,"Ġtumors":9797,"Ġanyone":9798,"}',":9799,"Ġorders":9800,"Changed":9801,"Ġinvolving":9802,"NET":9803,"ceeded":9804,"ĠTR":9805,"hom":9806,"Ġ57":9807,"ĠAppellant":9808,"ĠÂµ":9809,"processor":9810,"Ġpal":9811,"logies":9812,"']]":9813,"LIST":9814,"ĠDiv":9815,"Ġconsists":9816,"ĠĠĠĠĠÂł":9817,"Ġexplicitly":9818,"ssh":9819,"Ġdump":9820,"015":9821,"Ġprograms":9822,"Ġexcluded":9823,"Ġdistributions":9824,"ĠKing":9825,"Ġpersons":9826,"gene":9827,"Ġarbitrary":9828,"'$":9829,"Ġfreq":9830,"porter":9831,"Â¼":9832,"168":9833,"ĠAir":9834,"frequency":9835,"iming":9836,",))":9837,"ĠProv":9838,"Ġdoub":9839,"attle":9840,"capt":9841,"roadcast":9842,"Ġplayed":9843,"fun":9844,"Ġattack":9845,"Ġoppos":9846,"ĠIV":9847,"ĊĠĠĠĠĠĠĠĠĠĠĠĠĠĠĠĠĠĠĠĠĠĠĠĠĠĠĠĠĠĠĠĠĠĠĠĠĠĠĠĠĠĠĠĠĠĠĠĠĠĠĠĠĠĠĠĠĠĠĠĠĠĠĠĠĠĠĠĠĠĠĠĠĠĠĠĠĠĠĠĠĠĠĠĠĠĠĠĠĠĠ":9848,"Ġexceptions":9849,"urance":9850,"Ġenzyme":9851,"ĠPA":9852,"COMM":9853,"Ġstaff":9854,"Ġclip":9855,"cam":9856,"Ġopening":9857,"Ġenhanced":9858,"ifying":9859,"Ġmillion":9860,"Ġhit":9861,"Rad":9862,"ĠProcess":9863,"Ġdetermining":9864,"mbed":9865,"iral":9866,"icular":9867,"Ġrout":9868,"Cle":9869,"protein":9870,"Ġfacilit":9871,"Ġkeras":9872,"closed":9873,"Ġ00":9874,"Americ":9875,"ĠRet":9876,"Ġdire":9877,"tries":9878,"Ġshif":9879,"Ġreferences":9880,"Train":9881,"endment":9882,"Ġhook":9883,"mous":9884,"Ġsupplement":9885,"Queue":9886,"covery":9887,"ĠEV":9888,"bian":9889,"Ġupdates":9890,"ĠPark":9891,"Ġsemicon":9892,"Shape":9893,"Ġyes":9894,"Ġarrest":9895,"Ġscipy":9896,"Ġdiscovery":9897,"tan":9898,"Ġuuid":9899,"ius":9900,"ĠĠĠĠĠĠĠĠĠĠĠĠĠĠĠĠĠĠĠĠĠĠĠĠĠĠĠĠĠĠĠĠĠĠĠĠĠĠĠĠĠĠĠĠĠĠĠĠĠĠĠĠĠĠĠĠĠĊĠ":9901,"Ġoxid":9902,"Ġbirth":9903,"lik":9904,"amental":9905,"agraph":9906,"neighb":9907,"Ġnative":9908,"visible":9909,"Car":9910,"Ġlattice":9911,"Ptr":9912,"ĠTask":9913,"Ġmagnitude":9914,"Ġja":9915,"feat":9916,"ection":9917,"gal":9918,"Ġfragment":9919,"ORE":9920,"stry":9921,"ĠDel":9922,"ĠAff":9923,"average":9924,"Matrix":9925,"Ġ180":9926,"tl":9927,"Ġencoded":9928,"Ġrare":9929,"Ġcorrelated":9930,"Ġexamination":9931,"ĠControl":9932,"Ð´":9933,"Ġoil":9934,"Helper":9935,"Ġ-\\":9936,"NC":9937,"ogeneous":9938,"(\"\"":9939,":])":9940,"Ġlatest":9941,"IAL":9942,"OM":9943,"ĠIg":9944,"tn":9945,"actual":9946,"ĠĊĠĠ":9947,"Ġsin":9948,"}^\\":9949,"Validator":9950,"rif":9951,"Ġcharacteristic":9952,"dense":9953,"reams":9954,"WORD":9955,"Ġdomains":9956,"Route":9957,"Windows":9958,"|-":9959,"separ":9960,"Ġcool":9961,"Ġmeet":9962,"vascular":9963,"Ġpicking":9964,"OH":9965,"sequences":9966,"square":9967,"contract":9968,"Ġframes":9969,"Ġdisp":9970,"mitive":9971,"vated":9972,"Ġsuffer":9973,"rin":9974,"RIGHT":9975,"Â»":9976,"Ġcharged":9977,"buntu":9978,"Ġcolon":9979,"iana":9980,"ĠFL":9981,"Ġcontribut":9982,"Ġmutation":9983,"Parse":9984,"vial":9985,"iary":9986,"Ġelectrode":9987,"achine":9988,"Ġproliferation":9989,"Ġmigration":9990,"gnu":9991,"Ġ58":9992,"Ġhot":9993,"aggreg":9994,"ĠLanguage":9995,"Ġenum":9996,"istor":9997,"}})":9998,"Ġinvestigation":9999,"ĠĠĠĠĠĠĠĠĠĠĠĠĠĠĠĠĠĠĠĠĠĠĠĠĠĠĠĠĠĠĠĠĠĠĠĠĠĠĠĠĠĠĠĠĠĠĠĠĠĠĠĠĠĠĠĠĠĠĊĠ":10000,"icMock":10001,"ĠĠĊĠĠĠĠĠĠĠ":10002,"qty":10003,"Cond":10004,"Ġrestore":10005,"Ġissued":10006,"Ġmeth":10007,"Ġmatrices":10008,"112":10009,"ĠCONF":10010,"Ġrecon":10011,"Ġsurgical":10012,"ĠSP":10013,"Ġvessel":10014,"ĠmM":10015,"Ġtro":10016,"ĠmiR":10017,"IZ":10018,".^[@":10019,"proj":10020,"ĠPoint":10021,"Ġcurr":10022,"relative":10023,"Ro":10024,"amber":10025,"OF":10026,"Ġauthority":10027,"Ġprofiles":10028,"ĠBra":10029,"Ġcodes":10030,"river":10031,"Builder":10032,"Ġcapture":10033,"Ġroles":10034,"hard":10035,"Ġcomputation":10036,"åŃ":10037,"Ġinterests":10038,"members":10039,"dummy":10040,"Ġsignificance":10041,"VALID":10042,"Ġmonitoring":10043,"è®":10044,"ĊĠĠĠĠĠĠĠĠĠĠĠĠĠĠĠĠĠĠĠĠĠĠĠĠĠĠĠĠĠĠĠĠĠĠĠĠĠĠĠĠĠĠĠĠĠĠĠĠĠĠĠĠĠĠĠĠĠĠĠĠĠĠĠĠĠĠĠĠĠĠĠĠĠĠĠĠĠĠĠĠĠĠĠĠĠĠĠĠĠĠĠ":10045,"ffff":10046,"Ġextend":10047,"raries":10048,"Ġdigital":10049,"Ġsimultaneous":10050,"CRIPT":10051,"ĠGraph":10052,"placement":10053,"pan":10054,"bold":10055,"binding":10056,"Role":10057,"ĠDetermine":10058,"Ġmanual":10059,"Ġamplitude":10060,"ĠOP":10061,"ĠHttpResponse":10062,"tor":10063,"Rest":10064,"Ġfinished":10065,"Ġsimulations":10066,"Ġdry":10067,")')":10068,"ĠMot":10069,"associ":10070,"Inst":10071,"pars":10072,"fee":10073,"atterns":10074,"HS":10075,"ĠBack":10076,"ivation":10077,"Ġ110":10078,"templates":10079,"Ġdeviation":10080,"archive":10081,"unter":10082,"ĠKe":10083,"ĠEuropean":10084,"Ġacids":10085,"icate":10086,"}),":10087,"machine":10088,"Ax":10089,"existing":10090,"cnt":10091,"ĠĠĠĠĠĠÂł":10092,"gly":10093,"Âµ":10094,"Ġinitialize":10095,"Ġcertificate":10096,"Ġcopies":10097,"transfer":10098,"ĠĠĠĠĠĠĠĠĠĠĠĠĠĠĠĠĠĠĠĠĠĠĠĠĠĠĠĠĠĠĠĠĠĠĠĠĠĠĠĠĠĠĠĠĠĠĠĠĠĠĠĠĠĠĠĠĠĠĠĊĠ":10099,"ĠGover":10100,"Ġlr":10101,"uge":10102,"Ġgrav":10103,"nor":10104,"iny":10105,"alert":10106,"Font":10107,"isfile":10108,"exe":10109,"genic":10110,"Properties":10111,"Î¯":10112,"hav":10113,"vc":10114,"micro":10115,"Ġintegrated":10116,"processed":10117,"Provider":10118,"FIX":10119,"Ġtherapeutic":10120,"ĠDi":10121,"ĠLi":10122,"Ġcc":10123,"represent":10124,"kele":10125,"allowed":10126,"2003":10127,"Ġmobile":10128,"Sa":10129,"Ġoscill":10130,"Ġclassical":10131,"icks":10132,"Po":10133,"à¸":10134,"olid":10135,"ĠHer":10136,"Ġinverse":10137,"white":10138,"Ġbits":10139,"Ġpretty":10140,"Ġdifferentiation":10141,"maps":10142,"Loss":10143,"Connect":10144,"Ġsouth":10145,"arison":10146,"ĠMulti":10147,"strftime":10148,"override":10149,"Ġ***":10150,"qt":10151,"Two":10152,"front":10153,"redirect":10154,"Ġpolice":10155,"ĊĠĠĠĠĠĠĠĠĠĠĠĠĊĠĠĠĠĠĠĠĠĠĠĠ":10156,"Ġreads":10157,"ael":10158,"ociety":10159,"Ġsymmetry":10160,"ĠEast":10161,"ĠRaises":10162,"aming":10163,"invoice":10164,"Ġ\"\")":10165,"permission":10166,"addle":10167,"------------------------------------------------------------------------":10168,"Ġbegan":10169,"Ġdoct":10170,"attery":10171,"Ġelectrical":10172,"Ġmor":10173,"adow":10174,"subnet":10175,"cil":10176,"lices":10177,"Ġprojection":10178,"Ġlowest":10179,"%),":10180,"uss":10181,"åĽ":10182,"lope":10183,"special":10184,"Param":10185,"ĠHy":10186,"decay":10187,"Ġrecognized":10188,"arp":10189,"Ġoverlap":10190,",âĢĿ":10191,"selves":10192,"2002":10193,"Ġcame":10194,"Ġlogs":10195,"rated":10196,"Section":10197,"Ġ$-":10198,"401":10199,"Ġalk":10200,"pairs":10201,"ĠĠĠĠĠĠĠĠĠĠĠĠĠĠĠĠĠĠĠĠĠĠĠĠĠĠĠĠĠĠĠĠĠĠĠĠĠĠĠĠĠĠĠĠĠĠĠĠĠĠĠĠĠĠĠĠĠĠĠĠĊĠ":10202,"Ġyoung":10203,"600":10204,"Coun":10205,"\\\"":10206,"Ġgeneric":10207,"Union":10208,"Ġways":10209,"Ġlookup":10210,"sensitive":10211,"multiple":10212,"ĠÃł":10213,"IntegerField":10214,"Ġpod":10215,"repeat":10216,"Ġeverything":10217,"Ġpse":10218,"Ġperiph":10219,"Ġalcohol":10220,"Ġcourts":10221,"Ġplural":10222,"Ġbackup":10223,"Ġml":10224,"rote":10225,"Ġrespective":10226,"ĠCle":10227,"Enabled":10228,"ampaign":10229,"??":10230,"utri":10231,"SF":10232,"Ġchart":10233,"sensor":10234,"ĠÐ¸":10235,"Ġbehaviour":10236,"dynamic":10237,"ĠInvalid":10238,"ĠCurrent":10239,"STATE":10240,"Ġì":10241,"However":10242,"deg":10243,"flush":10244,"ĠServer":10245,"Ġserve":10246,"HEAD":10247,"\\^":10248,"Common":10249,"rium":10250,"Ġphoto":10251,"Ã¶r":10252,"Ġsigma":10253,"Ġexplan":10254,"Ġbroadcast":10255,"\"}](":10256,"ician":10257,"undred":10258,"Ġdisorder":10259,"Ġsuc":10260,"Ġorth":10261,"Ġalignment":10262,"Ġty":10263,"Ġresolve":10264,"ila":10265,"MODEL":10266,"served":10267,"Ġorbit":10268,"ĠRad":10269,"Ġmanually":10270,"Ġwrapper":10271,"FLAGS":10272,"Reals":10273,"ĊĠĠĠĠĠĠĠĠĠĠĠĠĠĠĠĠĠĠĠĠĠĠĠĠĠĠĠĠĠĠĠĠĠĠĠĠĠĠĠĠĠĠĠĠĠĠĠĠĠĠĠĠĠĠĠĠĠĠĠĠĠĠĠĠĠĠĠĠĠĠĠĠĠĠĠĠĠĠĠĠĠĠĠĠĠĠĠĠĠĠĠĠ":10274,"ĠMath":10275,"Ġapplying":10276,"foot":10277,"æĹ":10278,"AMP":10279,"anim":10280,"uling":10281,"Ġalias":10282,"ellar":10283,"graphic":10284,"Ġcorrection":10285,"ixtures":10286,"Ġprosec":10287,"Ġprem":10288,"legend":10289,"Ġconnections":10290,"Ġwarranty":10291,"/{}":10292,"Ġsurfaces":10293,"Ġwebsite":10294,"Ġstrategies":10295,"shapes":10296,"ĠChrist":10297,"Ġč":10298,"wb":10299,"Names":10300,"{-":10301,"Ġmixture":10302,"sources":10303,"Wrapper":10304,"ĠDEFAULT":10305,"Ġintegral":10306,"Ġseven":10307,"LOC":10308,"Ġkw":10309,"æĪ":10310,"$_":10311,"Ġflask":10312,"------------------------------------------------":10313,"Ġecho":10314,"pot":10315,"Ġpotentially":10316,"ĠBer":10317,"review":10318,"Packet":10319,"logic":10320,"102":10321,"linux":10322,")\")":10323,"atively":10324,"helpers":10325,"ĠĠĠĠĠĠĠĠĠĠĠĠĠĠĠĠĠĠĠĠĠĠĠĠĠĠĠĠĠĠĠĠĠĠĠĠĠĠĠĠĠĠĠĠĠĠĠĠĠĠĠĠĠĠĠĠĠĠĠĠĠĊĠ":10326,"ĠAdditionally":10327,"years":10328,"lengths":10329,"ĠRT":10330,"Ġholding":10331,"'\"":10332,"Ġarri":10333,"Hash":10334,"Ġinvas":10335,"DT":10336,"Stack":10337,"ĠSOFTWARE":10338,"versions":10339,"Ġmechanical":10340,"ĠAT":10341,"mann":10342,"Ġenvironmental":10343,"Ġpixels":10344,"sphinx":10345,"Ġxy":10346,"readonly":10347,"inical":10348,"BE":10349,"Ġinsulin":10350,"Â½":10351,"Ġorientation":10352,"Ġfoc":10353,"YPE":10354,"resize":10355,"Ġinduction":10356,"./":10357,"subprocess":10358,"Ġtheorem":10359,"decor":10360,"timer":10361,"runner":10362,"Ġdy":10363,"Ġredistribute":10364,"ĠSche":10365,"console":10366,"PV":10367,"Ġlargest":10368,"Ġvocab":10369,"Ġformal":10370,"Ġ1998":10371,"Ġsync":10372,"THER":10373,"ĠIndeed":10374,"Ġscenario":10375,"ituted":10376,"crit":10377,">=":10378,"echo":10379,"Ġhour":10380,"bone":10381,"ipt":10382,"Ġfeel":10383,"Ġuint":10384,"Ġmargin":10385,"')]":10386,"Ġperiods":10387,"Ġaud":10388,"ivariate":10389,"rgb":10390,"Ġpush":10391,"Ġnullable":10392,"unities":10393,"tile":10394,"aped":10395,"hour":10396,"Ġaddresses":10397,"Ġgreatest":10398,"Â®":10399,"Ġhelper":10400,"Head":10401,"lists":10402,"operations":10403,"Non":10404,"Ġiteration":10405,"Ġiso":10406,"Ġhex":10407,"Ġspon":10408,"serializer":10409,"ĠLOG":10410,"android":10411,"jit":10412,"Ġprobe":10413,"Ġtoward":10414,"fraction":10415,"terminal":10416,"ĠOff":10417,"Ġdeveloping":10418,"Comple":10419,"Scale":10420,"='',":10421,"ĠSets":10422,"inoma":10423,"Ġsupplied":10424,"Ġbuilder":10425,"160":10426,"Ïī":10427,"HC":10428,"Ġsust":10429,"Ġsimpl":10430,"don":10431,"Ġstages":10432,"ĠLoad":10433,"Ġconcluded":10434,"Long":10435,"ographic":10436,"Ġomitted":10437,"Ġchanging":10438,"nav":10439,"ancer":10440,"sts":10441,"Ġsyndrome":10442,"Ġcontribute":10443,"ĠĠĠĠĠĠĠĠĠĠĠĠĠĠĠĠĠĠĠĠĠĠĠĠĠĠĠĠĠĠĠĠĠĠĠĠĠĠĠĠĠĠĠĠĠĠĠĠĠĠĠĠĠĠĠĠĠĠĠĠĠĠĊĠ":10444,"Rev":10445,"aud":10446,"materials":10447,"Ġunion":10448,"Ġsqu":10449,"Ġhandling":10450,"Ġenviron":10451,"emo":10452,"Ġdismiss":10453,"utoff":10454,"Ġlit":10455,"Ð¾Ð²":10456,"Evalu":10457,"Ġ63":10458,"Ġpolym":10459,"bul":10460,"Ġwent":10461,"Ġmatched":10462,"ampion":10463,")}$":10464,"Ġ1024":10465,"cheduler":10466,"Ġsan":10467,"Ġpkg":10468,"\")),":10469,"Ġcalculations":10470,"Ġ66":10471,"Ġ:=":10472,"lla":10473,"Ġmental":10474,"ĠDefaults":10475,"Ġmitochond":10476,"router":10477,"aria":10478,"ĠĠĠĠĠĠĠÂł":10479,"packet":10480,"Volume":10481,"TEXT":10482,"ĠCommon":10483,"Ġchecked":10484,"ĊĠĠĠĠĠĠĠĠĠĠĠĠĠĠĠĠĠĠĠĠĠĠĠĠĠĠĠĠĠĠĠĠĠĠĠĠĠĠĠĠĠĠĠĠĠĠĠĠĠĠĠĠĠĠĠĠĠĠĠĠĠĠĠĠĠĠĠĠĠĠĠĠĠĠĠĠĠĠĠĠĠĠĠĠĠĠĠĠĠĠĠĠĠ":10485,"Ġadjacent":10486,"Reader":10487,"Ġlooks":10488,"Plugin":10489,"bust":10490,"KEN":10491,"Ġdas":10492,"Ġgave":10493,"Ġprincipal":10494,"Does":10495,"Ġsemiconductor":10496,"Ġdisabled":10497,"Ġpull":10498,"aux":10499,"}[":10500,"Ġrespond":10501,"Ġexecuted":10502,"yles":10503,"Ġcontinued":10504,"Ġrepr":10505,"Ġaz":10506,"osa":10507,"Ġdx":10508,"Ġcriminal":10509,"åĬ":10510,"BD":10511,"Protocol":10512,"Ġfactory":10513,"ĠView":10514,"Unknown":10515,".-":10516,"017":10517,"ventions":10518,"WR":10519,"cov":10520,"compare":10521,"Ġbelong":10522,"Last":10523,"Ġaux":10524,"Ġsometimes":10525,"cycle":10526,"iration":10527,"Ġalert":10528,"Ġadvanced":10529,"ĠĠĠĠĠĠĠĠĠĠĠĠĠĠĠĠĠĠĠĠĠĠĠĠĠĠĠĠĠĠĠĠĠĠĠĠĠĠĠĠĠĠĠĠĠĠĠĠĠĠĠĠĠĠĠĠĠĠĠĠĠĠĠĊĠ":10530,"Ġpathogen":10531,"Ġhighlight":10532,"Ġyaml":10533,"terior":10534,"Di":10535,"ishes":10536,"Ġari":10537,"Ġsomeone":10538,"Ġom":10539,"Ġabnormal":10540,"water":10541,"ipv":10542,"Ġ85":10543,"{\"":10544,"Ġconstructor":10545,"Ġnur":10546,"yer":10547,"ĠCy":10548,"Show":10549,"Ãª":10550,"}\\\\":10551,"definition":10552,"Mag":10553,"aven":10554,"Tex":10555,"ĠHand":10556,"Directory":10557,"Ġdesp":10558,"ĠCong":10559,"Ġjava":10560,"onymous":10561,"anguages":10562,"Ġ\"#":10563,"Ġpreferred":10564,"Bot":10565,"ÂĤ":10566,"Ġtemper":10567,"ĠAttributeError":10568,"dialog":10569,"Ġsuit":10570,"ipient":10571,"Ġallowing":10572,"ĠDon":10573,"Ġinteresting":10574,"<\\":10575,"âĸĪâĸĪ":10576,"heads":10577,"vl":10578,"ĠUs":10579,"Ġ61":10580,"Ġalloc":10581,"ĠAppeals":10582,"Ġclock":10583,"Ġstaining":10584,"ĠBlock":10585,"INGS":10586,"iller":10587,"Go":10588,"inalg":10589,"Ġrestriction":10590,"GRO":10591,"ĠIR":10592,"hosts":10593,"Ġnic":10594,"Generator":10595,"mathscr":10596,"Geometry":10597,"Ġforming":10598,"Ġconfigured":10599,"|^":10600,"peer":10601,"ĠAnalysis":10602,"Ġinstruction":10603,"Ġsuppress":10604,"Ġscreening":10605,"Ġreducing":10606,"Ġcit":10607,"Ġdiagno":10608,"ĠDjango":10609,"Ġstatistically":10610,"ĠAccordingly":10611,"kedirs":10612,"Ġfname":10613,"Ġinflammatory":10614,".**":10615,"Ġ'\"":10616,"Ġtoday":10617,"Right":10618,"ĠSTAT":10619,"execution":10620,"^^":10621,"ARCH":10622,"ominator":10623,"Files":10624,"Ġsklearn":10625,"panel":10626,"Ġpriority":10627,"Ġ'[":10628,"Ġthin":10629,"geo":10630,"Ġ\\\"":10631,"CODE":10632,"west":10633,"ĠIO":10634,"iversal":10635,"Ġsett":10636,"Ġphenomen":10637,"104":10638,"utdown":10639,"Ġ$|":10640,"Ġperturb":10641,"Ġrecommended":10642,"ĠĠĠĠĠĠĠĠĠĠĠĠĠĠĠĠĠĠĠĠĠĠĠĠĠĠĠĠĠĠĠĠĠĠĠĠĠĠĠĠĠĠĠĠĠĠĠĠĠĠĠĠĠĠĠĠĠĠĠĠĠĠĠĠĊĠ":10643,"Ġrepeat":10644,"Ġstay":10645,"ĠDescription":10646,"Ġelimin":10647,"party":10648,"scheduler":10649,"ĊĠĠĠĠĠĠĠĠĠĠĠĠĠĠĠĠĠĠĠĠĠĠĠĠĠĠĠĠĠĠĠĠĠĠĠĠĠĠĠĠĠĠĠĠĠĠĠĠĠĠĠĠĠĠĠĠĠĠĠĠĠĠĠĠĠĠĠĠĠĠĠĠĠĠĠĠĠĠĠĠĠĠĠĠĠĠĠĠĠĠĠĠĠĠ":10650,"STATUS":10651,"Ġregistered":10652,"emory":10653,"Ġsong":10654,"destination":10655,"Ġproc":10656,"Ġtensors":10657,"RECT":10658,"almost":10659,"Ġpartner":10660,"Ġinfer":10661,"Ġmur":10662,"Ġpharma":10663,"degree":10664,"Ġ1997":10665,"Ġaward":10666,"marks":10667,"uber":10668,"Ġaver":10669,"ÏĮ":10670,"Ġfeedback":10671,"Ġ\"+":10672,"Ġworked":10673,"Ġscaling":10674,"Ġcycl":10675,"Ġmodification":10676,"Ġfiber":10677,"unpack":10678,"Ġdisorders":10679,"pie":10680,"ĠWestern":10681,"ĠRemove":10682,"smo":10683,"Ġreceptors":10684,"Print":10685,"Ġemployee":10686,"ĠFore":10687,"OPT":10688,"Ġnav":10689,"CLASS":10690,"categories":10691,"tb":10692,"Ġmach":10693,"Ġdidn":10694,"peak":10695,"extensions":10696,"ĠWil":10697,"Ġaccordance":10698,"launch":10699,"++++":10700,"Ġnested":10701,"indent":10702,"mention":10703,"prepare":10704,"ĠGermany":10705,"distribution":10706,"PM":10707,"Ġdisc":10708,"]{}]{}":10709,"het":10710,"čĊĠĠĠĠĠĠĠĠ":10711,"History":10712,"ĠOp":10713,"fi":10714,"Ġapoptosis":10715,"Ġfrequencies":10716,"Ġ68":10717,"Ġ404":10718,"replic":10719,"Ġblob":10720,"Ġapproximation":10721,"Ġeight":10722,"Ġaccurate":10723,"Ġhybrid":10724,"Ġfrequently":10725,"Ġball":10726,"Plot":10727,"Ġsymbols":10728,"Ġcardiac":10729,"ĠMac":10730,"Ġsubmitted":10731,"incre":10732,">',":10733,"Ġcapable":10734,"Ġends":10735,"SK":10736,"Cluster":10737,"ĠMIT":10738,"UND":10739,"utory":10740,"Ġdra":10741,"Ġserious":10742,"alchemy":10743,"ĊĊĠĠ":10744,"{(":10745,"projects":10746,"Ġobs":10747,"Ġneglig":10748,"ĠĠĠĠĠĠĠĠĠĠĠĠĠĠĠĠĠĠĠĠĠĠĠĠĠĠĠĠĠĠĠĠĠĠĠĠĠĠĠĠĠĠĠĠĠĠĠĠĠĠĠĠĠĠĠĠĠĠĠĠĠĠĠĠĠĊĠ":10749,"ĠTer":10750,"âķĲâķĲ":10751,"Ġconsideration":10752,"Ġincubated":10753,"Ġschedule":10754,"014":10755,"Ġnormalize":10756,"sto":10757,"Ġactivated":10758,"Items":10759,"uni":10760,"}.$$":10761,"Ġdependence":10762,"itudes":10763,"Ġtit":10764,"ani":10765,"Ġdiagnostic":10766,"Ġbond":10767,"Ġtwice":10768,"Ġhypo":10769,"Ġpulse":10770,"Ġconsumption":10771,"Ġliving":10772,"ĠMost":10773,"advan":10774,"Mac":10775,"law":10776,"Ġ1996":10777,"Ġforces":10778,"plane":10779,"Ġwidely":10780,"Ġsem":10781,"threads":10782,"aterials":10783,"ucl":10784,"ratic":10785,"Ġrounded":10786,"XML":10787,"ĠInformation":10788,"HTML":10789,"aco":10790,"ĠTexas":10791,"Ġles":10792,"Ð°ÑĤ":10793,"llee":10794,"Ġthreading":10795,"Ġincome":10796,"oxy":10797,"crypt":10798,"ĠPen":10799,"Ġmutant":10800,"wit":10801,"Ind":10802,"Ã¤r":10803,"Ġappeared":10804,"Ġscene":10805,"km":10806,"Ġneutral":10807,"Ġwhom":10808,"Ġinform":10809,"theme":10810,"Ġentities":10811,"ĠAsync":10812,"BI":10813,"iox":10814,"Import":10815,"107":10816,"Ġextensions":10817,"Ġstudent":10818,"ÂłÂłÂłÂłÂłÂłÂłÂł":10819,"Ãº":10820,"Ġsch":10821,"icians":10822,"Could":10823,"east":10824,"')],":10825,"Ġpaid":10826,"Ġje":10827,"////////":10828,"Ġlesions":10829,"Ġtransf":10830,"cesses":10831,"Ġ67":10832,"repository":10833,"gradient":10834,"rip":10835,"Ġaware":10836,"ĊĠĠĠĠĠĠĠĠĠĠĠĠĠĠĠĠĠĠĠĠĠĠĠĠĠĠĠĠĠĠĠĠĠĠĠĠĠĠĠĠĠĠĠĠĠĠĠĠĠĠĠĠĠĠĠĠĠĠĠĠĠĠĠĠĠĠĠĠĠĠĠĠĠĠĠĠĠĠĠĠĠĠĠĠĠĠĠĠĠĠĠĠĠĠĠ":10837,"Ġsubstantially":10838,"&&":10839,"etra":10840,"Ġoste":10841,"Ġ\\|":10842,"Ġneither":10843,"Ġstimulation":10844,"Ġdeprecated":10845,"guild":10846,"Ġassumption":10847,"Ġfel":10848,"Ġofficer":10849,"Ã¤n":10850,"Ġreward":10851,"1999":10852,"lands":10853,"reward":10854,"Ġhydrogen":10855,"eros":10856,"Ġcommercial":10857,"uf":10858,"bd":10859,"Ġalt":10860,"Ġpossibly":10861,"scene":10862,"eder":10863,"čĊĠĠĠĠ":10864,"Ġship":10865,"geometry":10866,"ĠAction":10867,"Ġconven":10868,"Ġmother":10869,"levision":10870,"ĠĠĠĠĠĠĠĠĠĠĠĠĠĠĠĠĠĠĠĠĠĠĠĠĠĠĠĠĠĠĠĠĠĠĠĠĠĠĠĠĠĠĠĠĠĠĠĠĠĠĠĠĠĠĠĠĠĠĠĠĠĠĠĠĠĠĊĠ":10871,"ndim":10872,"organization":10873,"Ġng":10874,"sdk":10875,")*(-":10876,"Convert":10877,"isco":10878,"}({\\":10879,"Ġ62":10880,"Ġdecoder":10881,"DAT":10882,"Ġvals":10883,"Mask":10884,"ĠJava":10885,"Ġphosphory":10886,"Ġequipment":10887,"Ġaim":10888,"Ġhypert":10889,"signed":10890,"patterns":10891,"inds":10892,"ĠTrain":10893,"ĠHis":10894,"}-\\":10895,"Accept":10896,"ĠĠĠĠĠĠĠĠÂł":10897,"Ġcompatible":10898,"ammation":10899,"orient":10900,"Ġinspect":10901,"endor":10902,"Ġhundred":10903,"iratory":10904,"Proxy":10905,"asarray":10906,"Ġserializer":10907,"Ġmethyl":10908,"LINE":10909,"Ġmx":10910,"LETE":10911,"Ġstarts":10912,"Abstract":10913,"Ġeye":10914,"ulates":10915,"Validation":10916,"Ġmail":10917,"Ġsegments":10918,"Height":10919,"'%(":10920,"Ġplain":10921,"Left":10922,"119":10923,"ÂĪ":10924,"ĠAdmin":10925,"ocard":10926,"auge":10927,"Ġconsidering":10928,"contains":10929,"NUM":10930,"Ps":10931,"Ġbrowser":10932,"tos":10933,"methyl":10934,"warnings":10935,"_[":10936,"Ġfinancial":10937,"ĊČĠ":10938,"Ġintervals":10939,"Ġdivisor":10940,"Ġamounts":10941,"Ġpeer":10942,"went":10943,"Ġrs":10944,"Ġfiltered":10945,"GO":10946,"ĠOTHER":10947,"Ġincorrect":10948,"Ġpump":10949,"rp":10950,"ĠBY":10951,"ertools":10952,"MET":10953,"ĠĠĠĠĠĠĠĠĠĠĠĠĠĠĠĠĠĠĠĠĠĠĠĠĠĠĠĠĠĠĠĠĠĠĠĠĠĠĠĠĠĠĠĠĠĠĠĠĠĠĠĠĠĠĠĠĠĠĠĠĠĠĠĠĠĠĠĊĠ":10954,"angular":10955,"ifth":10956,"çĶ¨":10957,"irable":10958,"Ġuna":10959,"generic":10960,"Ġtraffic":10961,"Ġpreparation":10962,"tions":10963,"HD":10964,"Ġdtypes":10965,"regulated":10966,"}_\\":10967,"asp":10968,"spl":10969,"gres":10970,"tc":10971,"ondon":10972,"matches":10973,"],[":10974,"CHECK":10975,"Ġdepos":10976,"ĠInteger":10977,"Ġ-----":10978,"Ġoptimization":10979,"Ġbiom":10980,"ĊČĠĠ":10981,"Agent":10982,"Ġacet":10983,"Ġbiggest":10984,"escape":10985,"failure":10986,"ĠGL":10987,"aration":10988,"ĠLocal":10989,"Ø§":10990,"('<":10991,"Ġmoney":10992,"Ġdense":10993,"Ġtold":10994,"Ġmol":10995,"placeholder":10996,"Ġtube":10997,"Ġduty":10998,"Ġgenerating":10999,"Database":11000,"cwd":11001,"oO":11002,"ĠItem":11003,"article":11004,"ĠResults":11005,"Ca":11006,"Ġwest":11007,"entities":11008,"ĠMer":11009,"jectory":11010,"Ġcoupled":11011,"Ġopened":11012,"ĠSmith":11013,"Ġgiving":11014,"sheet":11015,"]=":11016,"Rect":11017,"Ġever":11018,"140":11019,"backward":11020,"Ġdialog":11021,"ĊĠĠĠĠĠĠĠĠĠĠĠĠĠĠĠĠĠĠĠĠĠĠĠĠĠĠĠĠĠĠĠĠĠĠĠĠĠĠĠĠĠĠĠĠĠĠĠĠĠĠĠĠĠĠĠĠĠĠĠĠĠĠĠĠĠĠĠĠĠĠĠĠĠĠĠĠĠĠĠĠĠĠĠĠĠĠĠĠĠĠĠĠĠĠĠĠ":11022,"bins":11023,"Ġinhibitor":11024,"Offset":11025,"Ġkid":11026,"Ġpursuant":11027,"\\.":11028,"Ġcytok":11029,"hl":11030,"130":11031,"boolean":11032,"ÂĦ":11033,"nic":11034,"Ġincident":11035,"stride":11036,"Ġprim":11037,"makedirs":11038,"mutation":11039,"assertAll":11040,"otypes":11041,"_:":11042,"hal":11043,"omer":11044,"ĠXML":11045,"loid":11046,"his":11047,"ĠĠĠĠĠĠĠĠĠĠĠĠĠĠĠĠĠĠĠĠĠĠĠĠĠĠĠĠĠĠĠĠĠĠĠĠĠĠĠĠĠĠĠĠĠĠĠĠĠĠĠĠĠĠĠĠĠĠĠĠĠĠĠĠĠĠĠĠĊĠ":11048,"ĠNE":11049,"ski":11050,"Ãĳ":11051,"Ġoffice":11052,"ÂĮ":11053,"ĠAuto":11054,"ĠInterest":11055,"Ġremained":11056,"Ġrepresentative":11057,"Ġgames":11058,"stein":11059,"handlers":11060,"iced":11061,"lotting":11062,"Ġvariants":11063,"ĠÐ¾":11064,"Ġmagnet":11065,"ĠSource":11066,"Gu":11067,"ĠBi":11068,"phy":11069,"(',":11070,"health":11071,"semble":11072,"ĠÐº":11073,"WH":11074,"Ġ$\\{":11075,"ĠCorporation":11076,"STRING":11077,"AI":11078,"ÅĤ":11079,"ĠAuth":11080,"ĠCallable":11081,"Ġens":11082,"Password":11083,"Ġrenal":11084,"ĠMal":11085,"Ġefficacy":11086,"salt":11087,"trade":11088,"ĊČĠĠĠ":11089,"Ġtheta":11090,"Ġneighbor":11091,"ĠEqu":11092,"Ġpatent":11093,"ĠBritish":11094,"ĠAuthor":11095,"Ġphone":11096,"ijer":11097,"Ġdischarge":11098,"Ġmd":11099,"nat":11100,"117":11101,"Ġcompression":11102,"Ġembry":11103,"Ġcontributions":11104,"burg":11105,"ĠModule":11106,"assertEquals":11107,"ĠRobert":11108,"quisition":11109,"Ġdescribes":11110,"AME":11111,"notes":11112,"Ġsnapshot":11113,"zing":11114,"Ġfees":11115,"Ġ98":11116,"pandas":11117,"BACK":11118,"Ġ'+":11119,"ASH":11120,"Ġ}\\":11121,"509":11122,"Ġdespite":11123,"\\}$":11124,"mov":11125,"æĺ":11126,"night":11127,"artifact":11128,"half":11129,"Ġabuse":11130,"trl":11131,"Ġ\\-":11132,"market":11133,"Ġchlor":11134,"candid":11135,"ĠHamilton":11136,"Ġdriving":11137,"Ġtimedelta":11138,"normalize":11139,"Ġ});":11140,"ACC":11141,"132":11142,"Ġneural":11143,"good":11144,"Ġviral":11145,"notify":11146,"Na":11147,"nock":11148,"Ġapplies":11149,"Operator":11150,"Ġdecreasing":11151,"ĠPage":11152,"Ġtemperatures":11153,"sert":11154,"Ġlosses":11155,"ĠSM":11156,"ĠĠĠĠĠĠĠĠĠĠĠĠĠĠĠĠĠĠĠĠĠĠĠĠĠĠĠĠĠĠĠĠĠĠĠĠĠĠĠĠĠĠĠĠĠĠĠĠĠĠĠĠĠĠĠĠĠĠĠĠĠĠĠĠĠĠĠĠĠĊĠ":11157,"Ġinitially":11158,"0002":11159,"quiring":11160,"Ġadverse":11161,"But":11162,"Art":11163,"ĠAdditional":11164,"tbl":11165,"Pa":11166,"ĠMor":11167,"Ġbacterial":11168,"Ġspan":11169,"Ġstuff":11170,"Empty":11171,"may":11172,"Ġstraight":11173,"018":11174,"Ġprogression":11175,"PIPE":11176,"Standard":11177,"019":11178,"windows":11179,"Ġtail":11180,"ĠCommit":11181,"ĠPress":11182,"Ġbrought":11183,"Ġhab":11184,"thumb":11185,"Ġdead":11186,"insic":11187,"Ġbirths":11188,"Ġdag":11189,"(_(\"":11190,"define":11191,"Ġ127":11192,"Ġfet":11193,"mx":11194,"umul":11195,"ĠArm":11196,"ĊĊĠĠĠĠĠĠĠĠĠĠĠĠĠĠĠĠĠĠĠĠĠĠĠ":11197,"016":11198,"ynt":11199,"ilds":11200,"Quant":11201,"Ġinfected":11202,"Ġinequal":11203,"PN":11204,"locations":11205,"Ġrendered":11206,"duled":11207,"Ġoffense":11208,"ĊĠĠĠĠĠĠĠĠĠĠĠĠĠĠĠĠĠĠĠĠĠĠĠĠĠĠĠĠĠĠĠĠĠĠĠĠĠĠĠĠĠĠĠĠĠĠĠĠĠĠĠĠĠĠĠĠĠĠĠĠĠĠĠĠĠĠĠĠĠĠĠĠĠĠĠĠĠĠĠĠĠĠĠĠĠĠĠĠĠĠĠĠĠĠĠĠĠ":11209,"teq":11210,"';":11211,"Ġdos":11212,"monary":11213,"ĠQtGui":11214,"hyper":11215,"infl":11216,"Ġfer":11217,"Ġyields":11218,"Ġpassing":11219,"stone":11220,"wiki":11221,"Ġfourth":11222,"ĠĠĠĊĠĠĠ":11223,"aaaa":11224,"plain":11225,"ĠPass":11226,"Äĥ":11227,"Microsoft":11228,"LOAD":11229,"ensities":11230,"Â¥":11231,"formance":11232,"]]:":11233,"Ð°Ð½":11234,"Ġcreates":11235,"Ġtransferred":11236,"Ġdebt":11237,"Ġinference":11238,"WI":11239,"-+-+":11240,"Ġmic":11241,"episode":11242,"istered":11243,"scatter":11244,"Ġassignment":11245,"Ġcart":11246,"Ġendot":11247,"Ġbacteria":11248,"dependencies":11249,"MES":11250,"itrogen":11251,"012":11252,"antly":11253,"ĠÐ´":11254,"Ġemployees":11255,"Ġpipe":11256,"ĠIsl":11257,"emit":11258,"beam":11259,"xyz":11260,"ĠTotal":11261,"underline":11262,"Ġguaran":11263,"Ġseg":11264,"Ġmanaged":11265,"ju":11266,"dns":11267,"Selection":11268,"ĠAssert":11269,"Ġ78":11270,"pending":11271,"ilty":11272,"ĠBen":11273,"Ġscales":11274,"ĠĠĠĠĠĠĠĠĠĠĠĠĠĠĠĠĠĠĠĠĠĠĠĠĠĠĠĠĠĠĠĠĠĠĠĠĠĠĠĠĠĠĠĠĠĠĠĠĠĠĠĠĠĠĠĠĠĠĠĠĠĠĠĠĠĠĠĠĠĠĊĠ":11275,",$$":11276,"Make":11277,"Ġretrieve":11278,"asi":11279,"ENG":11280,"apse":11281,"ggle":11282,"Ġhole":11283,"Ġfundamental":11284,"Ġdiagram":11285,"Ġperm":11286,"chen":11287,"Ġbars":11288,"Ġprotected":11289,"uer":11290,"general":11291,"major":11292,"ĠItal":11293,"Ġsexual":11294,"Ġ[('":11295,"^,":11296,"Ġseparation":11297,"Using":11298,"ĠĠĠĠĠĠĠĠĠÂł":11299,"Ġtravel":11300,"ĠGaussian":11301,"moid":11302,"Ġrc":11303,"ĠCase":11304,"coll":11305,"Ġnarrow":11306,"mix":11307,"Ġtempfile":11308,"Ġcatch":11309,"rounding":11310,"Ġthank":11311,"Ġarrange":11312,"Ġmolecule":11313,"Ġadults":11314,"Ġquantitative":11315,"Ġreactions":11316,"mediated":11317,"108":11318,"Summary":11319,"Ġ({":11320,"providers":11321,"999":11322,"2021":11323,"thro":11324,"Ġgoes":11325,"Ġgradu":11326,"Ġtar":11327,"Ġcognitive":11328,"Ġruntime":11329,"ÐµÑĤ":11330,"ĠFin":11331,"Ġmaintained":11332,"tip":11333,"Ġclause":11334,"Ġ250":11335,"START":11336,"Ġfs":11337,"ĠCollege":11338,"Br":11339,"Ġleaf":11340,"ĠSimilarly":11341,"Ġlaunch":11342,"Ġuncertain":11343,"Ġwitness":11344,"Since":11345,").$$":11346,"standing":11347,"Ġtraditional":11348,"Ġtemporary":11349,"ĠGreen":11350,"ĠPi":11351,"103":11352,"Ġmaybe":11353,"ĠCOPY":11354,"Ġga":11355,"Ġexamine":11356,"Ġforth":11357,"atar":11358,"ĠSU":11359,"ilibrium":11360,"issues":11361,"pur":11362,"ĠVis":11363,"Ġcontr":11364,"odium":11365,"ĊČĠĠĠĠ":11366,"Ġdefines":11367,"Ġunable":11368,"marily":11369,"ogenous":11370,"ĠRich":11371,"hd":11372,"RNAs":11373,"Ġsubsequently":11374,"Ġvill":11375,"Ġrig":11376,"Ġsupporting":11377,"ĠJapan":11378,"ĠĠĠĠĠĠĠĠĠĠĠĠĠĠĠĠĠĠĠĠĠĠĠĠĠĠĠĠĠĠĠĠĠĠĠĠĠĠĠĠĠĠĠĠĠĠĠĠĠĠĠĠĠĠĠĠĠĠĠĠĠĠĠĠĠĠĠĠĠĠĠĊĠ":11379,"relations":11380,"Ġabstract":11381,"Dim":11382,"Ġod":11383,"Ġ1995":11384,"ARD":11385,"Ġstroke":11386,"Ġenforce":11387,"revision":11388,"Ã¸":11389,"Ġmind":11390,"Sets":11391,"Ġlens":11392,"linalg":11393,"outer":11394,"Ġsubmit":11395,"ijerph":11396,"Ġ($\\":11397,"ASK":11398,"gp":11399,"rew":11400,"ĠAnn":11401,"Mapping":11402,"predictions":11403,"Ġmetabolic":11404,"Ġsuscept":11405,"inese":11406,"canvas":11407,"ĊĠĠĠĠĠĠĠĠĠĠĠĠĠĠĠĠĠĠĠĠĠĠĠĠĠĠĠĠĠĠĠĠĠĠĠĠĠĠĠĠĠĠĠĠĠĠĠĠĠĠĠĠĠĠĠĠĠĠĠĠĠĠĠĠĠĠĠĠĠĠĠĠĠĠĠĠĠĠĠĠĠĠĠĠĠĠĠĠĠĠĠĠĠĠĠĠĠĠ":11408,"Ġ\"(":11409,"ĠColor":11410,"ĠConst":11411,"Ġthereof":11412,"uum":11413,"rides":11414,"lb":11415,"ĠHospital":11416,"nologies":11417,"haps":11418,"Ġinvolves":11419,"preci":11420,"Ġ1990":11421,"Ġbulk":11422,"ĠStandard":11423,"Email":11424,"lass":11425,"Ġnotes":11426,"ander":11427,"ĠMain":11428,"Introduction":11429,"PASS":11430,"saved":11431,"kins":11432,"heat":11433,"ĠJapanese":11434,"LM":11435,"Ġconcat":11436,"Ġ77":11437,"Ġ+/-":11438,"Ġcyl":11439,"(\"\"\"":11440,"Ġstrip":11441,"Ġtraceback":11442,"Â¯":11443,"Ġfluorescence":11444,"Report":11445,"Operations":11446,"Ġheavy":11447,"Identifier":11448,"ĠCorp":11449,"),\\":11450,"ĠProgram":11451,"Ġcomplement":11452,"setdefault":11453,"ĠProte":11454,"Ġliability":11455,"elist":11456,"Display":11457,"Theta":11458,",{\\":11459,"iro":11460,"According":11461,"Impl":11462,"ruptcy":11463,"CAS":11464,"Ġgalaxies":11465,"Details":11466,"quantity":11467,"Ġdetector":11468,"hole":11469,"itz":11470,"ĠHome":11471,"Ġasset":11472,"NotFoundError":11473,"Ġ**(":11474,"Ġsymmetric":11475,"Bytes":11476,"rem":11477,"Ġcovered":11478,"priority":11479,"Ġlimitation":11480,"Ġperipheral":11481,"theless":11482,"Ġven":11483,"Ġtheme":11484,"Ġrepair":11485,"115":11486,"Ġcircle":11487,"Ġ97":11488,"Ġlaboratory":11489,"Sort":11490,"cid":11491,"ĠTEST":11492,"Ġpicture":11493,"ĠWash":11494,"Ġperforming":11495,"statement":11496,"Ġaspects":11497,"ĠĠĠĠĠĠĠĠĠĠĠĠĠĠĠĠĠĠĠĠĠĠĠĠĠĠĠĠĠĠĠĠĠĠĠĠĠĠĠĠĠĠĠĠĠĠĠĠĠĠĠĠĠĠĠĠĠĠĠĠĠĠĠĠĠĠĠĠĠĠĠĠĊĠ":11498,"Ġalgorithms":11499,"American":11500,"ĠMedical":11501,"ĠNet":11502,"Ġthanks":11503,"Ð¿":11504,"Ġconcerning":11505,"ĠOUT":11506,"Ġrobot":11507,"Space":11508,"Ġrecomb":11509,"Ġabsorption":11510,"Ġemot":11511,"Timeout":11512,"floor":11513,"Ġrise":11514,"Ġfaster":11515,"Ġprinciple":11516,"Ġfilled":11517,"previous":11518,"sender":11519,"sections":11520,"gate":11521,"Â¤":11522,"rehen":11523,"Panel":11524,"docker":11525,"Ġideal":11526,"Ġdemo":11527,"Ġfmt":11528,"othing":11529,"Ġvascular":11530,"ella":11531,"PES":11532,"ĠEnv":11533,"Ġbran":11534,"Required":11535,"Ġcapac":11536,"Ġ69":11537,"Writer":11538,"Ġappoint":11539,"apsed":11540,"Activity":11541,"Ġnb":11542,"Ġtemporal":11543,"Ġeditor":11544,"Ġannotation":11545,"acer":11546,"220":11547,"Ġexceed":11548,"astro":11549,"resolution":11550,"stood":11551,"ĠBased":11552,"ĠPack":11553,"Ġgold":11554,"Ġfamilies":11555,"live":11556,"ĠĠĠĊĠĠĠĠĠĠĠ":11557,"ĠUK":11558,"Other":11559,"Ġlon":11560,"Ġbundle":11561,"temperature":11562,"configs":11563,"Ġthemselves":11564,"Ġorganic":11565,"Ġdisclosed":11566,"ados":11567,"Ġdivers":11568,"Virtual":11569,"Ġsemi":11570,"native":11571,"AK":11572,"sock":11573,"}^{-":11574,"Global":11575,"accuracy":11576,"Flag":11577,"Ġspecim":11578,"rab":11579,"UC":11580,"Ġlang":11581,"Remove":11582,"HP":11583,"Ġpeptide":11584,"Ġ84":11585,"Ġeffectively":11586,"Ãł":11587,"absolute":11588,"1024":11589,"Ġsole":11590,"Ġinduce":11591,"Ġspo":11592,"timedelta":11593,"ĊČĠĠĠĠĠ":11594,"Ġrelationships":11595,"ATED":11596,"els":11597,"ĠĠĠĠĠĠĠĠĠĠĠĠĠĠĠĠĠĠĠĠĠĠĠĠĠĠĠĠĠĠĠĠĠĠĠĠĠĠĠĠĠĠĠĠĠĠĠĠĠĠĠĠĠĠĠĠĠĠĠĠĠĠĠĠĠĠĠĠĠĠĠĠĠĊĠ":11598,"OFF":11599,"chart":11600,"ousing":11601,"ounced":11602,"anies":11603,"\"></":11604,"avas":11605,"ĊĠĠĠĠĠĠĠĠĠĠĠĠĠĠĠĠĠĠĠĠĠĠĠĠĠĠĠĠĠĠĠĠĠĠĠĠĠĠĠĠĠĠĠĠĠĠĠĠĠĠĠĠĠĠĠĠĠĠĠĠĠĠĠĠĠĠĠĠĠĠĠĠĠĠĠĠĠĠĠĠĠĠĠĠĠĠĠĠĠĠĠĠĠĠĠĠĠĠĠ":11606,"Ġfrappe":11607,"Ġreversed":11608,"Ġtrunc":11609,"0000000000000000":11610,"istical":11611,"Jo":11612,"Ġnecessarily":11613,"Ġcoord":11614,"itud":11615,"xxxx":11616,"åº":11617,"Ġoutfile":11618,"fb":11619,"Ġcomplications":11620,"perf":11621,"ÂĹ":11622,"CLI":11623,"Ġtransmit":11624,"Ġsays":11625,"cu":11626,"stic":11627,"Definition":11628,"iography":11629,"ĠSample":11630,"LIN":11631,"editor":11632,"Ġstabil":11633,"experiment":11634,"Ġ88":11635,"Ġelem":11636,"Ġpointer":11637,"ĠCloud":11638,"maker":11639,"apers":11640,"tolist":11641,"Ġinflammation":11642,"ĠFederal":11643,"Ġadjusted":11644,"Save":11645,"ubs":11646,"Ġaffirm":11647,"curr":11648,"Ġci":11649,"Ġ74":11650,"arter":11651,"Cannot":11652,"Socket":11653,"Domain":11654,"/<":11655,"probs":11656,"#######":11657,"Ġcomposed":11658,"Expand":11659,"Ġacknow":11660,"browser":11661,"hn":11662,"seteq":11663,"uestion":11664,"Ġtreatments":11665,"Ġjobs":11666,"ĠMicrosoft":11667,"middleware":11668,"Ġvalve":11669,"Ġwor":11670,"embeddings":11671,"Ġpreced":11672,"FD":11673,"))/(":11674,"Ġextraction":11675,"workflow":11676,"iry":11677,"Ġsatisfy":11678,"Ġopposite":11679,"Ġfabric":11680,"ĠVM":11681,"border":11682,"functional":11683,"Ġexpressions":11684,"Ġws":11685,"Ġdenominator":11686,"Track":11687,"iance":11688,"ĠMart":11689,"Ġ*=":11690,"Ġinfections":11691,"oster":11692,"ctype":11693,"Ġndarray":11694,"XY":11695,"adj":11696,"Ġfract":11697,"ĠĠĠĠĠĠĠĠĠĠĠĠĠĠĠĠĠĠĠĠĠĠĠĠĠĠĠĠĠĠĠĠĠĠĠĠĠĠĠĠĠĠĠĠĠĠĠĠĠĠĠĠĠĠĠĠĠĠĠĠĠĠĠĠĠĠĠĠĠĠĠĠĠĠĊĠ":11698,"Ġfeat":11699,"Ġshapes":11700,"cium":11701,"Pref":11702,"Ġdivide":11703,"Âľ":11704,"Ġpromote":11705,"Msg":11706,"Ġdied":11707,"\"/>":11708,"verted":11709,"MAIL":11710,"dagger":11711,"Ġplays":11712,"Ġemit":11713,"tu":11714,"hint":11715,"quential":11716,"}/{":11717,"adjust":11718,"agents":11719,"gradation":11720,"Ġreviewed":11721,"rx":11722,"Ġrestart":11723,"Ġxs":11724,"Ġconviction":11725,"ĠSuper":11726,"Ġimpair":11727,"Ġchromosome":11728,"Xiv":11729,"Ġprimarily":11730,"ĠFI":11731,"notification":11732,"Ġcached":11733,"Ã¯":11734,"Limit":11735,"Ġbat":11736,"Ġdummy":11737,"ĠElect":11738,"scheme":11739,"sudo":11740,"conduct":11741,"mq":11742,"Ġleaves":11743,"]{.":11744,"ando":11745,"Ġlab":11746,"HL":11747,"Fail":11748,"Ġrandomly":11749,"022":11750,"Ġpig":11751,"disabled":11752,"angles":11753,"Ġchamber":11754,"Ġrespons":11755,"ĠĠĠĠĠĠĠĠĠĠÂł":11756,"ĠFilter":11757,"APP":11758,"Cons":11759,"each":11760,".;":11761,"]{}\\":11762,"generation":11763,"Div":11764,"ola":11765,"rosis":11766,"ðĿ":11767,"Ġ','":11768,"Ġfuel":11769,"Enter":11770,"Expression":11771,"nesses":11772,"ĠĠĊĠĠ":11773,"Ġ{{":11774,"ĠBro":11775,"ĊĠĠĠĠĠĠĠĠĠĠĠĠĠĠĠĠĠĠĠĠĠĠĠĠĠĠĠĠĠĠĠĠĠĠĠĠĠĠĠĠĠĠĠĠĠĠĠĠĠĠĠĠĠĠĠĠĠĠĠĠĠĠĠĠĠĠĠĠĠĠĠĠĠĠĠĠĠĠĠĠĠĠĠĠĠĠĠĠĠĠĠĠĠĠĠĠĠĠĠĠ":11776,"109":11777,"ĠLoc":11778,"uries":11779,"Ġportions":11780,"WIT":11781,"camera":11782,"Ġcausing":11783,"Effect":11784,"uits":11785,"ENS":11786,"ï¸":11787,"Ġadvance":11788,"ĠMean":11789,"Ġazure":11790,"charg":11791,"prediction":11792,"Ġbil":11793,"ih":11794,"zzle":11795,"Ġposterior":11796,"Ġmetabolism":11797,"Ġplots":11798,"Ġsingular":11799,"ĠValid":11800,"Ġhal":11801,"Ġglass":11802,"224":11803,"URCE":11804,"maximum":11805,"oplus":11806,"Ġ'*":11807,"Ġdisput":11808,"rising":11809,"Ġresolved":11810,"Ġtk":11811,"omorphism":11812,"tras":11813,"eb":11814,"Ġrobust":11815,"duplic":11816,"chors":11817,"Ġprincip":11818,"ĠWH":11819,"*]{},":11820,"exchange":11821,"solution":11822,"ĠĠĠĠĠĠĠĠĠĠĠĠĠĠĠĠĠĠĠĠĠĠĠĠĠĠĠĠĠĠĠĠĠĠĠĠĠĠĠĠĠĠĠĠĠĠĠĠĠĠĠĠĠĠĠĠĠĠĠĠĠĠĠĠĠĠĠĠĠĠĠĠĠĠĠĊĠ":11823,"Ġrecall":11824,"Ġratios":11825,"Ġgender":11826,"Ġoblig":11827,"Ġwallet":11828,"Active":11829,"Ġacquired":11830,"Ġsought":11831,"Ġ125":11832,"Ġ------":11833,"vertical":11834,"Ġsale":11835,"city":11836,"Ġthous":11837,"aimed":11838,"ĠAssociation":11839,"3333":11840,"Ġcomparing":11841,"ĠCF":11842,"ĠUbuntu":11843,"Root":11844,"nr":11845,"COLOR":11846,"Ġkinase":11847,"sentry":11848,"rating":11849,"legal":11850,"Ġangular":11851,"Ġtolerance":11852,"Ġplurality":11853,"AGES":11854,"testinal":11855,"Ġchecking":11856,"Ġcustomer":11857,"tensors":11858,"iterator":11859,"nl":11860,"until":11861,"mkdir":11862,"Ġbounded":11863,"Ġtal":11864,"slots":11865,"Ġtranscript":11866,"nail":11867,"magnetic":11868,"Ġdiscuss":11869,"ĠLou":11870,"Ġdraft":11871,"Ġreceiver":11872,"annotation":11873,"osh":11874,"ĠEven":11875,"azy":11876,"ĠLIC":11877,"Single":11878,"Ġcp":11879,"ochemical":11880,"Ġ1994":11881,"Ġxe":11882,"%).":11883,"Ġdem":11884,"Ġfluct":11885,"ĠBE":11886,"![](":11887,"awn":11888,"lymp":11889,"vex":11890,"preview":11891,"Ġ((-":11892,"114":11893,"čĊĉĉĉ":11894,"Cloud":11895,"ĠDen":11896,"Ġscattering":11897,"Ġseverity":11898,"icker":11899,"dating":11900,"phosph":11901,"Rate":11902,"Security":11903,"GD":11904,"Ġaccounts":11905,"Ġspread":11906,"associated":11907,"Ġ94":11908,"translation":11909,"('#":11910,"vartype":11911,"Raw":11912,"ĊĊĠĠĠĠ":11913,"čĊčĊĠĠĠĠĠĠĠĠĠĠĠ":11914,"Ġflash":11915,"yal":11916,"wood":11917,"Ġprogn":11918,"ĠPC":11919,"Scal":11920,"ilitary":11921,"trm":11922,"Ġpartially":11923,"secutive":11924,"hide":11925,"finished":11926,"Ġquote":11927,"deleted":11928,"${":11929,"Ġstory":11930,"problem":11931,"density":11932,"Keyboard":11933,"ĠSimple":11934,"Ġguess":11935,"ifold":11936,"'(":11937,"Ġemployment":11938,"1998":11939,"generated":11940,"Ġgraphs":11941,"ĠĠĠĠĠĠĠĠĠĠĠĠĠĠĠĠĠĠĠĠĠĠĠĠĠĠĠĠĠĠĠĠĠĠĠĠĠĠĠĠĠĠĠĠĠĠĠĠĠĠĠĠĠĠĠĠĠĠĠĠĠĠĠĠĠĠĠĠĠĠĠĠĠĠĠĠĊĠ":11942,"YY":11943,"wa":11944,"Sur":11945,"Ġsending":11946,"Symbol":11947,"Ġeps":11948,"roles":11949,"levels":11950,"Ġ(%)":11951,"ĊĠĠĠĠĠĠĠĠĠĠĠĠĠĠĠĠĠĠĠĠĠĠĠĠĠĠĠĠĠĠĠĠĠĠĠĠĠĠĠĠĠĠĠĠĠĠĠĠĠĠĠĠĠĠĠĠĠĠĠĠĠĠĠĠĠĠĠĠĠĠĠĠĠĠĠĠĠĠĠĠĠĠĠĠĠĠĠĠĠĠĠĠĠĠĠĠĠĠĠĠĠ":11952,"ussian":11953,"ĠAns":11954,"Ġconsisting":11955,"iply":11956,"Ġclar":11957,"Handle":11958,"isons":11959,"Ġarchitecture":11960,"Spe":11961,"Ġfriend":11962,"Ġsufficiently":11963,"\"]),":11964,"yo":11965,"Ġwrote":11966,"ArgumentParser":11967,"$',":11968,"lam":11969,"ĠAmerica":11970,"wedge":11971,"izable":11972,"Ġtip":11973,"Ġrestricted":11974,"Ġti":11975,"surface":11976,"Ġmaintenance":11977,"...\")":11978,"/.":11979,"Ġgauge":11980,"Ġcancel":11981,"Ġ115":11982,"VD":11983,"Body":11984,"Ġpg":11985,"Missing":11986,"Ġlipid":11987,"ĠLabel":11988,"Ġdeb":11989,"Ġantigen":11990,"Ġhet":11991,"anda":11992,"Ġec":11993,"pickle":11994,"Ġrace":11995,"compiler":11996,"RR":11997,"Ġperman":11998,"}}$.":11999,"Ġdecided":12000,"ĠOrderedDict":12001,"Ġprojects":12002,"ĠWal":12003,"Ġproceedings":12004,"Ġ$[":12005,"Ġharm":12006,"RED":12007,"qdm":12008,"pite":12009,"Ġinhibitors":12010,"Ġrecover":12011,"Ġsender":12012,"indic":12013,"Ġray":12014,"abeled":12015,"Ġdiscrete":12016,"Ġescape":12017,"such":12018,"Ġresidues":12019,"Ġlaws":12020,"Ġdrawn":12021,"Register":12022,"ĠÂ°":12023,"Ġpieces":12024,"Ġauthentication":12025,"compatible":12026,"Ġnumerous":12027,"formats":12028,"Ġraises":12029,"ÐµÑĢ":12030,"Ġpublication":12031,"Ġdistances":12032,"Ġpc":12033,"ĠNOTE":12034,"Ã«":12035,"acher":12036,"ĠTF":12037,"Ġcarrier":12038,"uds":12039,"Prob":12040,"circuit":12041,"Ġmerg":12042,"Hy":12043,"Ġ512":12044,"ĠĠĠĠĠĠĠĠĠĠĠĠĠĠĠĠĠĠĠĠĠĠĠĠĠĠĠĠĠĠĠĠĠĠĠĠĠĠĠĠĠĠĠĠĠĠĠĠĠĠĠĠĠĠĠĠĠĠĠĠĠĠĠĠĠĠĠĠĠĠĠĠĠĠĠĠĠĊĠ":12045,"Ġproved":12046,"copes":12047,"Ġcarc":12048,"selector":12049,"Ġartifact":12050,"*~*":12051,"Ġfrozen":12052,"ObjectName":12053,"ï¸ı":12054,"Ġinsurance":12055,"baz":12056,"uke":12057,"Ġappell":12058,"0005":12059,"hours":12060,"avascript":12061,"BY":12062,"Ġregistry":12063,"management":12064,"Ġpk":12065,"concatenate":12066,"Ġsold":12067,"parsed":12068,"Ġofficers":12069,"Authentication":12070,"irq":12071,"POINT":12072,"Cy":12073,"DateTimeField":12074,"ocyte":12075,"Ġborn":12076,"rv":12077,"hang":12078,"Ġpoll":12079,"ĠCPU":12080,"assertNot":12081,"ĠEL":12082,"weet":12083,"Ġthreads":12084,"Render":12085,"textrm":12086,"subseteq":12087,"Ġelevated":12088,"Ġgrade":12089,"ĠOtherwise":12090,"Ġrevision":12091,"Ġagency":12092,"Copy":12093,"rename":12094,"Ġcomplexity":12095,"sell":12096,"Ġinp":12097,"Ġhip":12098,"Ġcurrency":12099,"Ġ76":12100,"Ġunderstood":12101,"resolve":12102,"Ġ\\;":12103,"protected":12104,"gel":12105,"Ġcriterion":12106,"Ġrecognition":12107,"Ġpip":12108,"ĠArguments":12109,"Ġcompile":12110,"Ġmono":12111,"Äħ":12112,")$$":12113,"Keys":12114,"Async":12115,"106":12116,">>>":12117,"isinstance":12118,"ĠÂ¶":12119,"ĠÏĢ":12120,"arth":12121,"Users":12122,"Ġdeploy":12123,"Ġimplant":12124,"Ġ79":12125,"Ġmanip":12126,"loading":12127,"BT":12128,"thern":12129,"meter":12130,"erce":12131,"Ġvariations":12132,"Ġtheoretical":12133,"ĠVir":12134,"nson":12135,"ĠNormal":12136,"Ġfather":12137,"udget":12138,".%":12139,"pag":12140,"Ġsyntax":12141,"dif":12142,"dh":12143,"edu":12144,"tech":12145,"Ġinsu":12146,"[:]":12147,"116":12148,"Ġbehind":12149,"Ġtransforms":12150,"otide":12151,"(%":12152,"ĠPresident":12153,"TOKEN":12154,"Middleware":12155,"neum":12156,"ĠDavid":12157,"ĊĠĠĠĠĠĠĠĠĠĠĠĠĠĠĠĠĠĠĠĠĠĠĠĠĠĠĠĠĠĠĠĠĠĠĠĠĠĠĠĠĠĠĠĠĠĠĠĠĠĠĠĠĠĠĠĠĠĠĠĠĠĠĠĠĠĠĠĠĠĠĠĠĠĠĠĠĠĠĠĠĠĠĠĠĠĠĠĠĠĠĠĠĠĠĠĠĠĠĠĠĠĠ":12158,"nergy":12159,"ĠPatent":12160,"ĠEv":12161,"blast":12162,"ĠLondon":12163,"Ġmostly":12164,"Ġcandidates":12165,"derived":12166,"DOMAIN":12167,"Ġkm":12168,"Ġuri":12169,"}}}$":12170,"Ġextends":12171,"Ġcycles":12172,"ĠĠĠĠĠĠĠĠĠĠĠĠĠĠĠĠĠĠĠĠĠĠĠĠĠĠĠĠĠĠĠĠĠĠĠĠĠĠĠĠĠĠĠĠĠĠĠĠĠĠĠĠĠĠĠĠĠĠĠĠĠĠĠĠĠĠĠĠĠĠĠĠĠĠĠĠĠĠĊĠ":12173,"herence":12174,"orge":12175,"Ġprejud":12176,"Ġpending":12177,"haust":12178,"ĠConvert":12179,"sembly":12180,"ANCE":12181,"Ġindependently":12182,"Ġpt":12183,"Ġappearance":12184,"Ġcoron":12185,"Ġdeaths":12186,"rypted":12187,"Ġ73":12188,"ĠAnother":12189,"135":12190,"Ġ71":12191,"inent":12192,"ĠET":12193,"customer":12194,"ĠProb":12195,"Ġarchive":12196,"imiter":12197,"Before":12198,"spring":12199,"Ãµ":12200,"retch":12201,"ĠLabor":12202,"Ġcareer":12203,"Ġbring":12204,"Ġasymp":12205,".),":12206,"amination":12207,"Conf":12208,"fx":12209,"Icon":12210,"addresses":12211,"Ġtruth":12212,"ĊĉĠ":12213,"asy":12214,"QP":12215,"ĠDefendants":12216,"href":12217,"High":12218,"bial":12219,"Ġcav":12220,"abases":12221,"ĠDan":12222,"ĊČĠĠĠĠĠĠ":12223,"ĠĠĠĊĠĠ":12224,"ĠĊĊĠ":12225,"ĠĠĠĊ":12226,"DOWN":12227,"ĠLeague":12228,"Ġarticles":12229,"Ġstatutory":12230,"PK":12231,"Binary":12232,"ena":12233,"Ġencounter":12234,"bundle":12235,"\\,\\":12236,"ĠCouncil":12237,"Descript":12238,"chem":12239,"Ġdiscord":12240,"inp":12241,"Ġpetitioner":12242,"Ġemphas":12243,"Ġmirror":12244,"()).":12245,"Ġonset":12246,"ĠDataset":12247,"ĠIMP":12248,"getitem":12249,"Ġopportunity":12250,"ĠGal":12251,"QtCore":12252,"isdir":12253,"Ġpiece":12254,"Ġjournal":12255,"pow":12256,"Ġcardio":12257,"atell":12258,"_*":12259,"Ġherein":12260,"Ġ*/":12261,"Ġnormally":12262,"ĠCompute":12263,"Ġ87":12264,"--------------------------------------------------------":12265,"RUN":12266,"OLDER":12267,"Ġcolour":12268,"ĠBay":12269,"Listener":12270,"124":12271,"agg":12272,"Ġcomparable":12273,"Embed":12274,"cit":12275,"ĠBlack":12276,"Ġintegers":12277,"servers":12278,"aph":12279,"ĠĠĠĠĠĠĠĠĠĠĠÂł":12280,"pod":12281,"Ġaf":12282,"ĠSearch":12283,"Ġfocused":12284,"Ġjoined":12285,"ĠOptions":12286,"tics":12287,"Ġtz":12288,"\\>":12289,"accounts":12290,"Ġinplace":12291,"Ġ89":12292,"([])":12293,"ĠProposition":12294,"ropic":12295,"horizontal":12296,"Ġcompiler":12297,"Doc":12298,"ĠĠĠĠĠĠĠĠĠĠĠĠĠĠĠĠĠĠĠĠĠĠĠĠĠĠĠĠĠĠĠĠĠĠĠĠĠĠĠĠĠĠĠĠĠĠĠĠĠĠĠĠĠĠĠĠĠĠĠĠĠĠĠĠĠĠĠĠĠĠĠĠĠĠĠĠĠĠĠĊĠ":12299,"mor":12300,"fall":12301,"ĠImp":12302,"alloc":12303,"Engine":12304,"esh":12305,"Ġepochs":12306,"setObjectName":12307,"pressed":12308,"utation":12309,"conditions":12310,"ĠOpt":12311,"fox":12312,"Ġkept":12313,"UST":12314,"Ð¸ÑĤ":12315,"))))":12316,"eding":12317,"Ġmeasuring":12318,"Ġ130":12319,"Ġcharges":12320,"kill":12321,"Ġadopted":12322,"Ġguidelines":12323,"Ġ92":12324,"Ġobserve":12325,"Ġranges":12326,"Ġiron":12327,"Ġtuples":12328,"Ġsaw":12329,"Ġdependency":12330,"Ġcpu":12331,"ĠBel":12332,"Ġinformed":12333,"Bit":12334,"Ã©s":12335,"ĠRest":12336,"Ġpygame":12337,"ESSION":12338,"VC":12339,"Ġdecode":12340,"147":12341,"}}$,":12342,"Ġmetavar":12343,"Ġlikelihood":12344,"Ġhepat":12345,"pres":12346,"Ġexplanation":12347,"annotations":12348,"Ġdiffusion":12349,"NT":12350,"Ġutility":12351,"teen":12352,"iloc":12353,"ĠExec":12354,"curve":12355,"remo":12356,"catalog":12357,"disp":12358,"ĠHouse":12359,"########################":12360,"Ġwheel":12361,"ĠShow":12362,"Drop":12363,"Ġsv":12364,"}}}\\":12365,"Ġtrained":12366,"ĠGovernment":12367,"Ġguilty":12368,"10000":12369,"Our":12370,"Ġinfra":12371,"-*":12372,"iar":12373,"Ġsubnet":12374,"Ġpublish":12375,"numeric":12376,"character":12377,"Da":12378,"Ġprofessional":12379,"squ":12380,"Ġclassified":12381,"ido":12382,"Ġbands":12383,"Ġmil":12384,"Ġmetast":12385,"+)":12386,"}}(\\":12387,"Ġlateral":12388,"ĠChem":12389,"ĠCommittee":12390,"Ġconfigure":12391,"ĊĠĠĠĠĠĠĠĠĠĠĠĠĠĠĠĠĠĠĠĠĠĠĠĠĠĠĠĠĠĠĠĠĠĠĠĠĠĠĠĠĠĠĠĠĠĠĠĠĠĠĠĠĠĠĠĠĠĠĠĠĠĠĠĠĠĠĠĠĠĠĠĠĠĠĠĠĠĠĠĠĠĠĠĠĠĠĠĠĠĠĠĠĠĠĠĠĠĠĠĠĠĠĠ":12392,"Ġmp":12393,"\"+":12394,"truth":12395,"Ġ1993":12396,"=[],":12397,"Ġsatisfies":12398,"ĠBio":12399,"Ġ86":12400,"sentence":12401,"Ġfd":12402,"strial":12403,"Constraint":12404,"Ġconsequence":12405,"ĠLICENSE":12406,"iva":12407,"Ġencode":12408,"GI":12409,"quality":12410,"Ġattempts":12411,"express":12412,"Ġseparately":12413,"ĠĠĠĠĠĠĠĠĠĠĠĠĠĠĠĠĠĠĠĠĠĠĠĠĠĠĠĠĠĠĠĠĠĠĠĠĠĠĠĠĠĠĠĠĠĠĠĠĠĠĠĠĠĠĠĠĠĠĠĠĠĠĠĠĠĠĠĠĠĠĠĠĠĠĠĠĠĠĠĠĊĠ":12414,"ÎĶ":12415,"naire":12416,"ĠProduct":12417,"Gateway":12418,"Ġpopular":12419,"Ġpid":12420,"Parent":12421,"ĠUI":12422,"hu":12423,"Ġitertools":12424,"Ġoverwrite":12425,"Formatter":12426,"Ġhappens":12427,"Cert":12428,"Ġ._":12429,"Ġwherein":12430,"oly":12431,"ĠRiver":12432,"prise":12433,"Ġready":12434,"lc":12435,"ĊĊĉĉ":12436,"aken":12437,"ĠLong":12438,"oned":12439,"esian":12440,"Ġrv":12441,"manifest":12442,"jar":12443,"Ġarc":12444,"assistant":12445,"Ġconjug":12446,"Supp":12447,"journal":12448,"Ġdial":12449,"pipe":12450,"Ġ----------------------------------------":12451,"ERT":12452,"arrays":12453,"ynchronous":12454,"Ġfemales":12455,"Ġ2021":12456,"CONT":12457,"'_":12458,"Ġinserted":12459,"Ġcomputing":12460,"ï¼ļ":12461,"ĠEst":12462,"Ġcf":12463,"Poly":12464,"provision":12465,"manual":12466,"Ġali":12467,"ĠFrench":12468,"Ġavailability":12469,"CUR":12470,"Ġanchor":12471,"Ġlas":12472,"publish":12473,"cler":12474,"Ġhumans":12475,"Func":12476,"Ġgdal":12477,"Âģ":12478,"Ġ83":12479,"comments":12480,"ĠRandom":12481,"ĠGR":12482,"Ġintake":12483,"Ġpolicies":12484,"Define":12485,"VALUE":12486,"ĠDivision":12487,"Ġ119":12488,"013":12489,"Ġtransplant":12490,"Person":12491,"Ġub":12492,"ĠPoly":12493,"Ġnamely":12494,"iner":12495,"uite":12496,"Endpoint":12497,"Ġassays":12498,"inline":12499,"ĠMass":12500,"Ġpet":12501,"Ð·":12502,"Bal":12503,"ylabel":12504,"ulary":12505,"ĠAzure":12506,"qs":12507,"Ġbed":12508,"Exists":12509,"éĩ":12510,"listdir":12511,"recur":12512,"utr":12513,"got":12514,"Draw":12515,"ĠĠĠĠĠĠĠĠĠĠĠĠĠĠĠĠĠĠĠĠĠĠĠĠĠĠĠĠĠĠĠĠĠĠĠĠĠĠĠĠĠĠĠĠĠĠĠĠĠĠĠĠĠĠĠĠĠĠĠĠĠĠĠĠĠĠĠĠĠĠĠĠĠĠĠĠĠĠĠĠĠĊĠ":12516,"ĠSal":12517,"Ġcanonical":12518,"ktop":12519,"Ġperfect":12520,"ĠĠĠĠĊĠĠĠĠĠĠĠ":12521,"Ġ91":12522,"Ġnorth":12523,"ĠIC":12524,"Ġoxide":12525,"ĠUSE":12526,"Ġmacroph":12527,"~*":12528,"ARK":12529,"urop":12530,"allenge":12531,"ĠTry":12532,"crop":12533,"filtered":12534,"ENCE":12535,"Âļ":12536,"Package":12537,"losses":12538,"ucial":12539,"deepcopy":12540,"hspace":12541,"veloper":12542,"umulative":12543,"recv":12544,"attrib":12545,"Ġ1992":12546,"Ġaccident":12547,"Ġinclusion":12548,"Ġ112":12549,"Ġapt":12550,"1997":12551,"Ġhosts":12552,"Setting":12553,"Ġshuffle":12554,"Ġindeed":12555,"tmpdir":12556,"ĠHR":12557,"Ġrevers":12558,"Attr":12559,"Ġaccumulation":12560,"Ġ+\\":12561,"odes":12562,"Ġdegradation":12563,"mouse":12564,"hh":12565,"matched":12566,"'\",":12567,"ĊĠĠĠĠĠĠĠĠĠĠĠĠĠĠĠĠĠĠĠĠĠĠĠĠĠĠĠĠĠĠĠĠĠĠĠĠĠĠĠĠĠĠĠĠĠĠĠĠĠĠĠĠĠĠĠĠĠĠĠĠĠĠĠĠĠĠĠĠĠĠĠĠĠĠĠĠĠĠĠĠĠĠĠĠĠĠĠĠĠĠĠĠĠĠĠĠĠĠĠĠĠĠĠĠ":12568,"Ġprompt":12569,"DH":12570,"textbf":12571,"ĠConfiguration":12572,"]/":12573,"Ġ(:":12574,"Ġcontends":12575,"Ġhappen":12576,"Ġtechnical":12577,"dem":12578,"Ġmounted":12579,"ĠAmong":12580,"ĠEngine":12581,"Ġlocally":12582,"ĠMap":12583,"))/":12584,"(\"<":12585,"descriptor":12586,"Ġrunner":12587,"Ġnewly":12588,"Ġserialize":12589,"ĠMethods":12590,"etics":12591,"Wait":12592,"ĠAv":12593,"Ġphy":12594,"Ġhierarch":12595,"Ġcrime":12596,"Ġadmitted":12597,"Extension":12598,"sey":12599,"ĠCongress":12600,"Ġremoving":12601,"Ġlic":12602,"Ġtelevision":12603,"ĠĠĠĠĊĠĠĠ":12604,"ĠPlaintiffs":12605,"Ġintroduce":12606,"025":12607,"Gets":12608,"ĠĊĊ":12609,"Ġmapped":12610,"Ġstandards":12611,"Ġanalyze":12612,"Ġcivil":12613,"Ġsetattr":12614,"UPPORT":12615,"Ġroad":12616,"Ġdefining":12617,"Ġrequiring":12618,"Ġdepression":12619,"ĠValidation":12620,"023":12621,"Ġdiver":12622,"Ġbright":12623,"polling":12624,"minimum":12625,"Ġbins":12626,"Fin":12627,"confirm":12628,"life":12629,"ĠĠĠĠĠĠĠĠĠĠĠĠĠĠĠĠĠĠĠĠĠĠĠĠĠĠĠĠĠĠĠĠĠĠĠĠĠĠĠĠĠĠĠĠĠĠĠĠĠĠĠĠĠĠĠĠĠĠĠĠĠĠĠĠĠĠĠĠĠĠĠĠĠĠĠĠĠĠĠĠĠĠĊĠ":12630,"Ġwanted":12631,"cipe":12632,"Ġadministrative":12633,"ounce":12634,"Ġintention":12635,"broadcast":12636,"800":12637,"`:":12638,"since":12639,"113":12640,"ĠBur":12641,"Ġtxt":12642,"Ġcontrolling":12643,"Ġdefinitions":12644,"ĠLes":12645,"ĠLett":12646,"ĠJames":12647,"Ġlengths":12648,"PG":12649,"{'":12650,"Ġwrap":12651,"dictionary":12652,"coeff":12653,"Ġsear":12654,"Ġdecisions":12655,"Ġ93":12656,"Ġpathlib":12657,"ĠDoes":12658,"tv":12659,">,":12660,"URI":12661,"Ġatm":12662,"visit":12663,"ä¸Ģ":12664,"âī":12665,"Ġcrop":12666,"Ġcentury":12667,"Ġcomprising":12668,"+^":12669,"Ġprospect":12670,"COUNT":12671,"Ġ-->":12672,"Î¬":12673,"Ġestimation":12674,"agn":12675,"additional":12676,"VI":12677,"ĠLtd":12678,"topo":12679,"Â¿":12680,"Ġsep":12681,"Ġshock":12682,"Ġnearly":12683,"Ġdiscovered":12684,"Ġexhibit":12685,"SERT":12686,"Ġhorm":12687,"Ġdropout":12688,"softmax":12689,"phan":12690,"gov":12691,"linked":12692,"Ġincrement":12693,"Iterator":12694,"flux":12695,"uom":12696,"setminus":12697,"Ġinternational":12698,"Ġsequencing":12699,"Ġ81":12700,"Ġphases":12701,"ĠImm":12702,"Ġcs":12703,"Ġfunct":12704,"FORMAT":12705,"Ġ102":12706,"bank":12707,"Ġpdf":12708,"otyp":12709,"backends":12710,"ĠStatus":12711,"REQUEST":12712,"(\"#":12713,"ĠGenerated":12714,"(\".":12715,"zi":12716,"ĠBr":12717,"Ġannotations":12718,"ĠStruct":12719,"Ġmoderate":12720,"Ġdecreases":12721,"squeeze":12722,"VAR":12723,"Ġdataframe":12724,"Ġsimilarity":12725,"ups":12726,"subscriptionId":12727,"numbers":12728,"(('":12729,"gency":12730,"ESM":12731,"Ġsimultaneously":12732,"ĠPet":12733,"Ġic":12734,"ĠChinese":12735,"actic":12736,"145":12737,"ĠWT":12738,"Ġlogits":12739,"ĊĠĠĠĠĠĠĠĠĠĠĠĠĠĠĠĠĠĠĠĠĠĠĠĠĠĠĠĠĠĠĠĠĠĠĠĠĠĠĠĠĠĠĠĠĠĠĠĠĠĠĠĠĠĠĠĠĠĠĠĠĠĠĠĠĠĠĠĠĠĠĠĠĠĠĠĠĠĠĠĠĠĠĠĠĠĠĠĠĠĠĠĠĠĠĠĠĠĠĠĠĠĠĠĠĠ":12740,"Ġderivatives":12741,"More":12742,"Ġevident":12743,"hub":12744,"Machine":12745,"hesized":12746,"ĠPT":12747,"ĠFA":12748,"fection":12749,"consistent":12750,"collections":12751,"ĠĠĠĠĊĠĠ":12752,".],":12753,"Ġrelax":12754,"Video":12755,"ĠĠĠĠĠĠĠĠĠĠĠĠÂł":12756,"Ġvit":12757,">\",":12758,"ĠWashington":12759,"urs":12760,"Backend":12761,"median":12762,"Ġcolo":12763,"čč":12764,"mgr":12765,"oled":12766,"gap":12767,"masks":12768,"ĠĠĠĠĠĠĠĠĠĠĠĠĠĠĠĠĠĠĠĠĠĠĠĠĠĠĠĠĠĠĠĠĠĠĠĠĠĠĠĠĠĠĠĠĠĠĠĠĠĠĠĠĠĠĠĠĠĠĠĠĠĠĠĠĠĠĠĠĠĠĠĠĠĠĠĠĠĠĠĠĠĠĠĊĠ":12769,"ervation":12770,"Ġcombinations":12771,"Ġtown":12772,"ĠSy":12773,"ku":12774,"getattr":12775,"Ġipv":12776,"_{-":12777,"MAN":12778,"Ġwavelength":12779,"144":12780,"Ġvars":12781,"ĠDM":12782,"Trace":12783,"$(":12784,"ĠReport":12785,"Ġforeign":12786,"011":12787,"Ġpsycho":12788,"Ġusual":12789,"bio":12790,"utrients":12791,"restrict":12792,"Ġdestroy":12793,"osing":12794,"ĠMR":12795,"Ġstrides":12796,"articles":12797,"People":12798,"loyee":12799,"Ġoffered":12800,"POS":12801,"Ġ82":12802,"567":12803,"Ġmgr":12804,"Ġnom":12805,"ĠBrown":12806,"Ġlys":12807,"Ġoch":12808,"âĢħ":12809,"Ġiterator":12810,"entions":12811,"rim":12812,"åį":12813,"Ġreduces":12814,"PREFIX":12815,"ea":12816,"æł":12817,"WORK":12818,"Transaction":12819,"=='":12820,"Ġnight":12821,"rst":12822,"Ġindirect":12823,"via":12824,"seek":12825,"eh":12826,"vectors":12827,"ĠMD":12828,"sampling":12829,"Ġordering":12830,"WA":12831,"iser":12832,"Ġcols":12833,"sch":12834,"ĠChild":12835,"Ġcalcium":12836,"Ġartery":12837,"Ġmales":12838,"flip":12839,"pal":12840,"Sch":12841,"pip":12842,"Ġpun":12843,"Ġflatten":12844,"Ġweighted":12845,"Ġâī¥":12846,"Seq":12847,"oks":12848,"Ġtemplates":12849,"both":12850,"Ġdeclare":12851,"Ġcompletion":12852,"spin":12853,"Ġrespiratory":12854,"ND":12855,"ĠDC":12856,"Ġeconomic":12857,"ĠBa":12858,"Ġsudo":12859,"clock":12860,"itespace":12861,"Ã½":12862,"^{-\\":12863,"Ġclone":12864,"thresh":12865,"Âĺ":12866,"xlabel":12867,"Ġasc":12868,"CLUD":12869,"about":12870,"lip":12871,"allery":12872,"ĠĠĠĠĠĠĠĠĠĠĠĠĠĠĠĠĠĠĠĠĠĠĠĠĠĠĠĠĠĠĠĠĠĠĠĠĠĠĠĠĠĠĠĠĠĠĠĠĠĠĠĠĠĠĠĠĠĠĠĠĠĠĠĠĠĠĠĠĠĠĠĠĠĠĠĠĠĠĠĠĠĠĠĠĊĠ":12873,"through":12874,"legate":12875,"126":12876,"Ġembod":12877,"ordered":12878,"Ġadequate":12879,"Ġproducing":12880,"ĠIF":12881,"Ġiterations":12882,"terms":12883,"ĠHE":12884,"Ġfed":12885,"restore":12886,"Factor":12887,"118":12888,"OC":12889,"itudinal":12890,"Ð¾Ð»":12891,"\\}":12892,"plays":12893,"UTE":12894,"Ġreturning":12895,"Ġassistance":12896,"ĠQuery":12897,"ĠSort":12898,"Ġ117":12899,"FFFF":12900,"å¼":12901,"Ġknock":12902,"arios":12903,"asc":12904,"ĠCS":12905,"anchor":12906,"Ġped":12907,"Ġdenotes":12908,"ĊĠĠĠĠĠĠĠĠĠĠĠĠĠĠĠĠĠĠĠĠĠĠĠĠĠĠĠĠĠĠĠĠĠĠĠĠĠĠĠĠĠĠĠĠĠĠĠĠĠĠĠĠĠĠĠĠĠĠĠĠĠĠĠĠĠĠĠĠĠĠĠĠĠĠĠĠĠĠĠĠĠĠĠĠĠĠĠĠĠĠĠĠĠĠĠĠĠĠĠĠĠĠĠĠĠĠ":12909,"ĠJack":12910,"itutions":12911,"ulture":12912,"Extra":12913,"United":12914,"Ġ\\#":12915,"Ġembedded":12916,"Full":12917,"certificate":12918,"tm":12919,"exact":12920,"Ġwithdraw":12921,"pull":12922,"Ġwatch":12923,"Ġmerged":12924,"................":12925,"Ġmaximal":12926,"=\"\",":12927,"Ġefforts":12928,"pretrained":12929,"Ġrefresh":12930,"Ġfunctionality":12931,"Ġplastic":12932,"Ġta":12933,"Bad":12934,"Ġoccurrence":12935,"ming":12936,"Ġtrend":12937,"Stud":12938,"ĠSC":12939,"ranes":12940,"ĠZe":12941,"#####":12942,"prof":12943,"adian":12944,"240":12945,"Orig":12946,"1996":12947,"olf":12948,"Mar":12949,"ĠWrite":12950,"Syn":12951,"Ġcorrelations":12952,"%;":12953,"Ġtile":12954,"illary":12955,"deploy":12956,"\")[":12957,"sem":12958,"ĠĠĊĊĠ":12959,"updates":12960,"Ġantibiot":12961,"patient":12962,"Ġattachment":12963,"Although":12964,"Ġprovisions":12965,"published":12966,"uan":12967,"atever":12968,"ĠUV":12969,"ĠFire":12970,"204":12971,"Iii":12972,"ville":12973,"lazy":12974,"Ġ113":12975,"findall":12976,"Ġsoil":12977,"Ġcarcinoma":12978,"Json":12979,"bral":12980,"Ġmalign":12981,"Ġpromoter":12982,"Ġresonance":12983,"ĠInstead":12984,"polar":12985,"Hello":12986,"BV":12987,"Joh":12988,"workspace":12989,"priv":12990,"ĠSNP":12991,"Ġtouch":12992,"Ġsolvent":12993,"Ġsulf":12994,"pection":12995,"0004":12996,"ĠCONTR":12997,"ORM":12998,"ceil":12999,"remain":13000,"ĠIndia":13001,"ĠĠĠĠĠĠĠĠĠĠĠĠĠĠĠĠĠĠĠĠĠĠĠĠĠĠĠĠĠĠĠĠĠĠĠĠĠĠĠĠĠĠĠĠĠĠĠĠĠĠĠĠĠĠĠĠĠĠĠĠĠĠĠĠĠĠĠĠĠĠĠĠĠĠĠĠĠĠĠĠĠĠĠĠĠĊĠ":13002,"urally":13003,"Ġexponential":13004,"Ġworkflow":13005,"Ġdesirable":13006,"Ġextremely":13007,"ĠDatabase":13008,"Ġincorporated":13009,"ĠRights":13010,"Yes":13011,"Ġ188":13012,"ĠStreet":13013,"Ġeventually":13014,"ĠCla":13015,"Ä«":13016,"=('":13017,"camp":13018,"pyplot":13019,"Arg":13020,"aternal":13021,"Ġdirectories":13022,"Ġatol":13023,"Ġentropy":13024,"uma":13025,"^)":13026,"Ġobtaining":13027,"Ġcam":13028,"Ġnotification":13029,"timezone":13030,"122":13031,"Ġqueryset":13032,"Ġsqlalchemy":13033,"Ġmes":13034,"iliary":13035,"pas":13036,"ĠOffic":13037,"Ġhostname":13038,"BooleanField":13039,"Ġdeform":13040,"ĠÐ¿ÑĢ":13041,"EA":13042,"Cour":13043,")},":13044,"Ġdates":13045,"Ġindicator":13046,"Ġautomatic":13047,"assertRaisesRegex":13048,"Ġrough":13049,"ĠLeg":13050,"ĠScale":13051,"Ġnx":13052,"ĠWhite":13053,"_{(":13054,"Rob":13055,"Gra":13056,"ĠÏĥ":13057,"Ġ160":13058,"serialization":13059,"Ġ104":13060,"ĠOrgan":13061,"Basic":13062,"Î¿Ïħ":13063,"Pay":13064,"Ġsodium":13065,"specs":13066,"1995":13067,"Ġble":13068,")})":13069,"rotation":13070,"Ġacting":13071,"dsh":13072,"ĊĠĠĠĠĠĠĠĠĠĠĠĠĠĠĠĠĠĠĠĠĠĠĠĠĠĠĠĠĠĠĠĠĠĠĠĠĠĠĠĠĠĠĠĠĠĠĠĠĠĠĠĠĠĠĠĠĠĠĠĠĠĠĠĠĠĠĠĠĠĠĠĠĠĠĠĠĠĠĠĠĠĠĠĠĠĠĠĠĠĠĠĠĠĠĠĠĠĠĠĠĠĠĠĠĠĠĠ":13073,"ĠAustralia":13074,"Ġcb":13075,"ĠNat":13076,"Ġsuperior":13077,"ogenic":13078,"ĠCLI":13079,"æį":13080,"Ġrand":13081,"Ġcomprehen":13082,"nested":13083,"Ġcli":13084,"bullet":13085,"Ġpulmonary":13086,"activate":13087,"Override":13088,"Ġtransformed":13089,"Lock":13090,"ĠÑĤ":13091,"TextField":13092,"Ġclosely":13093,"connections":13094,"Ġparas":13095,"Ġfresh":13096,"Ġrib":13097,"Ġwel":13098,"uing":13099,"ĠLink":13100,"ĠFrance":13101,"ades":13102,"Ġssl":13103,"Ġhousing":13104,"indexes":13105,"Â´":13106,"Driver":13107,"inja":13108,"Ġmeeting":13109,"Ġ#:":13110,"basis":13111,"0003":13112,"Ċĉĉĉĉĉĉ":13113,"CADE":13114,"sky":13115,"åĩ":13116,"mysql":13117,"Ġabort":13118,"Ġsit":13119,"anded":13120,"doi":13121,"ĠPatients":13122,"ĠĠĠĠĠĠĠĠĠĠĠĠĠĠĠĠĠĠĠĠĠĠĠĠĠĠĠĠĠĠĠĠĠĠĠĠĠĠĠĠĠĠĠĠĠĠĠĠĠĠĠĠĠĠĠĠĠĠĠĠĠĠĠĠĠĠĠĠĠĠĠĠĠĠĠĠĠĠĠĠĠĠĠĠĠĠĊĠ":13123,"Ġappreci":13124,"sz":13125,"Ġmoves":13126,"Ġavg":13127,"Ġspecificity":13128,"interfaces":13129,"Â¾":13130,"Ġmodern":13131,"ĠDecimal":13132,"Ġfunctools":13133,"ĠExperim":13134,"Ġfusion":13135,"ista":13136,"Ġwind":13137,"psy":13138,"Ġalleg":13139,"Ġ1991":13140,"ĠShould":13141,"Ġfinds":13142,"REF":13143,"deps":13144,"Ġodd":13145,"ĠDown":13146,"Ġfraud":13147,"ĠAccess":13148,"Ġ=\\":13149,"ĠPlan":13150,"Ġrefers":13151,"Descriptor":13152,"Ïĩ":13153,"Area":13154,"ĠKE":13155,"ĠĠĠĠĠĊĠĠ":13156,"runs":13157,"Ġprecise":13158,"lag":13159,"ously":13160,"Ġproduces":13161,"Ġcompl":13162,"CY":13163,"nsure":13164,"ĠOh":13165,"Programming":13166,"Ġ116":13167,"Ġdash":13168,"henticated":13169,"Ġinvariant":13170,"ĠĠĠĊĊĠ":13171,"Ġactor":13172,"Ġdop":13173,"1994":13174,"Ã¢":13175,"Ġinfinite":13176,"Price":13177,"Express":13178,"Attributes":13179,"Ġsympy":13180,"ĠGenerate":13181,"Ġregulatory":13182,"dra":13183,"Ġsurrounding":13184,"ĠDR":13185,"ĠLIMIT":13186,":],":13187,"Mean":13188,"asket":13189,"ADDR":13190,"libs":13191,"NULL":13192,"Ġprison":13193,"encoded":13194,"Ġ-----------":13195,"Ġinterview":13196,"Ġduplicate":13197,"Ġconstitutional":13198,"()}":13199,"Ġnu":13200,"Ġoccas":13201,"Ġdiagonal":13202,"gray":13203,"Ġindustry":13204,"ĠElement":13205,"$^{":13206,"CLUDING":13207,"Ġwaiting":13208,"Ġessentially":13209,"groupby":13210,"arrange":13211,"Pop":13212,"utter":13213,"Ġsecure":13214,"okies":13215,"Ġdirections":13216,"Ġturned":13217,"Ġtransitions":13218,"TL":13219,"Ġcomplexes":13220,"letter":13221,"_+":13222,"ĠSession":13223,"Almost":13224,"ĠCount":13225,"Ġupgrade":13226,"SPE":13227,"<<":13228,"Ġdispatch":13229,"Ġreporting":13230,"ĠAF":13231,"Ġexpanded":13232,"Success":13233,"Ġpartners":13234,"Ġpresentation":13235,"ĠĠĠĠĠĠĠĠĠĠĠĠĠĠĠĠĠĠĠĠĠĠĠĠĠĠĠĠĠĠĠĠĠĠĠĠĠĠĠĠĠĠĠĠĠĠĠĠĠĠĠĠĠĠĠĠĠĠĠĠĠĠĠĠĠĠĠĠĠĠĠĠĠĠĠĠĠĠĠĠĠĠĠĠĠĠĠĊĠ":13236,"Prefix":13237,"]',":13238,"seen":13239,"leaf":13240,"ingerprint":13241,"ĠOK":13242,"iers":13243,"Ġpregnancy":13244,"Ġinterpreted":13245,"rics":13246,"Ġ%.":13247,"(\"[":13248,"kb":13249,"linspace":13250,"airs":13251,"communic":13252,"ĠCanada":13253,"Second":13254,"oton":13255,"','','":13256,"ĠGa":13257,"$^{-":13258,"Ang":13259,"Ġamp":13260,"Ġanswers":13261,"regulation":13262,"Background":13263,"Ġ118":13264,"WT":13265,"{}\".":13266,"Ġdiversity":13267,"Ġcontributed":13268,"transl":13269,"ĊĠĠĠĠĠĠĠĠĠĠĠĠĠĠĠĠĠĠĠĠĠĠĠĠĠĠĠĠĠĠĠĠĠĠĠĠĠĠĠĠĠĠĠĠĠĠĠĠĠĠĠĠĠĠĠĠĠĠĠĠĠĠĠĠĠĠĠĠĠĠĠĠĠĠĠĠĠĠĠĠĠĠĠĠĠĠĠĠĠĠĠĠĠĠĠĠĠĠĠĠĠĠĠĠĠĠĠĠ":13270,"ATCH":13271,"verts":13272,"Cap":13273,"formula":13274,"Ġattract":13275,"FIEL":13276,"alg":13277,"information":13278,"éĢ":13279,"resourceGroupName":13280,"Ġtrig":13281,"Ġreplication":13282,"ĠLouis":13283,"pf":13284,"tun":13285,"MOESM":13286,"cipl":13287,"IME":13288,"Ġrapidly":13289,"Ġproceeding":13290,"Ġdoor":13291,"Ġqueries":13292,"rowse":13293,"Ġvalidity":13294,"hep":13295,"Î´":13296,"=============":13297,"čĊĠĠĠĠĠĠĠĠĠĠĠĠĠĠĠĠĠĠĠĠĠĠĠĠĠĠĠ":13298,"Ġenzymes":13299,"Nodes":13300,"aptic":13301,"Ġplates":13302,"Ġsubscription":13303,"walk":13304,"Ġspot":13305,"GEN":13306,"Ġ------------------------------------------------":13307,"amic":13308,"Ġaugment":13309,"Grad":13310,"inet":13311,"ĠSever":13312,"ĠĠĠĠĠĠĠĠĠĠĠĠĠÂł":13313,"idal":13314,"Ġeast":13315,"jax":13316,"migrations":13317,"ĠSelect":13318,"General":13319,"otation":13320,"Public":13321,"ranged":13322,"Ġpeaks":13323,"Ġburn":13324,"Ġbattery":13325,"suite":13326,"Ġsatisfied":13327,"BF":13328,"Ġadministered":13329,"Ġchallenges":13330,"Ġpub":13331,"eve":13332,"*(-":13333,"Ġ1983":13334,"LOGGER":13335,"ĠThomas":13336,"...)":13337,"INST":13338,"reak":13339,".*]{}":13340,"Ġdiagnosed":13341,"jections":13342,"Ġmitochondrial":13343,"Ġreliable":13344,"Ġbul":13345,"ester":13346,"ĠWilliam":13347,"shuffle":13348,"Ġris":13349,"Ġinequality":13350,"Ġspeech":13351,"Ġlegisl":13352,"ĠĠĠĠĠĠĠĠĠĠĠĠĠĠĠĠĠĠĠĠĠĠĠĠĠĠĠĠĠĠĠĠĠĠĠĠĠĠĠĠĠĠĠĠĠĠĠĠĠĠĠĠĠĠĠĠĠĠĠĠĠĠĠĠĠĠĠĠĠĠĠĠĠĠĠĠĠĠĠĠĠĠĠĠĠĠĠĠĊĠ":13353,"ala":13354,"Ġregener":13355,"ĠÑ":13356,"Ġnonlinear":13357,"Ġmob":13358,"products":13359,"pointer":13360,"ĠTrust":13361,"Ġphenotype":13362,"agree":13363,"$]{}":13364,"Ġ140":13365,"El":13366,"Ġgel":13367,"ĠCL":13368,"union":13369,"Member":13370,"Ġcomprises":13371,"ĠRA":13372,"__(**":13373,"}$$\\":13374,".:":13375,"Ġsoon":13376,"Ġinterventions":13377,"interpol":13378,"jk":13379,"@@":13380,"Ġzo":13381,"Folder":13382,"Ġvictim":13383,"Ġbroken":13384,"åľ":13385,"Ġchole":13386,"Ġ);":13387,"fed":13388,"tran":13389,"Ġbarrier":13390,"ĠĠĠĠĠĠĊĠĠ":13391,"student":13392,"\"'":13393,"Ġangles":13394,"thal":13395,"Ġarrow":13396,"Utils":13397,"129":13398,"Ġscen":13399,"ĠHall":13400,"asm":13401,"xfe":13402,"FORM":13403,"Unable":13404,"rink":13405,"Ġtracking":13406,"Ġ105":13407,"creen":13408,">.":13409,"ATT":13410,"Ġsco":13411,"ĊĠĠĠĠĠĠĠĠĠĠĠĠĠĠĠĠĠĠĠĠĠĠĠĠĠĠĠĠĠĠĠĠĠĠĠĠĠĠĠĠĠĠĠĠĠĠĠĠĠĠĠĠĠĠĠĠĠĠĠĠĠĠĠĠĠĠĠĠĠĠĠĠĠĠĠĠĠĠĠĠĠĠĠĠĠĠĠĠĠĠĠĠĠĠĠĠĠĠĠĠĠĠĠĠĠĠĠĠĠ":13412,"Ġpprint":13413,"Ġlibraries":13414,"gmail":13415,"lings":13416,"Ġconsecutive":13417,"Ġ1980":13418,"Ġkeywords":13419,"Ġloader":13420,"Ġbill":13421,"Ġsell":13422,"Ġ129":13423,"Ġexhaust":13424,"locale":13425,"three":13426,"Ġspher":13427,"Ġmount":13428,"ĠRequired":13429,"ĠNotes":13430,"*=":13431,"Ġconfigurations":13432,"Ġmanage":13433,"Ġgateway":13434,"Ġinsufficient":13435,"/\",":13436,"Ġbeg":13437,"moment":13438,"ĠReview":13439,"Ġthrom":13440,"Ġprinting":13441,"ĠĠĠĠĠĠĠĠĠĠĠĠĠĠĠĠĠĠĠĠĠĠĠĠĠĠĠĠĠĠĠĠĠĠĠĠĠĠĠĠĠĠĠĠĠĠĠĠĠĠĠĠĠĠĠĠĠĠĠĠĠĠĠĠĠĠĠĠĠĠĠĠĠĠĠĠĠĠĠĠĠĠĠĠĠĠĠĠĠĊĠ":13442,"ĠSR":13443,"âĶĢâĶĢâĶĢâĶĢ":13444,"~)":13445,"Ġdefer":13446,"Ġmist":13447,"atype":13448,"Ġdd":13449,"venue":13450,"Ġsides":13451,"Another":13452,"Ġpolitical":13453,"Initial":13454,"pired":13455,"Ġimpo":13456,"Further":13457,"ĠArch":13458,"TypeId":13459,"ĠComple":13460,"fft":13461,"Ġregardless":13462,"Player":13463,"());":13464,"ICES":13465,"ĠIts":13466,"Ġoriginally":13467,"Site":13468,"Ġpermitted":13469,"Ġaden":13470,"imately":13471,"Ġinvolvement":13472,"Ġcapital":13473,"Ġ=================================================================":13474,"Ġuncertainty":13475,"cube":13476,"AutoField":13477,"Ġthreat":13478,"arian":13479,"rack":13480,"Ġnerve":13481,"also":13482,"Ġtimezone":13483,"({{\\":13484,"Ġexhibited":13485,"Exist":13486,"ĠUnit":13487,"Ġrhs":13488,"ĠÎµ":13489,"processors":13490,"rey":13491,"Hub":13492,"Ġ```":13493,"ĠPeople":13494,"Ġtract":13495,"entropy":13496,"ĠConsider":13497,"Ġatomic":13498,"ĠNever":13499,"Ġreact":13500,"wi":13501,"ĠPI":13502,"ĠSecret":13503,"realm":13504,"solve":13505,"Ġ600":13506,"137":13507,"cookie":13508,"DEX":13509,"Ġwal":13510,"distributed":13511,"Ġphosphorylation":13512,"Ġvul":13513,"Ġvalidated":13514,"will":13515,"Ġdefaultdict":13516,"omb":13517,"Ġsystematic":13518,"Ġfish":13519,"sime":13520,"Ġhardware":13521,"Ġcrypt":13522,"mf":13523,"ĠAmendment":13524,"reedom":13525,"Ġserialized":13526,"iii":13527,"ĊĠĠĠĠĠĠĠĠĠĠĠĠĠĠĠĠĠĠĠĠĠĠĠĠĠĠĠĠĠĠĠĠĠĠĠĠĠĠĠĠĠĠĠĠĠĠĠĠĠĠĠĠĠĠĠĠĠĠĠĠĠĠĠĠĠĠĠĠĠĠĠĠĠĠĠĠĠĠĠĠĠĠĠĠĠĠĠĠĠĠĠĠĠĠĠĠĠĠĠĠĠĠĠĠĠĠĠĠĠĠ":13528,":{":13529,"ĊĉĠĠ":13530,"Ġestimator":13531,"Ġverdict":13532,"pel":13533,"ĠRepresent":13534,"station":13535,"hit":13536,"Ġvarying":13537,"lade":13538,"ĠBad":13539,"Ġtqdm":13540,"Ġdocs":13541,"æī":13542,"deletion":13543,"Ġcommitted":13544,"unused":13545,"have":13546,"SSL":13547,"iams":13548,"Ġsurve":13549,"ĠĠĠĠĊĊĠ":13550,"ĠĠĠĠĠĠĠĠĠĠĠĠĠĠĠĠĠĠĠĠĠĠĠĠĠĠĠĠĠĠĠĠĠĠĠĠĠĠĠĠĠĠĠĠĠĠĠĠĠĠĠĠĠĠĠĠĠĠĠĠĠĠĠĠĠĠĠĠĠĠĠĠĠĠĠĠĠĠĠĠĠĠĠĠĠĠĠĠĠĠĊĠ":13551,"ughter":13552,"Ġsubclass":13553,"Ġfloor":13554,"ĠParameter":13555,"Ġconform":13556,"Ġaltered":13557,"Send":13558,"gas":13559,"Ġbpy":13560,"swap":13561,"ĠCho":13562,"ĠĠĠĠĠĠĠĊĠĠ":13563,"fan":13564,"sumer":13565,"ket":13566,"sensus":13567,"scribed":13568,"Ġdiss":13569,"drive":13570,"Ġleak":13571,"clusters":13572,"CREATE":13573,"ĠDevelopment":13574,"ĠChang":13575,"STM":13576,"157":13577,"âĢ¯":13578,"Ġconstit":13579,"Ġ109":13580,"batches":13581,"sil":13582,"validators":13583,"Ġnotation":13584,".$":13585,"PRESS":13586,"Ġclaimed":13587,"prog":13588,"Encoder":13589,"anced":13590,"ĠSave":13591,"mos":13592,"adder":13593,"Ġlabeled":13594,"Ġparsing":13595,"Ġ114":13596,"Ġjump":13597,"Ġconvergence":13598,"sterol":13599,"While":13600,"far":13601,"idity":13602,"Ġans":13603,"Ġextensive":13604,"Ġmarg":13605,"Ġdeclared":13606,"ĠDevice":13607,":/":13608,"Ġlumin":13609,"missed":13610,"ository":13611,"pole":13612,"did":13613,"corr":13614,"ä¸º":13615,"Ġpel":13616,"Segment":13617,"Ġprocessor":13618,"similar":13619,"202":13620,"121":13621,"Ġpractical":13622,"Ġcoming":13623,"including":13624,"ĠSpr":13625,"umptions":13626,".]":13627,"Stop":13628,"INPUT":13629,"Ġtimer":13630,"icit":13631,"Ġ103":13632,"Ġfibro":13633,"Optim":13634,"bibr":13635,"Ġrelay":13636,"SED":13637,"coordinates":13638,"today":13639,"gc":13640,"===========":13641,"155":13642,"Ġradial":13643,"Ġinterpolation":13644,"djangoproject":13645,"iteritems":13646,"Ġcoords":13647,"subscriptions":13648,"ĠDelete":13649,"ĠEnvironment":13650,"genes":13651,"Skip":13652,"Ġthresh":13653,"Ġimported":13654,"Ġ133":13655,"Ġthrow":13656,"175":13657,"perp":13658,"Ġcredit":13659,"ionError":13660,"ĠThree":13661,"ĠâĪ":13662,"Ġequilibrium":13663,"ĠVAL":13664,"ĠPL":13665,"capture":13666,"Ġ124":13667,"Ġssh":13668,"Ġbelieved":13669,"ĠConnection":13670,"Ġimmunity":13671,"utorial":13672,"Ġsoc":13673,"demo":13674,"visual":13675,"Ġsynchron":13676,"ĠĠĠĠĠĠĠĠĠĠĠĠĠĠĠĠĠĠĠĠĠĠĠĠĠĠĠĠĠĠĠĠĠĠĠĠĠĠĠĠĠĠĠĠĠĠĠĠĠĠĠĠĠĠĠĠĠĠĠĠĠĠĠĠĠĠĠĠĠĠĠĠĠĠĠĠĠĠĠĠĠĠĠĠĠĠĠĠĠĠĠĊĠ":13677,"pw":13678,"MEM":13679,"Âį":13680,"ideos":13681,"simeq":13682,"Ġcatalog":13683,"ceut":13684,"SERVER":13685,"ĠSociety":13686,"EVENT":13687,"AX":13688,"Ġnit":13689,"literals":13690,"estimator":13691,"Ġprox":13692,"Ġnormalization":13693,"solver":13694,"gression":13695,"elling":13696,"Ġabundance":13697,"ĠHz":13698,"Ġtiming":13699,",\\,":13700,"Ġhimself":13701,"Ids":13702,"ĠAG":13703,"ĠPal":13704,"EF":13705,"ĊĠĠĠĠĠĠĠĠĠĠĠĠĠĠĠĠĠĠĠĠĠĠĠĠĠĠĠĠĠĠĠĠĠĠĠĠĠĠĠĠĠĠĠĠĠĠĠĠĠĠĠĠĠĠĠĠĠĠĠĠĠĠĠĠĠĠĠĠĠĠĠĠĠĠĠĠĠĠĠĠĠĠĠĠĠĠĠĠĠĠĠĠĠĠĠĠĠĠĠĠĠĠĠĠĠĠĠĠĠĠĠ":13706,"Ġsigns":13707,"ĠPAR":13708,"iline":13709,"133":13710,"osomal":13711,"ReLU":13712,"UG":13713,"rstrip":13714,"ISA":13715,"AlmostEqual":13716,"calculate":13717,"CASCADE":13718,"Ġtranslate":13719,"=\"#":13720,"__['":13721,"Ð½Ð¾":13722,"ori":13723,"capacity":13724,"ĠMany":13725,"}))":13726,"CHAN":13727,"human":13728,"sis":13729,"Ġplaying":13730,"Methods":13731,"ĠTemp":13732,"Ġdefects":13733,"unately":13734,"iction":13735,"Ġregistration":13736,"tenant":13737,"Ġaccompl":13738,"ĊČĠĠĠĠĠĠĠ":13739,"treat":13740,"Debug":13741,"Ġnest":13742,"Environment":13743,"missible":13744,"ĊĊĠĠĠĠĠĠĠĠĠ":13745,"Ġ132":13746,"ĠTop":13747,"minutes":13748,"ĠSELECT":13749,"ĠTechnology":13750,"Ġrail":13751,"ARM":13752,"zilla":13753,"pix":13754,"ĠĠĠĠĠĠĠĠĊĠĠ":13755,"Ġcompress":13756,"inn":13757,"goal":13758,"UV":13759,"fw":13760,"Ġ106":13761,"ĠAttorney":13762,"ĠFrank":13763,"ergic":13764,"Ġports":13765,"rn":13766,"ĠTYPE":13767,"Ġflip":13768,"áĢ":13769,"Ġvehicles":13770,"ĠHuman":13771,"Ġaddressed":13772,"!')":13773,"UTF":13774,"ĠContent":13775,"}}_{\\":13776,"ĠSa":13777,"isters":13778,"ĠFlor":13779,"Ã±":13780,"ĠHO":13781,"tele":13782,"Ġdriven":13783,"WARNING":13784,"HAND":13785,"deprecated":13786,"Ġattempted":13787,"ĠTarget":13788,"Ġrejected":13789,"Ġvariability":13790,"Ġpag":13791,"transforms":13792,"Ġvacuum":13793,"Mer":13794,"Â¨":13795,"024":13796,"Ġintersection":13797,"ĠFort":13798,"ĠHamiltonian":13799,"ILD":13800,"Ġfluctu":13801,"UPDATE":13802,"Ġtrees":13803,"Ġkidney":13804,"destroy":13805,"Ġvirt":13806,"Dat":13807,"Ġwife":13808,"ĠĠĠĠĠĠĠĠĠĠĠĠĠĠĠĠĠĠĠĠĠĠĠĠĠĠĠĠĠĠĠĠĠĠĠĠĠĠĠĠĠĠĠĠĠĠĠĠĠĠĠĠĠĠĠĠĠĠĠĠĠĠĠĠĠĠĠĠĠĠĠĠĠĠĠĠĠĠĠĠĠĠĠĠĠĠĠĠĠĠĠĠĊĠ":13809,"NV":13810,"Interval":13811,"Ġinjuries":13812,"design":13813,"Ġventric":13814,"Ġglut":13815,"ubic":13816,"ĠBatch":13817,"Move":13818,"Migration":13819,"Ġolig":13820,"ĠConv":13821,"Ġcomplicated":13822,"ĠPlot":13823,"coup":13824,"Ġions":13825,"acet":13826,"RPC":13827,"ĠATT":13828,"Ġinstallation":13829,"Ġ&=&":13830,"ĠPBS":13831,"between":13832,"orer":13833,"solid":13834,"\\_[":13835,"Ġlargely":13836,"TX":13837,"vertex":13838,"Ġcontrary":13839,"ĠĠĠĠĠĊĊĠ":13840,"ĠMagicMock":13841,"Ġthumb":13842,"assets":13843,"ĠAccount":13844,"Ġss":13845,"cellent":13846,"Ġsensors":13847,"Ġ'/'":13848,"Ġconcerns":13849,"vertices":13850,"initely":13851,"ĠSl":13852,"constraints":13853,"âĢ¢":13854,"ĠĠĠĠĊ":13855,"iped":13856,"CAC":13857,"Ġelection":13858,"Li":13859,"/>.":13860,"OIN":13861,"rick":13862,"tcp":13863,"Ġinterference":13864,"weighted":13865,"ĠSER":13866,"gro":13867,"hw":13868,"1990":13869,"Ġnumeric":13870,"Ġfirm":13871,"ptic":13872,"TYPES":13873,"ducation":13874,"\"};":13875,"Ġprohib":13876,"Ġ111":13877,"Ġacquisition":13878,"lements":13879,"Ġaged":13880,"conj":13881,"Ġargued":13882,"ĠĠĠĠĠĠĠĠĠĠĠĠĠĠÂł":13883,"Ġ(âĢľ":13884,"Adapter":13885,"___":13886,"Checker":13887,"ĊĠĠĠĠĠĠĠĠĠĠĠĠĠĠĠĠĠĠĠĠĠĠĠĠĠĠĠĠĠĠĠĠĠĠĠĠĠĠĠĠĠĠĠĠĠĠĠĠĠĠĠĠĠĠĠĠĠĠĠĠĠĠĠĠĠĠĠĠĠĠĠĠĠĠĠĠĠĠĠĠĠĠĠĠĠĠĠĠĠĠĠĠĠĠĠĠĠĠĠĠĠĠĠĠĠĠĠĠĠĠĠĠ":13888,"Ġelastic":13889,"Ġmerely":13890,"Ġtens":13891,"ĠÎº":13892,"validator":13893,"Ġju":13894,"Discussion":13895,"ategor":13896,"lotted":13897,"Ġgather":13898,"Ġquickly":13899,"Ġapproval":13900,"ĠChampion":13901,"activated":13902,"Ġcultured":13903,"checks":13904,"')))":13905,"Ġsubjected":13906,"mplements":13907,"ĠMiss":13908,"Ġpancre":13909,"Ġexperienced":13910,"136":13911,"vt":13912,"Ip":13913,"retri":13914,"hyp":13915,"Power":13916,"filled":13917,"virt":13918,"Eq":13919,"assertIsInstance":13920,"ĠJohnson":13921,"expl":13922,"Ġcompatibility":13923,"phil":13924,"Ġinterfaces":13925,"graphs":13926,"Ġpolymorph":13927,"+=":13928,"ĠĠĠĠĠĠĠĠĠĠĠĠĠĠĠĠĠĠĠĠĠĠĠĠĠĠĠĠĠĠĠĠĠĠĠĠĠĠĠĠĠĠĠĠĠĠĠĠĠĠĠĠĠĠĠĠĠĠĠĠĠĠĠĠĠĠĠĠĠĠĠĠĠĠĠĠĠĠĠĠĠĠĠĠĠĠĠĠĠĠĠĠĠĊĠ":13929,"hooks":13930,"ĠĠĠĠĠĠĠĠĠĊĠĠ":13931,"Ġvolumes":13932,"Ġfaces":13933,"Ġclassifier":13934,"Ġ122":13935,"ĠAttributes":13936,"ĠBUT":13937,"oston":13938,"Ġchip":13939,"detection":13940,"ĠGH":13941,"Ġdistinguish":13942,"Â¹":13943,"Ġmanufacturer":13944,"nf":13945,"GFR":13946,"Sequential":13947,"xpath":13948,"Region":13949,"Ġdescribing":13950,"ĠChe":13951,"[...,":13952,"Ġtopology":13953,"kers":13954,"Ġlegend":13955,"Ġcommission":13956,"species":13957,"!\\!\\":13958,"Ġvon":13959,"ĠDue":13960,"Ġdelivered":13961,"Ġintracellular":13962,"ymmetric":13963,"Runner":13964,"Ġ(_":13965,"Ġprinted":13966,"Ġgrowing":13967,"ä¸ª":13968,"detach":13969,"outfile":13970,"Ġabsent":13971,"Ġ\":":13972,"ami":13973,"geom":13974,"Ġexplore":13975,"symbols":13976,"Ġhi":13977,"ĠMichael":13978,"MBER":13979,"cas":13980,"TRAIN":13981,"aloader":13982,"ellig":13983,"Ġsolver":13984,"1993":13985,"Ġadds":13986,"Ġatmosph":13987,"ĠYes":13988,"Ġclients":13989,"Ġdeposition":13990,"\"\"\")":13991,"getenv":13992,"ĠDIS":13993,"ĠKore":13994,"Ġfibers":13995,"ĠSpe":13996,"versation":13997,"ĠGlobal":13998,"Ġexe":13999,"LAB":14000,"Ġcontour":14001,"even":14002,"Ġrouter":14003,"genesis":14004,"Exit":14005,"ĠCentral":14006,"Ġui":14007,"Ġcrucial":14008,"mma":14009,"SW":14010,"Ġpu":14011,"Ġpurchase":14012,"Ġguid":14013,"Ġtrainer":14014,"ador":14015,"Ġbackward":14016,"=__":14017,"Usage":14018,"alignment":14019,"cedure":14020,"ĠPrior":14021,"ÎŃ":14022,"mel":14023,"esity":14024,"Ġargue":14025,"rolled":14026,"heet":14027,"deli":14028,"ĠPetition":14029,"Ġaffects":14030,"Ġ|\\":14031,"Ġspecification":14032,"too":14033,"Ġroutine":14034,"GER":14035,"central":14036,"Ġshorter":14037,
[...]
